FANN_FLO_2.1
num_layers=4
learning_rate=0.300000
connection_rate=1.000000
network_type=0
learning_momentum=0.500000
training_algorithm=2
train_error_function=0
train_stop_function=0
cascade_output_change_fraction=0.010000
quickprop_decay=-0.000100
quickprop_mu=1.750000
rprop_increase_factor=1.200000
rprop_decrease_factor=0.500000
rprop_delta_min=0.000000
rprop_delta_max=50.000000
rprop_delta_zero=0.100000
cascade_output_stagnation_epochs=12
cascade_candidate_change_fraction=0.010000
cascade_candidate_stagnation_epochs=12
cascade_max_out_epochs=150
cascade_min_out_epochs=50
cascade_max_cand_epochs=150
cascade_min_cand_epochs=50
cascade_num_candidate_groups=2
bit_fail_limit=3.49999994039535520000e-001
cascade_candidate_limit=1.00000000000000000000e+003
cascade_weight_multiplier=4.00000005960464480000e-001
cascade_activation_functions_count=10
cascade_activation_functions=3 5 7 8 10 11 14 15 16 17 
cascade_activation_steepnesses_count=4
cascade_activation_steepnesses=2.50000000000000000000e-001 5.00000000000000000000e-001 7.50000000000000000000e-001 1.00000000000000000000e+000 
layer_sizes=76 51 26 2 
scale_included=0
neurons (num_inputs, activation_function, activation_steepness)=(0, 0, 0.00000000000000000000e+000) (0, 0, 0.00000000000000000000e+000) (0, 0, 0.00000000000000000000e+000) (0, 0, 0.00000000000000000000e+000) (0, 0, 0.00000000000000000000e+000) (0, 0, 0.00000000000000000000e+000) (0, 0, 0.00000000000000000000e+000) (0, 0, 0.00000000000000000000e+000) (0, 0, 0.00000000000000000000e+000) (0, 0, 0.00000000000000000000e+000) (0, 0, 0.00000000000000000000e+000) (0, 0, 0.00000000000000000000e+000) (0, 0, 0.00000000000000000000e+000) (0, 0, 0.00000000000000000000e+000) (0, 0, 0.00000000000000000000e+000) (0, 0, 0.00000000000000000000e+000) (0, 0, 0.00000000000000000000e+000) (0, 0, 0.00000000000000000000e+000) (0, 0, 0.00000000000000000000e+000) (0, 0, 0.00000000000000000000e+000) (0, 0, 0.00000000000000000000e+000) (0, 0, 0.00000000000000000000e+000) (0, 0, 0.00000000000000000000e+000) (0, 0, 0.00000000000000000000e+000) (0, 0, 0.00000000000000000000e+000) (0, 0, 0.00000000000000000000e+000) (0, 0, 0.00000000000000000000e+000) (0, 0, 0.00000000000000000000e+000) (0, 0, 0.00000000000000000000e+000) (0, 0, 0.00000000000000000000e+000) (0, 0, 0.00000000000000000000e+000) (0, 0, 0.00000000000000000000e+000) (0, 0, 0.00000000000000000000e+000) (0, 0, 0.00000000000000000000e+000) (0, 0, 0.00000000000000000000e+000) (0, 0, 0.00000000000000000000e+000) (0, 0, 0.00000000000000000000e+000) (0, 0, 0.00000000000000000000e+000) (0, 0, 0.00000000000000000000e+000) (0, 0, 0.00000000000000000000e+000) (0, 0, 0.00000000000000000000e+000) (0, 0, 0.00000000000000000000e+000) (0, 0, 0.00000000000000000000e+000) (0, 0, 0.00000000000000000000e+000) (0, 0, 0.00000000000000000000e+000) (0, 0, 0.00000000000000000000e+000) (0, 0, 0.00000000000000000000e+000) (0, 0, 0.00000000000000000000e+000) (0, 0, 0.00000000000000000000e+000) (0, 0, 0.00000000000000000000e+000) (0, 0, 0.00000000000000000000e+000) (0, 0, 0.00000000000000000000e+000) (0, 0, 0.00000000000000000000e+000) (0, 0, 0.00000000000000000000e+000) (0, 0, 0.00000000000000000000e+000) (0, 0, 0.00000000000000000000e+000) (0, 0, 0.00000000000000000000e+000) (0, 0, 0.00000000000000000000e+000) (0, 0, 0.00000000000000000000e+000) (0, 0, 0.00000000000000000000e+000) (0, 0, 0.00000000000000000000e+000) (0, 0, 0.00000000000000000000e+000) (0, 0, 0.00000000000000000000e+000) (0, 0, 0.00000000000000000000e+000) (0, 0, 0.00000000000000000000e+000) (0, 0, 0.00000000000000000000e+000) (0, 0, 0.00000000000000000000e+000) (0, 0, 0.00000000000000000000e+000) (0, 0, 0.00000000000000000000e+000) (0, 0, 0.00000000000000000000e+000) (0, 0, 0.00000000000000000000e+000) (0, 0, 0.00000000000000000000e+000) (0, 0, 0.00000000000000000000e+000) (0, 0, 0.00000000000000000000e+000) (0, 0, 0.00000000000000000000e+000) (0, 0, 0.00000000000000000000e+000) (76, 5, 5.00000000000000000000e-001) (76, 5, 5.00000000000000000000e-001) (76, 5, 5.00000000000000000000e-001) (76, 5, 5.00000000000000000000e-001) (76, 5, 5.00000000000000000000e-001) (76, 5, 5.00000000000000000000e-001) (76, 5, 5.00000000000000000000e-001) (76, 5, 5.00000000000000000000e-001) (76, 5, 5.00000000000000000000e-001) (76, 5, 5.00000000000000000000e-001) (76, 5, 5.00000000000000000000e-001) (76, 5, 5.00000000000000000000e-001) (76, 5, 5.00000000000000000000e-001) (76, 5, 5.00000000000000000000e-001) (76, 5, 5.00000000000000000000e-001) (76, 5, 5.00000000000000000000e-001) (76, 5, 5.00000000000000000000e-001) (76, 5, 5.00000000000000000000e-001) (76, 5, 5.00000000000000000000e-001) (76, 5, 5.00000000000000000000e-001) (76, 5, 5.00000000000000000000e-001) (76, 5, 5.00000000000000000000e-001) (76, 5, 5.00000000000000000000e-001) (76, 5, 5.00000000000000000000e-001) (76, 5, 5.00000000000000000000e-001) (76, 5, 5.00000000000000000000e-001) (76, 5, 5.00000000000000000000e-001) (76, 5, 5.00000000000000000000e-001) (76, 5, 5.00000000000000000000e-001) (76, 5, 5.00000000000000000000e-001) (76, 5, 5.00000000000000000000e-001) (76, 5, 5.00000000000000000000e-001) (76, 5, 5.00000000000000000000e-001) (76, 5, 5.00000000000000000000e-001) (76, 5, 5.00000000000000000000e-001) (76, 5, 5.00000000000000000000e-001) (76, 5, 5.00000000000000000000e-001) (76, 5, 5.00000000000000000000e-001) (76, 5, 5.00000000000000000000e-001) (76, 5, 5.00000000000000000000e-001) (76, 5, 5.00000000000000000000e-001) (76, 5, 5.00000000000000000000e-001) (76, 5, 5.00000000000000000000e-001) (76, 5, 5.00000000000000000000e-001) (76, 5, 5.00000000000000000000e-001) (76, 5, 5.00000000000000000000e-001) (76, 5, 5.00000000000000000000e-001) (76, 5, 5.00000000000000000000e-001) (76, 5, 5.00000000000000000000e-001) (76, 5, 5.00000000000000000000e-001) (0, 5, 0.00000000000000000000e+000) (51, 5, 5.00000000000000000000e-001) (51, 5, 5.00000000000000000000e-001) (51, 5, 5.00000000000000000000e-001) (51, 5, 5.00000000000000000000e-001) (51, 5, 5.00000000000000000000e-001) (51, 5, 5.00000000000000000000e-001) (51, 5, 5.00000000000000000000e-001) (51, 5, 5.00000000000000000000e-001) (51, 5, 5.00000000000000000000e-001) (51, 5, 5.00000000000000000000e-001) (51, 5, 5.00000000000000000000e-001) (51, 5, 5.00000000000000000000e-001) (51, 5, 5.00000000000000000000e-001) (51, 5, 5.00000000000000000000e-001) (51, 5, 5.00000000000000000000e-001) (51, 5, 5.00000000000000000000e-001) (51, 5, 5.00000000000000000000e-001) (51, 5, 5.00000000000000000000e-001) (51, 5, 5.00000000000000000000e-001) (51, 5, 5.00000000000000000000e-001) (51, 5, 5.00000000000000000000e-001) (51, 5, 5.00000000000000000000e-001) (51, 5, 5.00000000000000000000e-001) (51, 5, 5.00000000000000000000e-001) (51, 5, 5.00000000000000000000e-001) (0, 5, 0.00000000000000000000e+000) (26, 0, 5.00000000000000000000e-001) (0, 0, 0.00000000000000000000e+000) 
connections (connected_to_neuron, weight)=(0, -3.60422097146511080000e-002) (1, 3.38405631482601170000e-002) (2, -1.57177716493606570000e-001) (3, -2.43145436048507690000e-001) (4, 1.25346615910530090000e-001) (5, -1.97111234068870540000e-001) (6, 3.72637659311294560000e-001) (7, -1.42960786819458010000e-001) (8, -2.59807892143726350000e-002) (9, 1.53143301606178280000e-001) (10, 1.91350296139717100000e-001) (11, -2.43614509701728820000e-001) (12, -2.08985626697540280000e-001) (13, -2.61758357286453250000e-001) (14, 1.55551061034202580000e-001) (15, 1.53398543596267700000e-001) (16, -1.04294165968894960000e-001) (17, -1.21113769710063930000e-001) (18, 1.98463164269924160000e-003) (19, 1.20952926576137540000e-001) (20, 5.51706412807106970000e-003) (21, 5.03190279006958010000e-001) (22, 2.15898677706718440000e-001) (23, 2.41542905569076540000e-001) (24, 6.49075210094451900000e-002) (25, 2.85968363285064700000e-001) (26, -2.05015942454338070000e-001) (27, 1.30686640739440920000e-001) (28, -1.41156509518623350000e-001) (29, 4.37158733606338500000e-001) (30, -8.30399170517921450000e-002) (31, -3.80882918834686280000e-002) (32, -1.41403883695602420000e-001) (33, 4.09919619560241700000e-001) (34, 1.04195818305015560000e-001) (35, -9.89345252513885500000e-001) (36, -2.12102130055427550000e-001) (37, -3.78014206886291500000e-001) (38, -3.31561446189880370000e-001) (39, 3.92453134059906010000e-001) (40, 7.07579851150512700000e-001) (41, 2.49456971883773800000e-001) (42, -3.16231977194547650000e-003) (43, -2.82224297523498540000e-001) (44, -3.61272841691970830000e-001) (45, 2.08777904510498050000e-001) (46, -1.44395500421524050000e-001) (47, -3.11241950839757920000e-002) (48, -1.65605533123016360000e+000) (49, 9.31590139865875240000e-001) (50, 1.36752748489379880000e+000) (51, 1.51849910616874690000e-001) (52, 5.46671271324157710000e-001) (53, -1.89831286668777470000e-001) (54, 1.11353564262390140000e+000) (55, -5.67682981491088870000e-001) (56, 2.45857760310173030000e-001) (57, -1.39518231153488160000e-001) (58, 3.60182262957096100000e-002) (59, 1.26123473048210140000e-001) (60, 7.10611641407012940000e-002) (61, -5.39580620825290680000e-002) (62, 1.22684866189956670000e-001) (63, -5.47919631004333500000e-001) (64, 1.83691233396530150000e-001) (65, 7.63667896389961240000e-002) (66, -6.30037486553192140000e-001) (67, 4.30751115083694460000e-001) (68, 2.23813906311988830000e-001) (69, 3.72400909662246700000e-001) (70, -4.20928657054901120000e-001) (71, -1.89025774598121640000e-001) (72, 2.91948877274990080000e-002) (73, 1.60587951540946960000e-001) (74, -4.38716828823089600000e-001) (75, 5.90653371810913090000e+000) (0, -7.00163940429687500000e+002) (1, -7.56120117187500000000e+002) (2, -1.50000000000000000000e+003) (3, 1.50000000000000000000e+003) (4, 1.50000000000000000000e+003) (5, -1.50000000000000000000e+003) (6, 1.48916162109375000000e+003) (7, -1.50000000000000000000e+003) (8, -1.42518627929687500000e+003) (9, -1.77402663230896000000e+000) (10, 1.49491931152343750000e+003) (11, 1.15923937988281250000e+003) (12, -1.49993750000000000000e+003) (13, 1.50000000000000000000e+003) (14, 1.50000000000000000000e+003) (15, 1.49977099609375000000e+003) (16, 1.50000000000000000000e+003) (17, -1.50000000000000000000e+003) (18, 1.39419531250000000000e+003) (19, -1.50000000000000000000e+003) (20, -1.42503149414062500000e+003) (21, -6.21282287597656250000e+002) (22, -1.43524829101562500000e+003) (23, -1.50000000000000000000e+003) (24, 1.44882592773437500000e+003) (25, -8.92252441406250000000e+002) (26, -1.48210534667968750000e+003) (27, -1.49990100097656250000e+003) (28, -1.50000000000000000000e+003) (29, 1.50000000000000000000e+003) (30, 7.75131408691406250000e+002) (31, -1.50000000000000000000e+003) (32, -1.50000000000000000000e+003) (33, -1.48801611328125000000e+003) (34, -1.50000000000000000000e+003) (35, -1.50000000000000000000e+003) (36, -1.14931982421875000000e+003) (37, -1.50000000000000000000e+003) (38, -1.50000000000000000000e+003) (39, 1.25950415039062500000e+003) (40, -1.19933056640625000000e+003) (41, 1.50000000000000000000e+003) (42, 1.49956176757812500000e+003) (43, 4.25597190856933590000e+001) (44, 1.46231750488281250000e+003) (45, 1.50000000000000000000e+003) (46, 1.50000000000000000000e+003) (47, -2.81635532379150390000e+001) (48, 1.49681408691406250000e+003) (49, 1.50000000000000000000e+003) (50, 1.50000000000000000000e+003) (51, 1.49922155761718750000e+003) (52, 1.50000000000000000000e+003) (53, -1.43519458007812500000e+003) (54, 1.49999169921875000000e+003) (55, 1.50000000000000000000e+003) (56, 1.50000000000000000000e+003) (57, 1.49983666992187500000e+003) (58, -1.50000000000000000000e+003) (59, 1.50000000000000000000e+003) (60, 1.50000000000000000000e+003) (61, -1.44500000000000000000e+003) (62, -1.47092358398437500000e+003) (63, 1.50000000000000000000e+003) (64, 1.13969177246093750000e+003) (65, 1.48160217285156250000e+003) (66, -6.52391891479492190000e+001) (67, -1.50000000000000000000e+003) (68, -1.45632946777343750000e+003) (69, 1.50000000000000000000e+003) (70, -1.50000000000000000000e+003) (71, 1.37431054687500000000e+003) (72, 1.39913549804687500000e+003) (73, -1.50000000000000000000e+003) (74, 1.50000000000000000000e+003) (75, 1.50000000000000000000e+003) (0, 1.39152657985687260000e+000) (1, -1.49685351562500000000e+003) (2, 1.50000000000000000000e+003) (3, 1.24554419517517090000e+000) (4, 1.01496437072753910000e+002) (5, 5.06600036621093750000e+002) (6, 1.67003593444824220000e+001) (7, -8.91750000000000000000e+002) (8, -3.80292625427246090000e+001) (9, 3.66445884704589840000e+001) (10, -1.08778833007812500000e+003) (11, 6.46492858886718750000e+002) (12, 2.53238677978515630000e+001) (13, -8.77182983398437500000e+002) (14, -6.40952697753906250000e+002) (15, 2.99499464035034180000e+000) (16, 1.17041183471679690000e+002) (17, -6.54124267578125000000e+002) (18, 4.75044525146484370000e+002) (19, -7.82395812988281250000e+002) (20, -1.26830346679687500000e+003) (21, 1.31888659667968750000e+003) (22, 8.23211791992187500000e+002) (23, -1.16589892578125000000e+003) (24, 6.93123626708984380000e+001) (25, -6.55395568847656250000e+002) (26, -1.27096618652343750000e+003) (27, 3.01867160797119140000e+001) (28, -1.04875708007812500000e+003) (29, -1.47770019531250000000e+003) (30, 3.74554061889648440000e+001) (31, 1.31188305664062500000e+003) (32, -2.77139190673828120000e+002) (33, 1.38722991943359370000e+002) (34, -1.50000000000000000000e+003) (35, -1.50000000000000000000e+003) (36, 1.49998303222656250000e+003) (37, -1.50000000000000000000e+003) (38, -1.48529321289062500000e+003) (39, 6.68289001464843750000e+002) (40, 1.50000000000000000000e+003) (41, -1.49207641601562500000e+003) (42, 4.51346160888671870000e+002) (43, 1.25597045898437500000e+003) (44, -1.50000000000000000000e+003) (45, 1.28772056102752690000e+000) (46, -8.51261352539062500000e+002) (47, 1.50000000000000000000e+003) (48, 3.28002929687500000000e+001) (49, 1.48450073242187500000e+003) (50, 1.28708764648437500000e+003) (51, 1.49993347167968750000e+003) (52, 6.35588500976562500000e+002) (53, 1.50000000000000000000e+003) (54, 1.27343029785156250000e+003) (55, -7.37510620117187500000e+002) (56, -1.46210278320312500000e+003) (57, 5.39879188537597660000e+001) (58, 1.95955825805664060000e+002) (59, 4.85830261230468750000e+002) (60, 9.66907799243927000000e-001) (61, 4.16602569580078120000e+002) (62, 1.50000000000000000000e+003) (63, 1.94711402058601380000e-001) (64, -5.67489013671875000000e+002) (65, -1.29674694824218750000e+003) (66, 1.12272448730468750000e+003) (67, -1.12051147460937500000e+003) (68, 1.49702819824218750000e+003) (69, -1.08141260147094730000e+001) (70, -1.16058654785156250000e+003) (71, 1.49924121093750000000e+003) (72, 1.15579307556152340000e+002) (73, -1.41728967285156250000e+003) (74, -1.50000000000000000000e+003) (75, 6.09384834766387940000e-001) (0, -7.28497579693794250000e-002) (1, -4.14053760468959810000e-002) (2, -6.78659975528717040000e-002) (3, 2.41106703877449040000e-001) (4, 4.69573587179183960000e-002) (5, 1.20330899953842160000e-001) (6, 3.32606807351112370000e-002) (7, 8.37317556142807010000e-002) (8, 1.73292309045791630000e-001) (9, 1.28638282418251040000e-001) (10, -2.47976128011941910000e-002) (11, -2.32395064085721970000e-002) (12, -9.31193828582763670000e-002) (13, 6.59670727327466010000e-003) (14, -4.21044044196605680000e-002) (15, -2.70172476768493650000e-001) (16, -2.26085633039474490000e-001) (17, 8.09781476855278020000e-002) (18, 5.41853249073028560000e-001) (19, 2.39910379052162170000e-001) (20, 2.52619236707687380000e-001) (21, 3.31274896860122680000e-001) (22, 2.84861117601394650000e-001) (23, -4.73595619201660160000e-001) (24, -4.42379385232925420000e-001) (25, -1.19223065674304960000e-001) (26, 8.36244747042655940000e-002) (27, -2.66195926815271380000e-003) (28, -6.71543553471565250000e-002) (29, -6.59830961376428600000e-003) (30, 3.79689007997512820000e-001) (31, -1.80677436292171480000e-002) (32, 1.18397034704685210000e-001) (33, -1.54474318027496340000e-001) (34, -2.17510908842086790000e-001) (35, -4.78845596313476560000e-001) (36, -1.15570390224456790000e+000) (37, 1.13658025860786440000e-001) (38, 1.92420125007629390000e-001) (39, -2.54811704158782960000e-001) (40, -9.16090458631515500000e-002) (41, -1.26600667834281920000e-001) (42, 1.73315703868865970000e-002) (43, -7.70565494894981380000e-002) (44, 1.18588060140609740000e-001) (45, 3.57591034844517710000e-003) (46, 1.04245595633983610000e-001) (47, -5.64946047961711880000e-003) (48, 1.06461107730865480000e-001) (49, -3.86546645313501360000e-003) (50, -9.65114980936050420000e-002) (51, 9.19955074787139890000e-002) (52, -5.52263677120208740000e-001) (53, 2.41961792111396790000e-001) (54, 1.73860356211662290000e-001) (55, -3.88463437557220460000e-002) (56, 1.78626086562871930000e-002) (57, -1.76871046423912050000e-001) (58, -1.90261065959930420000e-001) (59, -1.32679164409637450000e-001) (60, -1.00564070045948030000e-001) (61, 5.89248575270175930000e-002) (62, -1.86210826039314270000e-001) (63, -1.03957816958427430000e-001) (64, 3.47728207707405090000e-002) (65, 1.41661569476127620000e-001) (66, 4.17531102895736690000e-001) (67, -1.75230219960212710000e-001) (68, 4.20941226184368130000e-002) (69, -4.40080165863037110000e-002) (70, 8.14283937215805050000e-002) (71, 6.55840337276458740000e-002) (72, 2.61282861232757570000e-001) (73, -1.25178694725036620000e-001) (74, -1.25663662329316140000e-002) (75, -2.25179266929626460000e+000) (0, 1.49950623512268070000e+000) (1, -1.10695976257324220000e+002) (2, 8.13423522949218750000e+002) (3, -4.42736417055130000000e-001) (4, 1.20167822265625000000e+003) (5, 1.49066699218750000000e+003) (6, -1.40401935577392580000e+000) (7, -1.50000000000000000000e+003) (8, 1.49334472656250000000e+003) (9, -4.43888217210769650000e-001) (10, -1.45571081542968750000e+003) (11, 1.49999316406250000000e+003) (12, 8.92877929687500000000e+002) (13, 1.49999462890625000000e+003) (14, 1.45859411621093750000e+003) (15, 9.39539909362792970000e-001) (16, 9.62789916992187500000e+002) (17, -4.70274169921875000000e+002) (18, -5.95183897018432620000e+000) (19, -1.50000000000000000000e+003) (20, 1.49660754394531250000e+003) (21, 1.16590511798858640000e+000) (22, -1.41867224121093750000e+003) (23, 1.46965722656250000000e+003) (24, 4.26996678113937380000e-001) (25, -1.50000000000000000000e+003) (26, 1.49923242187500000000e+003) (27, 8.49128784179687500000e+002) (28, -1.50000000000000000000e+003) (29, 1.49983422851562500000e+003) (30, 9.25947725772857670000e-001) (31, 2.33418777465820310000e+002) (32, 6.81053771972656250000e+001) (33, -4.24363255500793460000e-001) (34, -1.50000000000000000000e+003) (35, -1.50000000000000000000e+003) (36, -5.63658857345581050000e+000) (37, -1.50000000000000000000e+003) (38, -1.50000000000000000000e+003) (39, 2.60648559570312500000e+002) (40, 1.48527685546875000000e+003) (41, -1.50000000000000000000e+003) (42, -2.33175015449523930000e+000) (43, 1.15758020019531250000e+003) (44, 1.20106396484375000000e+003) (45, 9.37894225120544430000e-001) (46, -1.40702038574218750000e+003) (47, 1.50000000000000000000e+003) (48, -4.55122083425521850000e-001) (49, 1.50000000000000000000e+003) (50, 5.56634277343750000000e+002) (51, 1.43977105617523190000e+000) (52, 1.50000000000000000000e+003) (53, 1.17809680175781250000e+003) (54, 1.37677879333496090000e+001) (55, -9.21343750000000000000e+002) (56, 1.49944531250000000000e+003) (57, -5.48664629459381100000e-001) (58, -6.98300598144531250000e+002) (59, -4.69691680908203120000e+002) (60, 5.48034846782684330000e-001) (61, -4.32108276367187500000e+002) (62, 1.50000000000000000000e+003) (63, -4.59522151947021480000e+000) (64, -4.14188629150390620000e+002) (65, -5.22090942382812500000e+002) (66, 1.44347265362739560000e-001) (67, -1.50000000000000000000e+003) (68, 3.59295867919921870000e+002) (69, 1.65494751930236820000e+000) (70, -1.49973693847656250000e+003) (71, 9.20953796386718750000e+002) (72, -5.77350902557373050000e+000) (73, -1.65097793579101560000e+002) (74, 4.47621887207031250000e+002) (75, 3.94544267654418950000e+000) (0, 1.43759680175781250000e+003) (1, 3.79655700683593750000e+002) (2, 1.28565551757812500000e+003) (3, 1.32624926757812500000e+003) (4, 8.60288513183593750000e+002) (5, 1.45521057128906250000e+003) (6, -7.26338958740234380000e+001) (7, -1.49941198730468750000e+003) (8, 2.74483612060546870000e+002) (9, 1.48296923828125000000e+003) (10, -1.50000000000000000000e+003) (11, -1.46427233886718750000e+003) (12, 1.49989001464843750000e+003) (13, 1.49987341308593750000e+003) (14, -1.45732421875000000000e+003) (15, 1.45310778808593750000e+003) (16, 1.50000000000000000000e+003) (17, -9.14697143554687500000e+002) (18, 1.28739880371093750000e+003) (19, -1.50000000000000000000e+003) (20, 1.46656005859375000000e+003) (21, 1.20630847167968750000e+003) (22, 1.49999890136718750000e+003) (23, -1.48968872070312500000e+003) (24, 1.47985388183593750000e+003) (25, -1.50000000000000000000e+003) (26, -1.42388012695312500000e+003) (27, 1.49997119140625000000e+003) (28, -1.50000000000000000000e+003) (29, -9.81220703125000000000e+002) (30, 1.50000000000000000000e+003) (31, 1.00620965576171870000e+003) (32, -5.36267822265625000000e+002) (33, 1.47414685058593750000e+003) (34, -1.50000000000000000000e+003) (35, -1.50000000000000000000e+003) (36, 1.49327026367187500000e+003) (37, -1.50000000000000000000e+003) (38, -1.50000000000000000000e+003) (39, 1.49920629882812500000e+003) (40, 1.50000000000000000000e+003) (41, -1.46625048828125000000e+003) (42, 1.45582885742187500000e+002) (43, -1.46886206054687500000e+003) (44, -2.73328765869140630000e+002) (45, 1.48709899902343750000e+003) (46, -1.50000000000000000000e+003) (47, -1.28821667480468750000e+003) (48, 1.49034252929687500000e+003) (49, 1.50000000000000000000e+003) (50, -1.41217968750000000000e+003) (51, 1.47449499511718750000e+003) (52, 1.50000000000000000000e+003) (53, 1.47741735839843750000e+003) (54, 1.50000000000000000000e+003) (55, 1.47550903320312500000e+003) (56, -1.49852111816406250000e+003) (57, 1.49925659179687500000e+003) (58, 1.49603247070312500000e+003) (59, -1.39964611816406250000e+003) (60, 1.50000000000000000000e+003) (61, 1.35942553710937500000e+003) (62, 1.47243872070312500000e+003) (63, 1.50000000000000000000e+003) (64, 1.49945153808593750000e+003) (65, 1.48702856445312500000e+003) (66, 1.46682043457031250000e+003) (67, -1.50000000000000000000e+003) (68, 1.48778979492187500000e+003) (69, 1.49927563476562500000e+003) (70, -1.41480688476562500000e+003) (71, 6.88880187988281250000e+002) (72, 1.49895996093750000000e+003) (73, -1.43991650390625000000e+003) (74, -1.36033532714843750000e+003) (75, 1.49809667968750000000e+003) (0, 9.93114395141601560000e+001) (1, 1.29632727050781250000e+003) (2, 1.34696752929687500000e+003) (3, 1.49972863769531250000e+003) (4, 5.57153686523437500000e+002) (5, 1.49999218750000000000e+003) (6, 3.13000823974609370000e+002) (7, -1.50000000000000000000e+003) (8, 1.49992431640625000000e+003) (9, 1.24770544433593750000e+003) (10, -1.50000000000000000000e+003) (11, 1.25316551208496090000e+002) (12, 2.60120758056640620000e+002) (13, 1.49928747558593750000e+003) (14, -1.36357995605468750000e+003) (15, 1.49967053222656250000e+003) (16, 1.39979821777343750000e+003) (17, -1.49948913574218750000e+003) (18, 4.76213417053222660000e+001) (19, -1.50000000000000000000e+003) (20, -4.54004211425781250000e+002) (21, 1.50000000000000000000e+003) (22, 1.49949206542968750000e+003) (23, -1.49988830566406250000e+003) (24, 1.50000000000000000000e+003) (25, -1.50000000000000000000e+003) (26, -1.37150659179687500000e+003) (27, 1.48329483032226560000e+002) (28, -1.50000000000000000000e+003) (29, -1.00302850341796870000e+003) (30, 1.50000000000000000000e+003) (31, -2.28064270019531250000e+002) (32, -1.49130749511718750000e+003) (33, 1.08753906250000000000e+003) (34, -1.50000000000000000000e+003) (35, -1.50000000000000000000e+003) (36, 1.44745739746093750000e+003) (37, -1.50000000000000000000e+003) (38, -1.50000000000000000000e+003) (39, 9.74051147460937500000e+002) (40, 1.50000000000000000000e+003) (41, -1.48595544433593750000e+003) (42, 1.50000000000000000000e+003) (43, 1.50000000000000000000e+003) (44, -1.48718933105468750000e+003) (45, 1.49971166992187500000e+003) (46, 1.17764929199218750000e+003) (47, -1.41395678710937500000e+003) (48, 2.42416076660156250000e+001) (49, 1.47600000000000000000e+003) (50, -1.48147656250000000000e+003) (51, 1.95352725982666020000e+001) (52, 1.50000000000000000000e+003) (53, -1.49758337402343750000e+003) (54, 4.61088470458984370000e+002) (55, 1.47561291503906250000e+003) (56, 3.80692810058593750000e+002) (57, 6.03953027725219730000e+000) (58, -1.22261352539062500000e+003) (59, -1.30661730957031250000e+003) (60, 8.68194503784179690000e+001) (61, 1.49746960449218750000e+003) (62, 1.40360864257812500000e+003) (63, 2.00828704833984380000e+001) (64, 1.08468640136718750000e+003) (65, -1.46137182617187500000e+003) (66, 1.48915234375000000000e+003) (67, -1.50000000000000000000e+003) (68, 1.46595434570312500000e+003) (69, 4.37849082946777340000e+001) (70, -1.50000000000000000000e+003) (71, 1.47709326171875000000e+003) (72, 8.49137420654296870000e+001) (73, -1.50000000000000000000e+003) (74, -1.49564453125000000000e+003) (75, -6.22670364379882810000e+000) (0, 1.70332923531532290000e-001) (1, 1.04062601923942570000e-001) (2, 7.39375129342079160000e-002) (3, -2.20951437950134280000e-001) (4, -9.66744124889373780000e-002) (5, 1.25791117548942570000e-001) (6, 1.19064442813396450000e-001) (7, 7.11353644728660580000e-002) (8, 2.10974235087633130000e-002) (9, -1.96449294686317440000e-001) (10, -1.30097642540931700000e-001) (11, 3.53210657835006710000e-001) (12, 1.30204305052757260000e-001) (13, 6.65416046977043150000e-002) (14, -1.36052072048187260000e-001) (15, -5.46507071703672410000e-003) (16, 2.50894099473953250000e-001) (17, 1.74559488892555240000e-001) (18, 1.78338348865509030000e-001) (19, -3.27468246221542360000e-001) (20, 1.13853633403778080000e-001) (21, -3.66859346628189090000e-001) (22, -1.31277933716773990000e-001) (23, 2.75474846363067630000e-001) (24, 2.08033546805381770000e-001) (25, -1.10009051859378810000e-001) (26, -1.75544425845146180000e-001) (27, 1.26362860202789310000e-001) (28, 2.53551065921783450000e-001) (29, 9.15518179535865780000e-002) (30, -1.85466274619102480000e-001) (31, 8.71648937463760380000e-002) (32, -1.49156544357538220000e-002) (33, 1.26949086785316470000e-001) (34, -1.45388543605804440000e-001) (35, -8.15436363220214840000e-001) (36, -6.67230010032653810000e-001) (37, -1.47775232791900630000e+000) (38, -1.07388377189636230000e+000) (39, -1.98136061429977420000e-001) (40, 3.23636271059513090000e-002) (41, -2.56364881992340090000e-001) (42, -1.64056092500686650000e-001) (43, 1.34575679898262020000e-001) (44, 5.94029203057289120000e-002) (45, 3.70855957269668580000e-001) (46, 2.43924241513013840000e-002) (47, -2.14790165424346920000e-001) (48, -8.60315084457397460000e-001) (49, 2.82530665397644040000e-001) (50, 3.55401217937469480000e-001) (51, 3.70296061038970950000e-001) (52, 7.00613558292388920000e-001) (53, 9.63258802890777590000e-001) (54, 1.87784075736999510000e-001) (55, -3.99109721183776860000e-001) (56, 3.01845110952854160000e-002) (57, -2.89902180433273320000e-001) (58, -2.14687478728592400000e-003) (59, -2.75801047682762150000e-002) (60, -1.43422737717628480000e-001) (61, 1.45419299602508540000e-001) (62, 1.02586507797241210000e-001) (63, 7.07939416170120240000e-002) (64, -5.30840009450912480000e-002) (65, 2.10259959101676940000e-001) (66, -5.48168718814849850000e-001) (67, 3.29534471035003660000e-001) (68, -1.60470545291900630000e-001) (69, 1.58033102750778200000e-001) (70, -1.48622974753379820000e-001) (71, -7.09387063980102540000e-002) (72, 6.29188865423202510000e-002) (73, -9.65558812022209170000e-002) (74, 1.04264818131923680000e-001) (75, 6.46802520751953130000e+000) (0, 1.48337500000000000000e+003) (1, -1.39805627441406250000e+003) (2, 1.32597155761718750000e+003) (3, 1.50000000000000000000e+003) (4, 1.49992834472656250000e+003) (5, 1.40765063476562500000e+003) (6, 1.49960717773437500000e+003) (7, -1.47851049804687500000e+003) (8, 1.49980236816406250000e+003) (9, 1.48411804199218750000e+003) (10, -1.50000000000000000000e+003) (11, 1.49915698242187500000e+003) (12, -1.49993359375000000000e+003) (13, -1.22508984375000000000e+003) (14, 1.50000000000000000000e+003) (15, 1.50000000000000000000e+003) (16, 1.50000000000000000000e+003) (17, -1.50000000000000000000e+003) (18, 1.50000000000000000000e+003) (19, 7.57243835449218750000e+002) (20, -1.50000000000000000000e+003) (21, -1.49992578125000000000e+003) (22, 1.47915551757812500000e+003) (23, -1.50000000000000000000e+003) (24, -1.49986474609375000000e+003) (25, -1.50000000000000000000e+003) (26, -9.23777954101562500000e+002) (27, 1.49993127441406250000e+003) (28, -1.50000000000000000000e+003) (29, -1.44053857421875000000e+003) (30, 1.50000000000000000000e+003) (31, 1.48905505371093750000e+003) (32, -1.50000000000000000000e+003) (33, 1.50000000000000000000e+003) (34, -1.50000000000000000000e+003) (35, -1.50000000000000000000e+003) (36, 1.49988574218750000000e+003) (37, -1.50000000000000000000e+003) (38, -1.50000000000000000000e+003) (39, 1.12238879394531250000e+003) (40, -5.61186523437500000000e+002) (41, -1.50000000000000000000e+003) (42, 1.49998107910156250000e+003) (43, -6.73207702636718750000e+002) (44, -1.38193322753906250000e+003) (45, 1.49985632324218750000e+003) (46, -1.50000000000000000000e+003) (47, 1.16992932128906250000e+003) (48, 4.17012664794921870000e+002) (49, 1.50000000000000000000e+003) (50, -1.49914575195312500000e+003) (51, 1.50000000000000000000e+003) (52, 1.50000000000000000000e+003) (53, 1.05153942871093750000e+003) (54, 8.88201110839843750000e+002) (55, 1.47000000000000000000e+003) (56, 5.24115943908691410000e+001) (57, 1.35627416992187500000e+003) (58, -1.50000000000000000000e+003) (59, -1.42382775878906250000e+003) (60, 1.50000000000000000000e+003) (61, -1.49560559082031250000e+003) (62, 1.50000000000000000000e+003) (63, 1.50000000000000000000e+003) (64, -1.49456323242187500000e+003) (65, -1.08386877441406250000e+003) (66, 1.49997192382812500000e+003) (67, -1.50000000000000000000e+003) (68, 1.40856750488281250000e+003) (69, -1.49997106933593750000e+003) (70, -1.50000000000000000000e+003) (71, 5.99145446777343750000e+002) (72, -1.46641210937500000000e+003) (73, -1.49086694335937500000e+003) (74, -6.21832580566406250000e+002) (75, 1.49999841308593750000e+003) (0, 3.07345390319824220000e+001) (1, -1.43258239746093750000e+003) (2, 1.30950402832031250000e+003) (3, 1.53609263896942140000e+000) (4, 1.49042883300781250000e+003) (5, -4.23449462890625000000e+002) (6, 4.38174819946289060000e+001) (7, 1.36031640625000000000e+003) (8, 1.15684582519531250000e+003) (9, 7.68100500106811520000e+000) (10, 1.34817626953125000000e+003) (11, 1.00950885009765620000e+003) (12, 3.49616241455078120000e+000) (13, -1.28059521484375000000e+003) (14, 1.45930139160156250000e+003) (15, 1.17729020118713380000e+000) (16, 1.50000000000000000000e+003) (17, 1.23673132324218750000e+003) (18, 1.75116503238677980000e+000) (19, -1.35859997558593750000e+003) (20, -1.50000000000000000000e+003) (21, 1.50000000000000000000e+003) (22, 1.49998913574218750000e+003) (23, -7.47674560546875000000e+002) (24, 1.16275207519531250000e+003) (25, -1.50000000000000000000e+003) (26, -1.09914685058593750000e+003) (27, 1.21726865768432620000e+001) (28, -1.50000000000000000000e+003) (29, 9.03048645019531250000e+002) (30, 4.38944578170776370000e+000) (31, 1.11215747070312500000e+003) (32, -1.50000000000000000000e+003) (33, 3.80057182312011720000e+001) (34, -1.50000000000000000000e+003) (35, -1.50000000000000000000e+003) (36, 1.39918774414062500000e+003) (37, -1.50000000000000000000e+003) (38, -1.50000000000000000000e+003) (39, 1.24994224548339840000e+002) (40, -5.53681518554687500000e+002) (41, -1.50000000000000000000e+003) (42, 1.49801123046875000000e+003) (43, -1.36645251464843750000e+003) (44, 4.74186676025390620000e+002) (45, -5.54819926619529720000e-002) (46, -1.50000000000000000000e+003) (47, 1.49125610351562500000e+003) (48, 1.49993798828125000000e+003) (49, 1.50000000000000000000e+003) (50, 1.48353283691406250000e+003) (51, -1.42260717773437500000e+003) (52, 1.50000000000000000000e+003) (53, -1.06039221191406250000e+003) (54, 3.52263526916503910000e+001) (55, 1.41772375488281250000e+003) (56, 6.26826477050781250000e+002) (57, 3.09854145050048830000e+001) (58, 1.00962234497070310000e+002) (59, -1.09937097167968750000e+003) (60, 5.10842609405517580000e+000) (61, -1.46723999023437500000e+003) (62, 1.50000000000000000000e+003) (63, -4.86163568496704100000e+000) (64, -1.49769372558593750000e+003) (65, 1.49650170898437500000e+003) (66, 1.12644226074218750000e+003) (67, -1.50000000000000000000e+003) (68, 1.46880883789062500000e+003) (69, 1.05882940292358400000e+001) (70, -1.50000000000000000000e+003) (71, 1.36815856933593750000e+003) (72, 8.78533267974853520000e+000) (73, -1.42840673828125000000e+003) (74, 1.49479492187500000000e+003) (75, 1.36161155700683590000e+001) (0, 2.15232253074646000000e-001) (1, 6.08738720417022710000e-001) (2, -6.58688127994537350000e-001) (3, 3.54558408260345460000e-001) (4, 2.02750608325004580000e-001) (5, -2.27881193161010740000e+000) (6, -1.32956564426422120000e-001) (7, 4.07160282135009770000e+000) (8, -8.13212171196937560000e-002) (9, 6.27289235591888430000e-001) (10, -1.71102023124694820000e+000) (11, 6.75552785396575930000e-001) (12, 2.62273192405700680000e-001) (13, 1.71009790897369380000e+000) (14, -1.48990249633789060000e+000) (15, -3.79089385271072390000e-001) (16, 3.06222409009933470000e-001) (17, 8.83372128009796140000e-001) (18, 2.10961967706680300000e-001) (19, -9.03648436069488530000e-001) (20, -2.14864087104797360000e+000) (21, 5.56737542152404790000e-001) (22, 1.44172644615173340000e+000) (23, -2.33990764617919920000e+000) (24, -1.17210634052753450000e-001) (25, 1.96775421500205990000e-002) (26, 3.55473685264587400000e+000) (27, 2.86016166210174560000e-001) (28, 2.19196486473083500000e+000) (29, 2.70417356491088870000e+000) (30, 4.20737534761428830000e-001) (31, 7.73067176342010500000e-001) (32, 3.86648821830749510000e+000) (33, -2.58828377723693850000e+000) (34, -4.04778385162353520000e+000) (35, -9.39157843589782710000e-001) (36, -5.78216493129730220000e-001) (37, -1.51122653484344480000e+000) (38, -1.30407392978668210000e+000) (39, -1.35647192597389220000e-001) (40, 1.95476531982421880000e+000) (41, 3.61063838005065920000e+000) (42, 3.45277458429336550000e-001) (43, 2.69209408760070800000e+000) (44, -3.09262228012084960000e+000) (45, -4.97760027647018430000e-001) (46, -2.16633901000022890000e-001) (47, 1.00552272796630860000e+000) (48, -1.71277129650115970000e+000) (49, 1.69721186161041260000e-001) (50, -8.68199706077575680000e-001) (51, -3.57236242294311520000e+000) (52, 1.76253175735473630000e+000) (53, 1.73071622848510740000e+000) (54, 3.02075445652008060000e-001) (55, 7.68926799297332760000e-001) (56, -3.28598427772521970000e+000) (57, -2.66976892948150630000e-001) (58, 1.19427371025085450000e+000) (59, -3.44339609146118160000e+000) (60, -3.79641830921173100000e-001) (61, 4.09423202276229860000e-001) (62, -1.71882522106170650000e+000) (63, 7.54866562783718110000e-003) (64, 1.55785226821899410000e+000) (65, 1.49659919738769530000e+000) (66, -3.72661888599395750000e-001) (67, -2.06390842795372010000e-001) (68, -1.45259380340576170000e-001) (69, -2.76020288467407230000e-001) (70, 2.27133345603942870000e+000) (71, -1.01121616363525390000e+000) (72, -8.71905311942100520000e-002) (73, 2.04898405075073240000e+000) (74, 6.54363107681274410000e+000) (75, -2.30329823493957520000e+000) (0, -1.50000000000000000000e+003) (1, 1.39923657226562500000e+003) (2, 1.50000000000000000000e+003) (3, -1.07364794921875000000e+003) (4, 1.50000000000000000000e+003) (5, -7.29177246093750000000e+002) (6, -5.65089294433593750000e+002) (7, 1.17891769409179690000e+002) (8, -1.46072143554687500000e+003) (9, -8.58029724121093750000e+002) (10, 1.47047436523437500000e+003) (11, -1.50000000000000000000e+003) (12, 1.28843920898437500000e+003) (13, 1.50000000000000000000e+003) (14, -1.09603222656250000000e+003) (15, 1.21308972167968750000e+003) (16, 2.76902587890625000000e+002) (17, 1.31366235351562500000e+003) (18, 1.34802709960937500000e+003) (19, -1.50000000000000000000e+003) (20, 1.50000000000000000000e+003) (21, -1.32998291015625000000e+003) (22, 4.41009765625000000000e+002) (23, -1.36215747070312500000e+003) (24, 6.02723083496093750000e+002) (25, -1.44207702636718750000e+003) (26, -1.47871594238281250000e+003) (27, -1.50000000000000000000e+003) (28, 3.07538024902343750000e+002) (29, 1.32050280761718750000e+003) (30, -1.50000000000000000000e+003) (31, 1.30910705566406250000e+003) (32, 1.50000000000000000000e+003) (33, 1.45432910156250000000e+003) (34, -1.45069995117187500000e+003) (35, 1.50000000000000000000e+003) (36, 1.49949768066406250000e+003) (37, 1.50000000000000000000e+003) (38, 1.50000000000000000000e+003) (39, 1.49822595214843750000e+003) (40, 1.50000000000000000000e+003) (41, 1.50000000000000000000e+003) (42, 1.41836779785156250000e+003) (43, 8.70433044433593750000e+002) (44, -7.71748046875000000000e+002) (45, 1.47065368652343750000e+003) (46, 1.50000000000000000000e+003) (47, 6.65570373535156250000e+002) (48, -1.50000000000000000000e+003) (49, -3.39338134765625000000e+002) (50, 1.50000000000000000000e+003) (51, -1.08915612792968750000e+003) (52, -1.49032543945312500000e+003) (53, 1.50000000000000000000e+003) (54, -1.03752319335937500000e+003) (55, -1.50000000000000000000e+003) (56, 1.50000000000000000000e+003) (57, 1.43124182128906250000e+003) (58, 1.50000000000000000000e+003) (59, -6.40057983398437500000e+002) (60, 1.47331323242187500000e+003) (61, 1.50000000000000000000e+003) (62, -1.50000000000000000000e+003) (63, 1.49985705566406250000e+003) (64, 1.50000000000000000000e+003) (65, 1.50000000000000000000e+003) (66, 1.04842492675781250000e+003) (67, 1.47441003417968750000e+003) (68, 1.50000000000000000000e+003) (69, 1.49990124511718750000e+003) (70, 1.50000000000000000000e+003) (71, 1.50000000000000000000e+003) (72, 9.06058410644531250000e+002) (73, -1.50000000000000000000e+003) (74, -1.47049707031250000000e+003) (75, 9.67256713867187500000e+002) (0, 4.05784487724304200000e-001) (1, 2.45668351650238040000e-001) (2, -3.86274039745330810000e-001) (3, -6.45340010523796080000e-002) (4, -1.46826263517141340000e-002) (5, -1.86168938875198360000e-001) (6, -4.60307784378528590000e-002) (7, 6.47704079747200010000e-002) (8, -2.87223577499389650000e-001) (9, 6.40105754137039180000e-002) (10, -3.98273080587387080000e-001) (11, 3.26552271842956540000e-001) (12, -1.27566486597061160000e-001) (13, 8.00672173500061040000e-002) (14, -9.31708395481109620000e-001) (15, -9.69096794724464420000e-002) (16, 4.48939949274063110000e-001) (17, -2.35263705253601070000e-001) (18, 6.65399491786956790000e-001) (19, 2.44940444827079770000e-002) (20, 1.18902134895324710000e+000) (21, -2.35296729952096940000e-002) (22, 8.90646129846572880000e-002) (23, -5.90137124061584470000e-001) (24, -3.23131561279296880000e-001) (25, -7.02825605869293210000e-001) (26, -1.45910635590553280000e-001) (27, 3.54720465838909150000e-002) (28, 1.02733083069324490000e-001) (29, 7.20789372920989990000e-001) (30, 1.53673157095909120000e-001) (31, -3.98649834096431730000e-002) (32, -5.78129947185516360000e-001) (33, 4.73984062671661380000e-001) (34, 6.46439850330352780000e-001) (35, -3.66685658693313600000e-001) (36, 4.45700168609619140000e-001) (37, -1.05087649822235110000e+000) (38, 7.61393070220947270000e-001) (39, -6.41516745090484620000e-001) (40, -1.63889777660369870000e+000) (41, -7.96314656734466550000e-001) (42, -2.00244531035423280000e-001) (43, 3.69565576314926150000e-001) (44, 8.87448012828826900000e-001) (45, 8.13293829560279850000e-002) (46, 2.36617237329483030000e-001) (47, -2.96173065900802610000e-001) (48, 8.00942838191986080000e-001) (49, -3.38131725788116460000e-001) (50, -6.74251437187194820000e-001) (51, -1.31416511535644530000e+000) (52, 8.33857059478759770000e-001) (53, 9.53656136989593510000e-001) (54, 1.31994551047682760000e-002) (55, -6.09924912452697750000e-001) (56, 1.33102202415466310000e+000) (57, -9.70347374677658080000e-002) (58, -4.59214657545089720000e-001) (59, -7.90234625339508060000e-001) (60, -2.32670590281486510000e-001) (61, 2.61627048254013060000e-001) (62, -2.79083997011184690000e-001) (63, -4.31205183267593380000e-001) (64, 6.27416223287582400000e-002) (65, -2.23612546920776370000e-001) (66, -4.08349782228469850000e-001) (67, 3.24894100427627560000e-001) (68, -2.30439752340316770000e-002) (69, -3.43495219945907590000e-001) (70, -9.52887162566185000000e-002) (71, 4.57656681537628170000e-001) (72, 2.57209926843643190000e-001) (73, -2.89073377847671510000e-001) (74, -9.01977896690368650000e-001) (75, 1.07702083587646480000e+001) (0, 4.99755218625068660000e-002) (1, 1.17021113634109500000e-001) (2, -3.59756737947463990000e-001) (3, 5.19530884921550750000e-002) (4, 6.07304722070693970000e-002) (5, -1.59472301602363590000e-001) (6, -7.01560229063034060000e-002) (7, 2.33397409319877620000e-001) (8, 4.37872856855392460000e-001) (9, -8.51000472903251650000e-002) (10, -2.46616229414939880000e-001) (11, -9.39846187829971310000e-002) (12, -6.40838146209716800000e-002) (13, 2.69117534160614010000e-001) (14, -3.57312858104705810000e-002) (15, 3.37255537509918210000e-001) (16, 4.63764786720275880000e-001) (17, 4.42875146865844730000e-001) (18, 1.66036486625671390000e-002) (19, 4.02457229793071750000e-002) (20, -5.29966175556182860000e-001) (21, -1.26810461282730100000e-001) (22, 6.32139444351196290000e-002) (23, -1.16197466850280760000e+000) (24, -1.96043893694877620000e-001) (25, -3.09584587812423710000e-001) (26, 3.37186306715011600000e-001) (27, -6.35021775960922240000e-002) (28, -1.11211009323596950000e-001) (29, -6.25162422657012940000e-001) (30, 1.70922670513391490000e-002) (31, 4.71414327621459960000e-001) (32, 4.01378050446510310000e-002) (33, -2.70416736602783200000e-001) (34, 2.89724141359329220000e-001) (35, -1.56670540571212770000e-001) (36, 8.88078752905130390000e-003) (37, 1.41476833820343020000e+000) (38, 8.40792357921600340000e-001) (39, 2.72022392600774770000e-002) (40, -3.66619639098644260000e-002) (41, -8.45942497253417970000e-001) (42, -2.03505352139472960000e-001) (43, -1.01967006921768190000e-001) (44, 4.65791881084442140000e-001) (45, -8.49907875061035160000e-001) (46, 8.25425758957862850000e-002) (47, -1.73345461487770080000e-001) (48, 4.79380451142787930000e-002) (49, 3.27553600072860720000e-001) (50, 2.06610903143882750000e-001) (51, -3.06326270103454590000e-001) (52, 8.42261195182800290000e-001) (53, 1.64386227726936340000e-001) (54, 1.71550258994102480000e-001) (55, -2.44220763444900510000e-001) (56, 3.20910662412643430000e-001) (57, 5.27247879654169080000e-003) (58, -2.49345317482948300000e-001) (59, 3.70744355022907260000e-002) (60, 1.13035701215267180000e-001) (61, -3.08119297027587890000e-001) (62, 2.55507472902536390000e-002) (63, -2.24491432309150700000e-001) (64, 8.73075276613235470000e-002) (65, 8.63143682479858400000e-001) (66, -5.53821444511413570000e-001) (67, 2.66687095165252690000e-001) (68, -1.35157257318496700000e-001) (69, 7.34344050288200380000e-002) (70, 1.28641486167907710000e-001) (71, 5.03662787377834320000e-002) (72, 2.44867861270904540000e-001) (73, -5.06987608969211580000e-002) (74, 6.12179398536682130000e-001) (75, 1.10512084960937500000e+001) (0, 4.74962264299392700000e-001) (1, 7.09211766719818120000e-001) (2, -5.70829451084136960000e-001) (3, 1.09692263603210450000e+000) (4, 8.53938221931457520000e-001) (5, 1.97609543800354000000e+000) (6, -2.67905145883560180000e-001) (7, 1.44653451442718510000e+000) (8, -3.46827745437622070000e+000) (9, 8.22280645370483400000e-001) (10, 1.42138171195983890000e+000) (11, 2.49725580215454100000e+000) (12, 7.93575823307037350000e-001) (13, 9.25458371639251710000e-001) (14, -1.00924241542816160000e+000) (15, 2.18655824661254880000e+000) (16, 4.61632937192916870000e-001) (17, 8.16404819488525390000e-001) (18, 1.98067283630371090000e+000) (19, 1.39225208759307860000e+000) (20, 4.00572061538696290000e+000) (21, 2.27425670623779300000e+000) (22, -1.42913007736206050000e+000) (23, 1.22365713119506840000e+000) (24, -1.24340996146202090000e-001) (25, 1.75742137432098390000e+000) (26, 2.86262726783752440000e+000) (27, 6.00813150405883790000e-001) (28, -3.13964262604713440000e-002) (29, 6.67486310005187990000e-001) (30, -5.92619413509964940000e-003) (31, 1.40084636211395260000e+000) (32, 1.69423341751098630000e-001) (33, -4.66266214847564700000e-001) (34, 7.68274128437042240000e-001) (35, -2.76155054569244380000e-001) (36, 1.44671753048896790000e-001) (37, 1.15242755413055420000e+000) (38, -2.73872089385986330000e+000) (39, 9.26812887191772460000e-001) (40, -3.18415093421936040000e+000) (41, -3.46449446678161620000e+000) (42, 7.40605235099792480000e-001) (43, 5.01278042793273930000e-001) (44, 1.59890341758728030000e+000) (45, 7.19282209873199460000e-001) (46, 1.28459095954895020000e+000) (47, 1.41737926006317140000e+000) (48, 1.47289246320724490000e-001) (49, 5.46881794929504390000e-001) (50, -2.40649247169494630000e+000) (51, 7.28648364543914790000e-001) (52, 1.99305459856987000000e-001) (53, -2.48677039146423340000e+000) (54, -1.65248167514801030000e+000) (55, -3.17632102966308590000e+000) (56, 3.12721085548400880000e+000) (57, 3.13535720109939580000e-001) (58, 1.74285817146301270000e+000) (59, 1.11743354797363280000e+000) (60, 4.50183928012847900000e-001) (61, 1.81899857521057130000e+000) (62, 2.49780464172363280000e+000) (63, 1.27056980133056640000e+000) (64, 8.09609234333038330000e-001) (65, -6.67095041275024410000e+000) (66, 7.33771204948425290000e-001) (67, 6.45125091075897220000e-001) (68, 3.46175670623779300000e+000) (69, 1.02070131301879880000e+001) (70, -2.29469895362854000000e-001) (71, -4.65887975692749020000e+000) (72, 1.26680541038513180000e+000) (73, -5.12030482292175290000e-001) (74, -1.64523318409919740000e-001) (75, 7.99027395248413090000e+000) (0, -1.04612350463867190000e-001) (1, -4.63350526988506320000e-002) (2, 4.20194258913397790000e-003) (3, -2.25861430168151860000e-001) (4, -1.45062839146703480000e-003) (5, 1.70761831104755400000e-002) (6, 2.91140168905258180000e-001) (7, 4.56861667335033420000e-002) (8, 1.01827293634414670000e-001) (9, -2.06621229648590090000e-001) (10, 2.07034256309270860000e-002) (11, -1.28398969769477840000e-001) (12, -2.45862193405628200000e-002) (13, -6.36785626411437990000e-002) (14, -1.08336247503757480000e-002) (15, 1.46960154175758360000e-001) (16, -2.72956378757953640000e-002) (17, -9.55183990299701690000e-003) (18, 5.23506104946136470000e-002) (19, -2.05499544739723210000e-001) (20, 7.48512670397758480000e-002) (21, 8.86361539363861080000e-001) (22, 4.78496342897415160000e-001) (23, 3.45927298069000240000e-001) (24, -6.54992535710334780000e-002) (25, -7.31600821018218990000e-002) (26, 2.03573144972324370000e-003) (27, 2.61311799287796020000e-001) (28, 2.21886150538921360000e-002) (29, 1.47226572036743160000e-001) (30, -1.58133342862129210000e-001) (31, -4.68134805560112000000e-002) (32, -8.13706815242767330000e-002) (33, 5.86102306842803960000e-001) (34, -1.02658621966838840000e-001) (35, 9.99505668878555300000e-002) (36, 7.58842289447784420000e-001) (37, 1.57233595848083500000e+000) (38, -1.48915559053421020000e-001) (39, 5.07191061973571780000e-001) (40, 2.21848741173744200000e-001) (41, 7.29650333523750310000e-002) (42, 2.73310225456953050000e-002) (43, 1.10711000859737400000e-001) (44, 3.60385440289974210000e-002) (45, 1.25809073448181150000e-001) (46, -1.00477360188961030000e-001) (47, 9.67362001538276670000e-002) (48, -3.05075515061616900000e-002) (49, 1.13355733454227450000e-001) (50, -1.51198923587799070000e-001) (51, -3.71912151575088500000e-001) (52, 5.34735202789306640000e-001) (53, -1.39392077922821040000e-001) (54, -3.38905692100524900000e-001) (55, 2.13021561503410340000e-001) (56, -4.46289628744125370000e-002) (57, -1.11288078129291530000e-001) (58, 1.34604633785784240000e-003) (59, -1.51356324553489690000e-001) (60, 7.83456861972808840000e-002) (61, 3.85844819247722630000e-002) (62, 9.31448489427566530000e-002) (63, -6.46317601203918460000e-002) (64, -1.12960990518331530000e-002) (65, -2.95504592359066010000e-002) (66, -1.79156199097633360000e-001) (67, 7.44645670056343080000e-002) (68, -1.43817692995071410000e-001) (69, -1.71638041734695430000e-001) (70, -1.74159128218889240000e-002) (71, 4.00321837514638900000e-003) (72, 7.27658197283744810000e-002) (73, -1.21120251715183260000e-002) (74, -3.93458344042301180000e-002) (75, -1.12408421933650970000e-001) (0, -7.62433898925781250000e+002) (1, -1.01225164794921870000e+003) (2, 1.38036340332031250000e+003) (3, -1.15996020507812500000e+003) (4, 1.33874328613281250000e+003) (5, -1.45271569824218750000e+003) (6, -4.79378936767578120000e+002) (7, -1.33428210449218750000e+003) (8, -1.21095410156250000000e+003) (9, -1.49996704101562500000e+003) (10, 3.10941955566406250000e+002) (11, 8.79376586914062500000e+002) (12, 1.12036499023437500000e+003) (13, -2.71301849365234370000e+002) (14, -6.19212829589843750000e+002) (15, 1.49993115234375000000e+003) (16, 9.27449951171875000000e+002) (17, 4.65416198730468750000e+002) (18, 7.05951843261718750000e+002) (19, -1.45819702148437500000e+003) (20, -1.12787670898437500000e+003) (21, -3.64491516113281250000e+002) (22, 1.49998156738281250000e+003) (23, -1.49889685058593750000e+003) (24, 1.07715551757812500000e+003) (25, -1.50000000000000000000e+003) (26, 1.49944775390625000000e+003) (27, -1.49996691894531250000e+003) (28, -1.50000000000000000000e+003) (29, -1.00462792968750000000e+003) (30, -5.73013000488281250000e+002) (31, 1.49945422363281250000e+003) (32, 9.94585876464843750000e+002) (33, -1.49996728515625000000e+003) (34, -1.50000000000000000000e+003) (35, -1.50000000000000000000e+003) (36, 1.09818164062500000000e+003) (37, -1.50000000000000000000e+003) (38, -1.50000000000000000000e+003) (39, -1.49996740722656250000e+003) (40, 1.36009460449218750000e+003) (41, -1.50000000000000000000e+003) (42, -1.50000000000000000000e+003) (43, -1.43049475097656250000e+003) (44, 1.49969934082031250000e+003) (45, -8.73728485107421880000e+001) (46, 4.80681610107421870000e+002) (47, 1.44259387207031250000e+003) (48, 8.89644470214843750000e+002) (49, 1.50000000000000000000e+003) (50, 1.22211669921875000000e+003) (51, 8.50579101562500000000e+002) (52, 1.50000000000000000000e+003) (53, 1.49786877441406250000e+003) (54, 1.49979174804687500000e+003) (55, 6.95419616699218750000e+002) (56, 1.49302270507812500000e+003) (57, 5.65033508300781250000e+002) (58, -4.30864379882812500000e+002) (59, 8.96117370605468750000e+002) (60, -7.17954223632812500000e+002) (61, 1.48665771484375000000e+003) (62, 1.50000000000000000000e+003) (63, 1.49999707031250000000e+003) (64, -1.49996374511718750000e+003) (65, -1.49724499511718750000e+003) (66, -1.49997082519531250000e+003) (67, -1.50000000000000000000e+003) (68, 1.34149096679687500000e+003) (69, 1.40335034179687500000e+003) (70, 5.80173156738281250000e+002) (71, -1.30407714843750000000e+003) (72, 1.49985424804687500000e+003) (73, -1.45845666503906250000e+003) (74, 1.49518518066406250000e+003) (75, 1.50000000000000000000e+003) (0, 4.51295644044876100000e-001) (1, 3.94622683525085450000e-001) (2, -1.57313668727874760000e+000) (3, 1.41753824427723880000e-002) (4, 9.22390699386596680000e-001) (5, -1.55815649032592770000e+000) (6, 4.64455485343933110000e-001) (7, 9.35126245021820070000e-001) (8, 3.59516954421997070000e+000) (9, -5.15845865011215210000e-002) (10, -6.00690722465515140000e-001) (11, 5.28841204941272740000e-002) (12, 3.85058194398880000000e-001) (13, 5.42970478534698490000e-001) (14, -1.34375524520874020000e+000) (15, -5.99159121513366700000e-001) (16, 2.22687572240829470000e-001) (17, -1.90348505973815920000e+000) (18, -9.69154953956604000000e-001) (19, -6.60445809364318850000e-001) (20, 2.74468374252319340000e+000) (21, -9.87983047962188720000e-002) (22, 3.84128659963607790000e-001) (23, -8.99964749813079830000e-001) (24, 1.26868888735771180000e-001) (25, -2.47813388705253600000e-002) (26, -4.77921873331069950000e-001) (27, -4.29625883698463440000e-002) (28, -1.11885428428649900000e+000) (29, -3.38510721921920780000e-001) (30, -1.89260900020599370000e-001) (31, 1.07733286917209630000e-001) (32, 4.22584593296051030000e-001) (33, 3.02830696105957030000e-001) (34, -1.76747810840606690000e+000) (35, -2.98556494712829590000e+000) (36, 8.10432910919189450000e-001) (37, -2.27515101432800290000e-001) (38, 1.95479345321655270000e+000) (39, 1.31841570138931270000e-001) (40, -4.02105808258056640000e-001) (41, 4.00200939178466800000e+000) (42, -3.87255370616912840000e-001) (43, -1.06608712673187260000e+000) (44, 3.08722965419292450000e-002) (45, 4.15329575538635250000e-001) (46, 4.91524875164031980000e-001) (47, 1.40709137916564940000e+000) (48, 3.01812052726745610000e-001) (49, 7.33708620071411130000e-001) (50, 2.16707730293273930000e+000) (51, 9.55111503601074220000e-001) (52, 1.23333466053009030000e+000) (53, -3.96265208721160890000e-001) (54, 5.74821949005126950000e-001) (55, 5.63798367977142330000e-001) (56, -3.71517705917358400000e+000) (57, 1.28635779023170470000e-001) (58, 3.82334023714065550000e-001) (59, -8.97999525070190430000e-001) (60, 2.52019256353378300000e-001) (61, 4.12115678191185000000e-002) (62, -1.85675001144409180000e+000) (63, -1.08495080471038820000e+000) (64, 5.53331613540649410000e-001) (65, 7.97257900238037110000e-001) (66, 2.68375456333160400000e-001) (67, -2.05653119087219240000e+000) (68, -8.10170829296112060000e-001) (69, 3.46623033285140990000e-001) (70, 5.75916111469268800000e-001) (71, 1.11312532424926760000e+000) (72, 2.18612611293792720000e-001) (73, -8.24597597122192380000e-001) (74, -6.45105421543121340000e-001) (75, 9.85560035705566410000e+000) (0, 3.72678190469741820000e-002) (1, 3.58791016042232510000e-002) (2, 1.21866084635257720000e-001) (3, 6.66770711541175840000e-002) (4, 1.30540043115615840000e-001) (5, 2.02326357364654540000e-001) (6, 3.02930120378732680000e-002) (7, -2.09653303027153020000e-001) (8, 4.35688048601150510000e-001) (9, 6.55407965183258060000e-001) (10, 3.38639169931411740000e-001) (11, -7.89088457822799680000e-002) (12, -8.65955054759979250000e-002) (13, -3.59213091433048250000e-002) (14, 2.08643093705177310000e-001) (15, 1.75982594490051270000e-001) (16, 4.46411520242691040000e-002) (17, -2.18855738639831540000e-001) (18, -1.12587356567382810000e+000) (19, -1.66398152709007260000e-001) (20, -9.53160300850868230000e-002) (21, 2.91430020332336430000e+000) (22, 3.60767453908920290000e-001) (23, 2.81110942363739010000e-001) (24, -8.94314229488372800000e-001) (25, 2.13366568088531490000e-001) (26, 3.70728611946105960000e-001) (27, 2.84988321363925930000e-002) (28, -7.41869732737541200000e-002) (29, -4.08431529998779300000e-001) (30, -6.01660683751106260000e-002) (31, 5.51887303590774540000e-002) (32, 2.71030515432357790000e-001) (33, 2.13878780603408810000e-001) (34, 2.85693909972906110000e-002) (35, -1.32862597703933720000e-001) (36, -5.84504008293151860000e-001) (37, 1.88181191682815550000e-001) (38, -5.54951250553131100000e-001) (39, -3.19622278213500980000e-001) (40, -5.23687526583671570000e-002) (41, -9.36106145381927490000e-001) (42, 4.92147430777549740000e-002) (43, -1.09940126538276670000e-001) (44, 2.93961107730865480000e-001) (45, -9.01422351598739620000e-002) (46, -1.02979458868503570000e-001) (47, -2.45182037353515630000e-001) (48, -1.45418226718902590000e-001) (49, 2.57246077060699460000e-001) (50, 1.52781575918197630000e-001) (51, 4.88374203443527220000e-001) (52, 1.65072441101074220000e-001) (53, 3.26247909106314180000e-003) (54, 3.16841565072536470000e-002) (55, -2.39682823419570920000e-001) (56, 5.12090206146240230000e-001) (57, 1.18742302060127260000e-001) (58, -1.00943140685558320000e-001) (59, 4.93659600615501400000e-002) (60, 1.92983090877532960000e-001) (61, -8.07247236371040340000e-002) (62, 1.90741747617721560000e-001) (63, -3.48767846822738650000e-001) (64, -2.22275871783494950000e-002) (65, -7.00162291526794430000e-001) (66, -3.17769497632980350000e-001) (67, 2.01820358633995060000e-001) (68, 4.96278733015060420000e-001) (69, 1.24683395028114320000e-001) (70, -1.69781655073165890000e-001) (71, -3.28129619359970090000e-001) (72, -1.87840927392244340000e-002) (73, -5.65890856087207790000e-002) (74, 1.63181900978088380000e-001) (75, -6.23594474792480470000e+000) (0, -1.62516555786132810000e+002) (1, -1.50000000000000000000e+003) (2, 1.29197937011718750000e+003) (3, 7.84260070800781250000e+002) (4, 1.05913183593750000000e+003) (5, 8.18233585357666020000e+000) (6, -1.96971298217773440000e+002) (7, 1.49971203613281250000e+003) (8, 1.50000000000000000000e+003) (9, -1.86244461059570310000e+002) (10, -1.47464889526367190000e+002) (11, 5.88748245239257810000e+001) (12, 5.07182159423828120000e+002) (13, -3.90313720703125000000e+002) (14, 1.50000000000000000000e+003) (15, -1.50000000000000000000e+003) (16, 2.82722290039062500000e+002) (17, -9.75755981445312500000e+002) (18, 4.37816429138183590000e+000) (19, -1.48028063964843750000e+003) (20, -1.46959997558593750000e+003) (21, 1.50000000000000000000e+003) (22, 1.21601928710937500000e+003) (23, -1.17890893554687500000e+003) (24, -6.23999816894531250000e+002) (25, -1.33737670898437500000e+003) (26, -1.48022290039062500000e+003) (27, 1.65027313232421870000e+002) (28, 3.63460731506347660000e+001) (29, -1.39765710449218750000e+003) (30, -1.51926070451736450000e-001) (31, 1.50000000000000000000e+003) (32, 1.50000000000000000000e+003) (33, -5.84140300750732420000e+000) (34, -3.66747951507568360000e+000) (35, 1.50000000000000000000e+003) (36, 1.50000000000000000000e+003) (37, -1.72725162506103520000e+001) (38, 5.06087432861328130000e+002) (39, 1.46521582031250000000e+003) (40, 1.50000000000000000000e+003) (41, 1.18260400390625000000e+003) (42, -3.57452819824218750000e+002) (43, -2.40631912231445310000e+002) (44, 2.45178580284118650000e+000) (45, -6.75562500000000000000e+002) (46, 4.53657257080078120000e+002) (47, 1.50000000000000000000e+003) (48, 1.50005817413330080000e+000) (49, 1.34461218261718750000e+003) (50, -1.24380297851562500000e+003) (51, 6.80319290161132810000e+001) (52, -1.50000000000000000000e+003) (53, 1.69633960723876950000e+000) (54, -1.00513867187500000000e+003) (55, -1.35761645507812500000e+003) (56, 1.50000000000000000000e+003) (57, -3.08516052246093750000e+002) (58, 1.04080004882812500000e+003) (59, -1.16113684082031250000e+003) (60, 1.50000000000000000000e+003) (61, 1.50000000000000000000e+003) (62, 1.50000000000000000000e+003) (63, 1.50000000000000000000e+003) (64, 9.56961914062500000000e+002) (65, 1.34080004882812500000e+003) (66, 8.51353088378906250000e+002) (67, -1.50000000000000000000e+003) (68, -1.29566402435302730000e+001) (69, 1.11779516601562500000e+003) (70, 4.76689910888671870000e+000) (71, -1.50000000000000000000e+003) (72, 3.41648101806640620000e+002) (73, 8.19277191162109370000e+001) (74, -1.05680004882812500000e+003) (75, 1.50000000000000000000e+003) (0, 2.44339611381292340000e-002) (1, 6.01838193833827970000e-002) (2, -3.70735585689544680000e-001) (3, -4.73511964082717900000e-002) (4, 8.71763285249471660000e-003) (5, 2.42098855972290040000e+000) (6, 2.61235415935516360000e-001) (7, 9.93212535977363590000e-002) (8, -1.19152927398681640000e+000) (9, 3.33519697189331050000e-001) (10, 4.71378177404403690000e-001) (11, 1.31955385208129880000e+000) (12, -7.78881236910820010000e-002) (13, -5.41230849921703340000e-002) (14, 7.30996906757354740000e-001) (15, -4.35491442680358890000e-001) (16, 3.83496135473251340000e-001) (17, 9.06492948532104490000e-001) (18, -4.18231129646301270000e-001) (19, 1.37774636968970300000e-002) (20, -1.87854647636413570000e+000) (21, 1.01446602493524550000e-002) (22, 2.51118034124374390000e-001) (23, 9.26596760749816890000e-001) (24, -1.11586555838584900000e-001) (25, 3.78679603338241580000e-001) (26, -1.28263163566589360000e+000) (27, 1.16603143513202670000e-001) (28, 2.31768518686294560000e-001) (29, -7.25647926330566410000e-001) (30, 4.18237298727035520000e-001) (31, 1.28373682498931880000e-001) (32, -1.27408480644226070000e+000) (33, 4.33459609746932980000e-001) (34, -7.83645927906036380000e-001) (35, 2.57025027275085450000e+000) (36, 1.61824738979339600000e+000) (37, 7.52825200557708740000e-001) (38, 1.48568272590637210000e+000) (39, 1.04830563068389890000e+000) (40, 1.27584367990493770000e-001) (41, 1.31896424293518070000e+000) (42, -1.47322520613670350000e-001) (43, -1.74820318818092350000e-001) (44, 8.22070147842168810000e-003) (45, 2.76445567607879640000e-001) (46, -3.84319126605987550000e-001) (47, -1.80924808979034420000e+000) (48, -3.12010407447814940000e-001) (49, 9.61940348148345950000e-001) (50, -1.55084156990051270000e+000) (51, -1.73254549503326420000e+000) (52, -2.75990635156631470000e-001) (53, -1.73600518703460690000e+000) (54, 2.22526907920837400000e-001) (55, 3.96682143211364750000e-001) (56, 5.58069705963134770000e-001) (57, -5.03468692302703860000e-001) (58, 3.96788120269775390000e-001) (59, -8.86973321437835690000e-001) (60, 3.80306780338287350000e-001) (61, 4.06804382801055910000e-002) (62, 1.16365814208984370000e+000) (63, -1.04748296737670900000e+000) (64, 5.13315379619598390000e-001) (65, 6.76387369632720950000e-001) (66, -3.66537272930145260000e-001) (67, -1.16058178246021270000e-001) (68, -1.23601615428924560000e+000) (69, -4.21443372964859010000e-001) (70, 4.41897630691528320000e-001) (71, 7.20762014389038090000e-001) (72, 1.27633064985275270000e-001) (73, 1.52935072779655460000e-001) (74, -2.85459518432617190000e-001) (75, 9.74424552917480470000e+000) (0, 3.97727584838867190000e+000) (1, -4.58239562988281250000e+002) (2, -1.01176171875000000000e+003) (3, 2.51808023452758790000e+000) (4, 1.31880456542968750000e+003) (5, 1.45740454101562500000e+003) (6, 1.87857990264892580000e+001) (7, -1.22342712402343750000e+003) (8, 1.46797973632812500000e+003) (9, 7.93180561065673830000e+000) (10, -1.16632348632812500000e+003) (11, 1.41564172363281250000e+003) (12, 1.50000000000000000000e+003) (13, 3.82841033935546870000e+002) (14, 1.49672766113281250000e+003) (15, 3.07174453735351560000e+001) (16, -1.37622888183593750000e+003) (17, -1.48242602539062500000e+003) (18, 1.11912605285644530000e+002) (19, -1.50000000000000000000e+003) (20, -1.42690209960937500000e+003) (21, 1.50000000000000000000e+003) (22, 1.48951684570312500000e+003) (23, -1.49841076660156250000e+003) (24, -1.63471389770507810000e+002) (25, -1.50000000000000000000e+003) (26, -1.48484960937500000000e+003) (27, 8.48866149902343750000e+002) (28, -1.50000000000000000000e+003) (29, -1.47027148437500000000e+003) (30, 1.50000000000000000000e+003) (31, 1.34693298339843750000e+003) (32, -1.43004345703125000000e+003) (33, 1.35056900024414060000e+002) (34, -1.50000000000000000000e+003) (35, -1.50000000000000000000e+003) (36, 1.29934960937500000000e+003) (37, -1.50000000000000000000e+003) (38, -1.50000000000000000000e+003) (39, 6.99049255371093750000e+002) (40, -1.42826562500000000000e+003) (41, -1.34074890136718750000e+003) (42, 1.49967211914062500000e+003) (43, -1.49685278320312500000e+003) (44, -1.14203796386718750000e+003) (45, 6.53941802978515630000e+001) (46, -1.44959997558593750000e+003) (47, 1.50000000000000000000e+003) (48, 8.51924133300781250000e+000) (49, 1.50000000000000000000e+003) (50, -1.42273095703125000000e+003) (51, -9.64546775817871090000e+000) (52, 1.50000000000000000000e+003) (53, -1.49872241210937500000e+003) (54, 2.67565298080444340000e+000) (55, -1.27878369140625000000e+003) (56, -1.49849707031250000000e+003) (57, 1.50000000000000000000e+003) (58, -1.46813891601562500000e+003) (59, 1.49999572753906250000e+003) (60, 2.13411083221435550000e+001) (61, -1.49604223632812500000e+003) (62, 1.50000000000000000000e+003) (63, 1.65051383972167970000e+001) (64, -1.49999194335937500000e+003) (65, 1.41654919433593750000e+003) (66, 1.28806677246093750000e+003) (67, -1.49844006347656250000e+003) (68, 1.49908203125000000000e+003) (69, 3.45597457885742190000e+000) (70, -1.41341516113281250000e+003) (71, 1.48059045410156250000e+003) (72, 9.75897903442382810000e+001) (73, -5.62865966796875000000e+002) (74, -1.47202331542968750000e+003) (75, 6.65034174919128420000e-001) (0, -4.79043453931808470000e-001) (1, -8.28195586800575260000e-002) (2, 1.78507983684539790000e-001) (3, -7.31354132294654850000e-002) (4, 1.22949458658695220000e-001) (5, 9.42306697368621830000e-001) (6, 2.57434714585542680000e-002) (7, -3.72096687555313110000e-001) (8, 2.46527120471000670000e-001) (9, -1.43825383856892590000e-002) (10, 3.02933365106582640000e-001) (11, 1.79817050695419310000e-001) (12, -2.44972899556159970000e-001) (13, -2.53332927823066710000e-002) (14, 2.03353017568588260000e-001) (15, 1.92200131714344020000e-002) (16, -1.96702763438224790000e-001) (17, -2.64565765857696530000e-001) (18, 4.40275758504867550000e-001) (19, 9.95644405484199520000e-002) (20, 1.12073868513107300000e-001) (21, -1.14208750426769260000e-001) (22, -4.88587349653244020000e-001) (23, 1.01903371512889860000e-001) (24, -2.70728707313537600000e-001) (25, -2.18838881701231000000e-002) (26, -2.78777509927749630000e-001) (27, 2.15489938855171200000e-001) (28, -1.26403838396072390000e-001) (29, -8.88901799917221070000e-002) (30, -8.53141397237777710000e-002) (31, -2.76344895362854000000e-001) (32, -3.44316214323043820000e-001) (33, 1.37966394424438480000e+000) (34, 1.08965349197387700000e+000) (35, 7.50615835189819340000e-001) (36, 9.58828702569007870000e-002) (37, -7.20481872558593750000e-001) (38, 8.88964608311653140000e-002) (39, 1.44393384456634520000e-001) (40, 4.89504374563694000000e-002) (41, -1.02952384948730470000e+000) (42, 2.87288218736648560000e-001) (43, -2.21552923321723940000e-002) (44, 7.78944417834281920000e-002) (45, -1.91688150167465210000e-001) (46, 1.04857608675956730000e-002) (47, -2.98226356506347660000e-001) (48, 9.65344786643981930000e-001) (49, -1.37500011920928960000e+000) (50, -7.73350477218627930000e-001) (51, 3.20218920707702640000e-001) (52, 1.75028038024902340000e+000) (53, 7.42456197738647460000e-001) (54, 2.94609278440475460000e-001) (55, 1.22606611251831050000e+000) (56, 5.19098877906799320000e-001) (57, 1.80762469768524170000e-001) (58, 1.49096295237541200000e-001) (59, -4.67480897903442380000e-001) (60, 1.94357022643089290000e-001) (61, -6.83914944529533390000e-002) (62, 5.36618471145629880000e-001) (63, 6.88574492931365970000e-001) (64, -2.75287777185440060000e-001) (65, -9.96135324239730830000e-002) (66, -6.71710193157196040000e-001) (67, 4.73447084426879880000e-001) (68, -3.15017290413379670000e-002) (69, -1.01836991310119630000e+000) (70, 7.05236494541168210000e-001) (71, -3.51926445960998540000e-001) (72, -3.87521415948867800000e-001) (73, -2.24428102374076840000e-002) (74, 1.09401397407054900000e-001) (75, 4.94395828247070310000e+000) (0, -2.29199584573507310000e-002) (1, 3.28558608889579770000e-002) (2, -5.84717929363250730000e-001) (3, 1.98194146156311040000e-001) (4, -9.57324653863906860000e-002) (5, 4.21663880348205570000e-001) (6, -2.47957095503807070000e-001) (7, 1.91527947783470150000e-001) (8, -1.20073400437831880000e-001) (9, -8.26906338334083560000e-002) (10, -6.04874417185783390000e-002) (11, -6.83963119983673100000e-001) (12, 5.42909614741802220000e-002) (13, -9.05034467577934270000e-002) (14, 6.47495090961456300000e-001) (15, -9.29768681526184080000e-002) (16, 8.43036323785781860000e-002) (17, 1.55782163143157960000e-001) (18, 1.49879395961761470000e-001) (19, -6.37992769479751590000e-002) (20, -3.18048119544982910000e-001) (21, -4.25278060138225560000e-002) (22, -7.02200904488563540000e-002) (23, 9.67445671558380130000e-002) (24, -7.51957237720489500000e-001) (25, -4.12881195545196530000e-001) (26, -4.56171005964279170000e-001) (27, -1.80778547655791040000e-003) (28, -5.23524060845375060000e-002) (29, 4.62671518325805660000e-001) (30, 1.38362720608711240000e-001) (31, 6.39479160308837890000e-002) (32, 1.19059234857559200000e-001) (33, 2.70402312278747560000e-001) (34, -1.64847522974014280000e-001) (35, -9.66633915901184080000e-001) (36, 2.10643604397773740000e-001) (37, -6.41442775726318360000e-001) (38, 2.99503207206726070000e-001) (39, -5.58526456356048580000e-001) (40, -1.56125819683074950000e+000) (41, -1.22274629771709440000e-001) (42, 2.07663387060165410000e-001) (43, 2.80724227428436280000e-001) (44, -1.39020812511444090000e+000) (45, -2.15361356735229490000e-001) (46, 1.89167261123657230000e-001) (47, 2.87849277257919310000e-001) (48, 5.33717572689056400000e-001) (49, 5.79933643341064450000e-001) (50, 6.79807901382446290000e-001) (51, 3.54891747236251830000e-001) (52, -2.22227185964584350000e-001) (53, -3.36250752210617070000e-001) (54, -5.85150957107543950000e-001) (55, 3.51647734642028810000e-002) (56, 3.21008235216140750000e-001) (57, 1.85753539204597470000e-001) (58, -1.36808410286903380000e-001) (59, 1.46946573257446290000e+000) (60, 6.34905770421028140000e-002) (61, -2.23054457455873490000e-002) (62, 2.41790845990180970000e-001) (63, -2.59853869676589970000e-001) (64, 4.94586110115051270000e-001) (65, 1.17902114987373350000e-001) (66, 4.00681942701339720000e-002) (67, -1.31867334246635440000e-001) (68, 3.10614760965108870000e-002) (69, -1.23430296778678890000e-001) (70, -1.32083520293235780000e-002) (71, 2.51379698514938350000e-001) (72, 3.76925051212310790000e-001) (73, 3.65425348281860350000e-002) (74, -3.95801365375518800000e-001) (75, 6.45429134368896480000e+000) (0, 6.46790163591504100000e-003) (1, -1.04126207530498500000e-001) (2, -2.79572516679763790000e-001) (3, 2.22130402922630310000e-001) (4, 1.88985019922256470000e-002) (5, -2.98861056566238400000e-001) (6, 8.54543596506118770000e-002) (7, 2.65227973461151120000e-001) (8, 1.55746713280677800000e-001) (9, 5.10808825492858890000e-002) (10, 2.54043161869049070000e-001) (11, -4.34336334466934200000e-001) (12, -1.95848956704139710000e-001) (13, -2.16269373893737790000e-001) (14, 4.35457557439804080000e-001) (15, -1.53686478734016420000e-001) (16, -1.09879747033119200000e-001) (17, 1.50949731469154360000e-001) (18, 4.65708464384078980000e-001) (19, 3.75234276056289670000e-001) (20, 1.92465677857398990000e-001) (21, -3.86998265981674190000e-001) (22, 3.08215647935867310000e-001) (23, 5.77265992760658260000e-002) (24, 2.31241822242736820000e-001) (25, 2.31776282191276550000e-001) (26, -2.42587938904762270000e-001) (27, 2.64347553253173830000e-001) (28, -3.98682534694671630000e-001) (29, 1.59093514084815980000e-001) (30, 2.20239490270614620000e-001) (31, -1.85416594147682190000e-001) (32, -2.04721644520759580000e-001) (33, -3.42494063079357150000e-002) (34, 6.03574573993682860000e-001) (35, 4.34890165925025940000e-002) (36, -5.08584439754486080000e-001) (37, -1.29544937610626220000e+000) (38, -1.03735888004302980000e+000) (39, 4.33865338563919070000e-001) (40, 8.00367891788482670000e-001) (41, -5.81818707287311550000e-002) (42, 7.17004179954528810000e-001) (43, 1.29906117916107180000e-001) (44, -2.09057286381721500000e-001) (45, -4.64299879968166350000e-002) (46, 9.96676310896873470000e-002) (47, 5.72485685348510740000e-001) (48, 1.42602711915969850000e-001) (49, -3.71917383745312690000e-003) (50, 6.05672597885131840000e-001) (51, -1.04301476478576660000e+000) (52, 1.30419230461120610000e+000) (53, 1.01145231723785400000e+000) (54, 3.70708256959915160000e-001) (55, -5.90467989444732670000e-001) (56, -6.04940801858901980000e-002) (57, -6.35357081890106200000e-001) (58, 3.13603430986404420000e-001) (59, 4.21623706817626950000e-001) (60, -3.65267992019653320000e-002) (61, 3.22823002934455870000e-002) (62, -2.40797862410545350000e-001) (63, 1.95790138095617290000e-002) (64, -6.63299188017845150000e-002) (65, -6.11776471138000490000e-001) (66, -8.64472031593322750000e-001) (67, 5.78564286231994630000e-001) (68, 2.32987925410270690000e-001) (69, 4.53354656696319580000e-001) (70, -1.67535215616226200000e-001) (71, 3.75529527664184570000e-001) (72, 8.08199048042297360000e-002) (73, -2.09441576153039930000e-002) (74, -8.50177049636840820000e-001) (75, 6.86001586914062500000e+000) (0, -5.18043786287307740000e-002) (1, -4.58654575049877170000e-002) (2, 1.49924615398049350000e-002) (3, 1.17253810167312620000e-001) (4, 8.52815136313438420000e-002) (5, 9.55056399106979370000e-002) (6, 5.24035036563873290000e-001) (7, 2.99536049365997310000e-001) (8, -3.83864566683769230000e-002) (9, 1.66618600487709050000e-001) (10, 6.55540302395820620000e-002) (11, -1.01906046271324160000e-001) (12, -2.05353572964668270000e-002) (13, -3.88333201408386230000e-002) (14, 1.21110722422599790000e-001) (15, 1.02604731917381290000e-001) (16, 4.21377159655094150000e-002) (17, -2.16473359614610670000e-002) (18, 3.77065002918243410000e-001) (19, 2.52637714147567750000e-001) (20, 5.57357929646968840000e-002) (21, 4.88645881414413450000e-001) (22, 7.68741607666015630000e-001) (23, 2.98781543970108030000e-001) (24, 6.41151428222656250000e-001) (25, 4.32397753000259400000e-001) (26, 1.08525335788726810000e-001) (27, 1.74020841717720030000e-001) (28, 7.74146169424057010000e-002) (29, -1.99110746383666990000e-001) (30, -1.07634104788303380000e-001) (31, 6.78086131811141970000e-002) (32, -1.02764353156089780000e-001) (33, -2.47079566121101380000e-001) (34, 3.78402993083000180000e-002) (35, -1.55610233545303340000e-001) (36, 9.10310149192810060000e-002) (37, -1.10654547810554500000e-001) (38, -5.13492822647094730000e-001) (39, -1.29016205668449400000e-001) (40, 3.97726982831954960000e-001) (41, -1.40770718455314640000e-001) (42, -1.01786896586418150000e-001) (43, 7.28064179420471190000e-002) (44, 2.43514813482761380000e-002) (45, -1.64808139204978940000e-001) (46, -3.25513668358325960000e-002) (47, 1.50367081165313720000e-001) (48, -1.04354612529277800000e-001) (49, -1.85379311442375180000e-001) (50, 1.68832894414663310000e-002) (51, 1.33123800158500670000e-001) (52, 3.79809617996215820000e-001) (53, 6.87754824757575990000e-002) (54, -2.86545693874359130000e-001) (55, 1.62338644266128540000e-001) (56, -2.99761146306991580000e-002) (57, 1.84578597545623780000e-002) (58, 3.02979052066802980000e-002) (59, 1.63246601819992070000e-001) (60, 1.25526189804077150000e-001) (61, -5.10027073323726650000e-002) (62, 1.38299195095896720000e-002) (63, 1.96254417300224300000e-001) (64, -1.30729317665100100000e-001) (65, 1.73892080783843990000e-001) (66, -4.25238668918609620000e-001) (67, 2.34263300895690920000e-001) (68, -3.92187461256980900000e-002) (69, -8.79912823438644410000e-002) (70, -2.09876354783773420000e-002) (71, -1.30080850794911380000e-002) (72, -9.77187696844339370000e-003) (73, 2.18941140919923780000e-002) (74, 6.80332630872726440000e-002) (75, -5.38013410568237300000e+000) (0, -7.35387802124023440000e+001) (1, -5.62488464355468750000e+002) (2, 1.48734606933593750000e+003) (3, 2.21252212524414060000e+002) (4, -1.48780249023437500000e+003) (5, -1.45799438476562500000e+003) (6, 5.19706054687500000000e+002) (7, -1.50000000000000000000e+003) (8, -1.46962829589843750000e+003) (9, -5.52389335632324220000e+000) (10, -1.43783801269531250000e+003) (11, -1.46444152832031250000e+003) (12, -6.75286254882812500000e+002) (13, 1.43299389648437500000e+003) (14, -1.49027087402343750000e+003) (15, 1.27712837219238280000e+002) (16, -5.18820434570312500000e+002) (17, -1.29459362792968750000e+003) (18, -1.50000000000000000000e+003) (19, -1.04276649475097660000e+002) (20, 1.50000000000000000000e+003) (21, 8.05801330566406250000e+002) (22, -1.47890478515625000000e+003) (23, 1.49191345214843750000e+003) (24, 1.37289306640625000000e+003) (25, 1.38953759765625000000e+003) (26, 1.39557299804687500000e+003) (27, 3.50304504394531250000e+002) (28, -8.09246582031250000000e+002) (29, -1.48018859863281250000e+003) (30, 9.10000915527343750000e+001) (31, 1.49775280761718750000e+003) (32, 1.42669409179687500000e+003) (33, -6.32312988281250000000e+002) (34, 1.50000000000000000000e+003) (35, 1.50000000000000000000e+003) (36, 6.97153329849243160000e+000) (37, 1.50000000000000000000e+003) (38, 1.48708532714843750000e+003) (39, -1.50000000000000000000e+003) (40, 1.49935510253906250000e+003) (41, 1.49890710449218750000e+003) (42, 3.37991638183593750000e+002) (43, 1.46550036621093750000e+003) (44, -1.46784570312500000000e+003) (45, 2.82084259033203120000e+002) (46, 1.35501281738281250000e+002) (47, 1.36981469726562500000e+003) (48, 3.69806241989135740000e+000) (49, 1.29520446777343750000e+003) (50, 1.50000000000000000000e+003) (51, -1.47863342285156250000e+003) (52, -1.45719018554687500000e+003) (53, 1.48869909667968750000e+003) (54, -3.11657023429870610000e+000) (55, 1.47096813964843750000e+003) (56, 1.49875708007812500000e+003) (57, 6.29345273971557620000e+000) (58, 1.49827832031250000000e+003) (59, -1.45568286132812500000e+003) (60, 7.51930236816406250000e+001) (61, -1.45813378906250000000e+003) (62, -1.45644616699218750000e+003) (63, 2.16061067581176760000e+000) (64, 1.45065258789062500000e+003) (65, -3.34149932861328120000e+002) (66, 7.51032590866088870000e+000) (67, -1.42917480468750000000e+003) (68, -1.49236401367187500000e+003) (69, 2.01757003784179690000e+002) (70, 1.46789367675781250000e+003) (71, 1.44101733398437500000e+003) (72, 3.30802185058593750000e+002) (73, -1.34061547851562500000e+003) (74, 1.47524780273437500000e+003) (75, -1.49993969726562500000e+003) (0, 2.95602752685546870000e+002) (1, 1.14079882812500000000e+003) (2, 1.49744836425781250000e+003) (3, -9.47454223632812500000e+002) (4, -1.49975769042968750000e+003) (5, 1.48487585449218750000e+003) (6, -1.49511206054687500000e+003) (7, -1.49167553710937500000e+003) (8, 1.50000000000000000000e+003) (9, -1.33968063354492190000e+002) (10, -1.43205688476562500000e+003) (11, 1.50000000000000000000e+003) (12, -6.63616333007812500000e+002) (13, -1.49552001953125000000e+003) (14, 1.50000000000000000000e+003) (15, -1.40032312011718750000e+003) (16, -1.06880004882812500000e+003) (17, -1.16962695312500000000e+003) (18, -1.13334320068359370000e+002) (19, -1.32803430175781250000e+003) (20, -1.46082556152343750000e+003) (21, -1.49992065429687500000e+003) (22, 1.40119226074218750000e+003) (23, -1.30061926269531250000e+003) (24, -9.25095947265625000000e+002) (25, -1.50000000000000000000e+003) (26, -1.49901586914062500000e+003) (27, 3.19462646484375000000e+002) (28, 1.47497534179687500000e+003) (29, -1.48162121582031250000e+003) (30, -1.49949023437500000000e+003) (31, 1.50000000000000000000e+003) (32, -1.42754394531250000000e+003) (33, -3.71909271240234370000e+002) (34, -1.50000000000000000000e+003) (35, -1.50000000000000000000e+003) (36, 1.71921661376953120000e+002) (37, -1.50000000000000000000e+003) (38, -1.50000000000000000000e+003) (39, -1.49897827148437500000e+003) (40, -1.44202319335937500000e+003) (41, -1.48585388183593750000e+003) (42, 6.73758728027343750000e+002) (43, 4.44740386962890620000e+002) (44, -1.40071496582031250000e+003) (45, -1.49974047851562500000e+003) (46, -1.50000000000000000000e+003) (47, 8.34749450683593750000e+002) (48, 3.57152770996093750000e+002) (49, 1.50000000000000000000e+003) (50, -1.50000000000000000000e+003) (51, -5.11538887023925780000e+001) (52, 1.50000000000000000000e+003) (53, -1.49964782714843750000e+003) (54, -1.49277954101562500000e+003) (55, 1.34461596679687500000e+003) (56, 4.58197845458984370000e+002) (57, -2.94946533203125000000e+002) (58, -1.50000000000000000000e+003) (59, 1.37507299804687500000e+003) (60, -1.43750231933593750000e+003) (61, 1.09532495117187500000e+003) (62, -8.36160430908203130000e+001) (63, 1.41759680175781250000e+003) (64, -1.46723999023437500000e+003) (65, -1.31580004882812500000e+003) (66, 1.28818725585937500000e+003) (67, -1.47281518554687500000e+003) (68, -1.44270605468750000000e+003) (69, -1.48147265625000000000e+003) (70, -1.10034313964843750000e+003) (71, 2.26641708374023440000e+002) (72, -1.49901049804687500000e+003) (73, -8.22866638183593750000e+002) (74, -1.45058435058593750000e+003) (75, -4.14658752441406250000e+002) (0, 1.49993212890625000000e+003) (1, 1.10052661132812500000e+003) (2, -1.49717529296875000000e+003) (3, 1.49993591308593750000e+003) (4, -1.38833862304687500000e+003) (5, -1.47914636230468750000e+003) (6, 1.49990405273437500000e+003) (7, 1.49738122558593750000e+003) (8, -1.47365856933593750000e+003) (9, 1.48288476562500000000e+003) (10, 1.49999877929687500000e+003) (11, -1.21418859863281250000e+003) (12, 1.49969592285156250000e+003) (13, -1.46498742675781250000e+003) (14, -1.50000000000000000000e+003) (15, 1.49993395996093750000e+003) (16, 6.36277961730957030000e+001) (17, 1.48713366699218750000e+003) (18, 1.49992541503906250000e+003) (19, 6.55303283691406250000e+002) (20, 1.50000000000000000000e+003) (21, 1.49838354492187500000e+003) (22, -1.48537585449218750000e+003) (23, 1.50000000000000000000e+003) (24, 1.49969018554687500000e+003) (25, 1.50000000000000000000e+003) (26, 1.50000000000000000000e+003) (27, 1.49971057128906250000e+003) (28, 1.50000000000000000000e+003) (29, 1.49790893554687500000e+003) (30, 1.49993115234375000000e+003) (31, -1.20693054199218750000e+003) (32, 1.45661303710937500000e+003) (33, 1.49979370117187500000e+003) (34, 1.33662561035156250000e+003) (35, 1.47000000000000000000e+003) (36, 1.49962390136718750000e+003) (37, 1.50000000000000000000e+003) (38, 1.50000000000000000000e+003) (39, 1.49994091796875000000e+003) (40, 1.49932946777343750000e+003) (41, 1.50000000000000000000e+003) (42, 1.49993847656250000000e+003) (43, 1.49336865234375000000e+003) (44, 1.45674816894531250000e+003) (45, 1.49992614746093750000e+003) (46, 1.50000000000000000000e+003) (47, 1.05648046875000000000e+003) (48, 1.49993115234375000000e+003) (49, -1.47278930664062500000e+003) (50, 1.49678808593750000000e+003) (51, 1.49993640136718750000e+003) (52, -1.50000000000000000000e+003) (53, 6.40182067871093750000e+002) (54, 1.49972741699218750000e+003) (55, -1.49645239257812500000e+003) (56, 1.49998291015625000000e+003) (57, 1.49993359375000000000e+003) (58, 1.43400000000000000000e+003) (59, 1.48365893554687500000e+003) (60, 1.49992993164062500000e+003) (61, 1.35438940429687500000e+003) (62, -1.50000000000000000000e+003) (63, 1.50000000000000000000e+003) (64, 1.49992956542968750000e+003) (65, 1.49992456054687500000e+003) (66, 1.49970556640625000000e+003) (67, 1.49994848632812500000e+003) (68, 1.49727709960937500000e+003) (69, 1.49994274902343750000e+003) (70, 1.49999230957031250000e+003) (71, 1.39736718750000000000e+003) (72, 1.49949072265625000000e+003) (73, -1.14032275390625000000e+003) (74, 1.58043792724609380000e+002) (75, 1.49998229980468750000e+003) (0, -2.14119791984558110000e-001) (1, -7.46507421135902400000e-002) (2, 7.29773163795471190000e-001) (3, 3.72110515832901000000e-001) (4, 2.38613680005073550000e-001) (5, 9.67302799224853520000e-001) (6, 3.81612658500671390000e-001) (7, 3.86029303073883060000e-001) (8, 3.02068382501602170000e-001) (9, -5.90423271059989930000e-002) (10, -1.81719601154327390000e-001) (11, -3.99177163839340210000e-001) (12, 4.95362281799316410000e-002) (13, 1.39597550034523010000e-001) (14, 1.27887034416198730000e+000) (15, 5.73607198894023900000e-002) (16, -1.53289869427680970000e-001) (17, -2.19023361802101140000e-001) (18, 6.67166471481323240000e-001) (19, 7.72901713848114010000e-001) (20, -6.36613130569458010000e-001) (21, 3.48808139562606810000e-001) (22, 6.64057195186614990000e-001) (23, -1.90778565406799320000e+000) (24, 5.06266832351684570000e-001) (25, 2.76929825544357300000e-001) (26, -7.14350759983062740000e-001) (27, -2.66588687896728520000e-001) (28, 2.58205652236938480000e-001) (29, -2.43445992469787600000e+000) (30, 4.69587109982967380000e-002) (31, -2.61439710855484010000e-001) (32, -8.94462287425994870000e-001) (33, -5.52708268165588380000e-001) (34, 7.61843562126159670000e-001) (35, 1.45199418067932130000e+000) (36, -1.58134114742279050000e+000) (37, 3.85755109786987300000e+000) (38, -2.65884071588516240000e-001) (39, -5.24012267589569090000e-001) (40, 3.24841320514678960000e-001) (41, -4.52791899442672730000e-001) (42, -3.50326448678970340000e-001) (43, -5.07001519203186040000e-001) (44, 1.66037499904632570000e-001) (45, 9.56732779741287230000e-002) (46, 7.93507769703865050000e-002) (47, 1.48011004924774170000e+000) (48, 1.12308546900749210000e-001) (49, 6.79594814777374270000e-001) (50, -2.55310088396072390000e-001) (51, -3.65441590547561650000e-001) (52, 1.80969607830047610000e+000) (53, 2.31455135345458980000e+000) (54, -3.32125052809715270000e-002) (55, -3.75170856714248660000e-002) (56, 7.67918601632118230000e-002) (57, 5.47545969486236570000e-001) (58, -4.89792048931121830000e-001) (59, 9.12545979022979740000e-001) (60, 2.20149993896484380000e-001) (61, -5.51242642104625700000e-002) (62, -1.06825277209281920000e-001) (63, -4.86900269985198970000e-001) (64, 3.25989723205566410000e-001) (65, -7.01157152652740480000e-001) (66, -1.57276558876037600000e+000) (67, 1.00738334655761720000e+000) (68, -5.78379869461059570000e-001) (69, -4.63766962289810180000e-001) (70, -4.03455235064029690000e-002) (71, 1.53233870863914490000e-001) (72, 3.92312824726104740000e-001) (73, -3.34348261356353760000e-001) (74, 9.07035350799560550000e-001) (75, 1.34386405944824220000e+001) (0, 5.08851289749145510000e+000) (1, 1.15130822753906250000e+003) (2, -1.43216479492187500000e+003) (3, 1.86198854446411130000e+000) (4, -6.38028930664062500000e+002) (5, -1.40752111816406250000e+003) (6, 6.03215408325195310000e+001) (7, 1.14264245605468750000e+003) (8, -1.22784252929687500000e+003) (9, 3.64197265625000000000e+002) (10, -1.22941552734375000000e+003) (11, -1.12369836425781250000e+003) (12, 5.81817970275878910000e+001) (13, 3.60480003356933590000e+001) (14, -1.44947668457031250000e+003) (15, 1.69256806373596190000e+000) (16, 5.20721801757812500000e+002) (17, 1.24030468750000000000e+003) (18, 1.50000000000000000000e+003) (19, -6.27617675781250000000e+002) (20, 2.45749404907226560000e+002) (21, -1.44273901367187500000e+003) (22, 2.99310913085937500000e+002) (23, 6.33382324218750000000e+002) (24, 2.34284477233886720000e+001) (25, -1.50000000000000000000e+003) (26, 1.37642761230468750000e+002) (27, -3.08422875404357910000e+000) (28, -1.50000000000000000000e+003) (29, 1.49869885253906250000e+003) (30, -1.13049054145812990000e+000) (31, 1.43922900390625000000e+003) (32, 1.49620886230468750000e+003) (33, 5.21405124664306640000e+000) (34, -1.50000000000000000000e+003) (35, -1.50000000000000000000e+003) (36, -1.24984191894531250000e+003) (37, -1.50000000000000000000e+003) (38, -1.50000000000000000000e+003) (39, -5.33249015808105470000e+001) (40, 1.32781567382812500000e+003) (41, -1.50000000000000000000e+003) (42, -3.54066650390625000000e+002) (43, -1.15899096679687500000e+003) (44, 1.48666809082031250000e+003) (45, 4.83631610870361330000e+000) (46, 1.04862744140625000000e+003) (47, -1.41100573730468750000e+003) (48, 4.28121719360351560000e+001) (49, 1.39943994140625000000e+003) (50, 1.50000000000000000000e+003) (51, 1.03905444335937500000e+003) (52, 1.50000000000000000000e+003) (53, -1.45578344726562500000e+003) (54, 3.52061706542968750000e+002) (55, 7.19913864135742190000e+000) (56, 9.35503173828125000000e+002) (57, 1.58540177345275880000e+000) (58, 1.10599804687500000000e+003) (59, -1.15438366699218750000e+003) (60, -1.49179430007934570000e+001) (61, -1.43302563476562500000e+003) (62, 1.50000000000000000000e+003) (63, -5.87168693542480470000e-001) (64, -1.47046264648437500000e+003) (65, 1.04248962402343750000e+003) (66, -4.15930725097656250000e+002) (67, -1.49993249511718750000e+003) (68, -1.44288781738281250000e+003) (69, -5.24589252471923830000e+000) (70, -1.48316955566406250000e+003) (71, -1.48987341308593750000e+003) (72, -1.14200500488281250000e+003) (73, 1.16162976074218750000e+003) (74, 1.49028863906860350000e+001) (75, 5.57740545272827150000e+000) (0, -2.20482940673828130000e+001) (1, 1.28282421875000000000e+003) (2, 1.36351879882812500000e+003) (3, -5.67101716995239260000e+000) (4, 1.16210095214843750000e+003) (5, 1.23249670410156250000e+003) (6, -3.88217010498046870000e+001) (7, -1.49925708007812500000e+003) (8, 1.27567895507812500000e+003) (9, -1.87293994426727290000e+000) (10, 9.10750793457031250000e+002) (11, -1.35436877441406250000e+003) (12, 1.49992333984375000000e+003) (13, -1.50000000000000000000e+003) (14, 1.48124218750000000000e+003) (15, -1.44043060302734380000e+002) (16, -6.40480529785156250000e+002) (17, 1.50000000000000000000e+003) (18, 1.59859371185302730000e+001) (19, 1.50000000000000000000e+003) (20, -1.42964807128906250000e+003) (21, -1.49988781738281250000e+003) (22, 1.42881567382812500000e+003) (23, 7.59964965820312500000e+002) (24, -1.08631909179687500000e+003) (25, 1.44070690917968750000e+003) (26, -1.02566674804687500000e+003) (27, 2.07582645416259770000e+001) (28, 1.50000000000000000000e+003) (29, -1.48863415527343750000e+003) (30, -1.75265563964843750000e+002) (31, 1.50000000000000000000e+003) (32, 1.50000000000000000000e+003) (33, 5.47402610778808590000e+001) (34, 1.50000000000000000000e+003) (35, 1.50000000000000000000e+003) (36, -1.23085278320312500000e+003) (37, 1.50000000000000000000e+003) (38, 1.50000000000000000000e+003) (39, -1.50000000000000000000e+003) (40, -4.86621948242187500000e+002) (41, 1.30211853027343750000e+003) (42, -5.27063903808593750000e+002) (43, -1.11525955200195310000e+002) (44, 2.82801704406738280000e+001) (45, -9.20035076141357420000e+000) (46, 1.19120886230468750000e+003) (47, 1.49877331542968750000e+003) (48, 1.14286376953125000000e+002) (49, 5.09242248535156250000e+001) (50, -1.35431201171875000000e+003) (51, 6.73035812377929690000e+000) (52, -1.50000000000000000000e+003) (53, -1.49143664550781250000e+003) (54, -6.99003267288208010000e+000) (55, 1.47797875976562500000e+003) (56, -1.49550610351562500000e+003) (57, 1.32758350372314450000e+001) (58, 1.50000000000000000000e+003) (59, 7.66109313964843750000e+002) (60, -9.06598815917968750000e+002) (61, 1.42787060546875000000e+003) (62, -1.50000000000000000000e+003) (63, 1.03005790710449220000e+002) (64, 5.10470916748046880000e+002) (65, -1.48559228515625000000e+003) (66, -3.85507537841796870000e+002) (67, 5.73747520446777340000e+001) (68, -1.47309179687500000000e+003) (69, 1.18269787597656250000e+003) (70, -1.41494885253906250000e+003) (71, -1.31230407714843750000e+003) (72, 6.87164001464843750000e+002) (73, -7.86384521484375000000e+002) (74, -1.47447253417968750000e+003) (75, -2.96676063537597660000e+001) (0, -1.72025009989738460000e-001) (1, -7.56152123212814330000e-002) (2, -1.79696708917617800000e-001) (3, 5.70672377943992610000e-002) (4, -1.11634808126837020000e-003) (5, 2.07504615187644960000e-001) (6, -2.77543216943740840000e-001) (7, -3.26912462711334230000e-001) (8, 4.62744355201721190000e-001) (9, 2.04704076051712040000e-001) (10, 1.52595296502113340000e-001) (11, -2.80090004205703740000e-001) (12, 4.60714846849441530000e-002) (13, -8.36069136857986450000e-002) (14, -2.07822918891906740000e-001) (15, 1.83372557163238530000e-001) (16, -1.28668293356895450000e-001) (17, -5.27130290865898130000e-002) (18, 3.33578348159790040000e-001) (19, 1.22651383280754090000e-001) (20, 9.78764444589614870000e-002) (21, 4.36973333358764650000e+000) (22, 8.25060248374938960000e-001) (23, 4.74292606115341190000e-001) (24, 4.10690814256668090000e-001) (25, 2.96028733253479000000e-001) (26, -8.36125835776329040000e-002) (27, 5.50507605075836180000e-002) (28, -4.86670481041073800000e-003) (29, 5.69008767604827880000e-001) (30, -1.29102453589439390000e-001) (31, -1.80288758128881450000e-002) (32, 8.16310793161392210000e-002) (33, -4.19779215008020400000e-003) (34, -3.45744192600250240000e-001) (35, -2.22191978245973590000e-002) (36, -2.03484296798706050000e-001) (37, 1.20272539556026460000e-001) (38, -8.84967744350433350000e-001) (39, -1.48868188261985780000e-001) (40, -2.95816153287887570000e-001) (41, 4.47565883398056030000e-001) (42, -1.84437274932861330000e-001) (43, -7.76246329769492150000e-003) (44, -6.40636861324310300000e-001) (45, 2.64975935220718380000e-001) (46, 8.20119753479957580000e-002) (47, 1.00418075919151310000e-001) (48, 2.10186481475830080000e-001) (49, -2.68354445695877080000e-001) (50, 3.33350412547588350000e-002) (51, -5.29900267720222470000e-002) (52, -1.00999414920806880000e-001) (53, 3.08025684207677840000e-002) (54, 2.72433608770370480000e-001) (55, 6.96523068472743030000e-003) (56, -2.80025117099285130000e-002) (57, 4.42084968090057370000e-001) (58, 1.20926089584827420000e-001) (59, -2.69676953554153440000e-001) (60, -5.04150614142417910000e-003) (61, 1.50630474090576170000e-001) (62, -4.67898070812225340000e-001) (63, 4.37018945813179020000e-002) (64, 3.53403240442276000000e-002) (65, 3.10720354318618770000e-001) (66, -6.31521046161651610000e-002) (67, -5.85452504456043240000e-002) (68, 1.15363538265228270000e-001) (69, -3.06509763002395630000e-001) (70, 1.00918330252170560000e-001) (71, -1.36898934841156010000e-001) (72, -9.48239043354988100000e-002) (73, -3.16589474678039550000e-002) (74, 4.23026055097579960000e-001) (75, -1.50229704380035400000e+000) (0, 3.27052711509168150000e-003) (1, -4.15683165192604060000e-002) (2, -1.83728039264678960000e-001) (3, 1.08582321554422380000e-002) (4, 1.02744720876216890000e-001) (5, 5.00472113490104680000e-002) (6, 2.20734700560569760000e-001) (7, 1.34521290659904480000e-001) (8, -1.81934162974357600000e-001) (9, -1.29222050309181210000e-001) (10, 2.31888407142832880000e-004) (11, 2.59218245744705200000e-001) (12, 5.52239045500755310000e-002) (13, 1.30608584731817250000e-002) (14, 1.75475582480430600000e-001) (15, -1.20822109282016750000e-001) (16, -9.86437499523162840000e-002) (17, 2.60603968054056170000e-002) (18, -1.11419707536697390000e-001) (19, 2.93433777987957000000e-002) (20, 3.07057172060012820000e-001) (21, 2.11969196796417240000e-001) (22, 5.33985555171966550000e-001) (23, 3.24573278427124020000e-001) (24, 1.33032858371734620000e-001) (25, -6.30581378936767580000e-002) (26, -1.32342919707298280000e-001) (27, -1.08099445700645450000e-001) (28, -3.98202873766422270000e-002) (29, 1.57580301165580750000e-001) (30, 1.14420633763074870000e-002) (31, -2.96571236103773120000e-002) (32, -1.25143513083457950000e-001) (33, 6.08419597148895260000e-001) (34, -2.57377684116363530000e-001) (35, 1.14736044779419900000e-002) (36, 1.29276573657989500000e-001) (37, -7.35381543636322020000e-001) (38, 1.68129026889801030000e-001) (39, 4.60092335939407350000e-001) (40, -9.56596434116363530000e-002) (41, -2.21335098147392270000e-001) (42, 1.80034294724464420000e-001) (43, 7.38463830202817920000e-003) (44, 7.38102123141288760000e-002) (45, -8.40290728956460950000e-003) (46, -3.62381897866725920000e-002) (47, -1.47817209362983700000e-001) (48, 2.20668569207191470000e-001) (49, 8.46076533198356630000e-002) (50, 3.31099256873130800000e-002) (51, -8.71931482106447220000e-003) (52, 1.37023419141769410000e-001) (53, -3.21958333253860470000e-001) (54, 4.14989031851291660000e-002) (55, -1.64332408457994460000e-002) (56, 4.34129908680915830000e-002) (57, -1.81443497538566590000e-001) (58, 4.55777868628501890000e-002) (59, -1.67861819267272950000e-001) (60, 2.33599673956632610000e-002) (61, -7.07802036777138710000e-003) (62, 3.14789116382598880000e-001) (63, -8.42029303312301640000e-002) (64, 6.32944926619529720000e-002) (65, -3.97453576326370240000e-001) (66, 2.26551778614521030000e-002) (67, 7.05237165093421940000e-002) (68, 1.84300035238265990000e-001) (69, -2.16368082910776140000e-002) (70, -1.50507641956210140000e-002) (71, 4.23573851585388180000e-002) (72, 2.20811627805233000000e-002) (73, 5.59713914990425110000e-002) (74, -4.63746428489685060000e-001) (75, 8.69283378124237060000e-001) (0, 1.61391773223876950000e+001) (1, -2.36916168212890620000e+002) (2, 2.81476043701171870000e+002) (3, -1.49004578590393070000e-001) (4, -1.30257849121093750000e+003) (5, 1.47472192382812500000e+003) (6, 7.12528686523437500000e+001) (7, -1.42834240722656250000e+003) (8, 4.44688079833984370000e+002) (9, 2.30646152496337890000e+001) (10, -9.19262512207031250000e+002) (11, 1.24836132812500000000e+003) (12, 1.13082580566406250000e+002) (13, -1.32453601074218750000e+003) (14, 1.44526794433593750000e+003) (15, -1.01440801620483400000e+001) (16, 5.37187988281250000000e+002) (17, -1.49946093750000000000e+003) (18, -2.23613777160644530000e+001) (19, 1.45056774902343750000e+003) (20, -1.43378845214843750000e+003) (21, -1.47934997558593750000e+003) (22, 1.28228283691406250000e+003) (23, -1.03423657226562500000e+003) (24, -1.16623864746093750000e+003) (25, 1.50000000000000000000e+003) (26, -7.83953552246093750000e+002) (27, -1.45851391601562500000e+003) (28, 1.50000000000000000000e+003) (29, -1.49459436035156250000e+003) (30, -1.11825571060180660000e+001) (31, -6.27399536132812500000e+002) (32, -6.95166503906250000000e+002) (33, -5.30904483795166020000e+000) (34, 1.05682006835937500000e+003) (35, 1.50000000000000000000e+003) (36, -7.04247253417968750000e+002) (37, 1.50000000000000000000e+003) (38, 1.50000000000000000000e+003) (39, -2.63617095947265620000e+001) (40, -8.50674621582031250000e+002) (41, 1.50000000000000000000e+003) (42, -9.01751403808593750000e+001) (43, -1.02983984375000000000e+003) (44, -1.39104382324218750000e+003) (45, 1.42080793380737300000e+001) (46, 1.50000000000000000000e+003) (47, 1.95722885131835940000e+002) (48, -6.96025634765625000000e+002) (49, 8.95161819458007810000e+001) (50, -1.49946789550781250000e+003) (51, -1.10688123703002930000e+001) (52, -1.50000000000000000000e+003) (53, -1.49619946289062500000e+003) (54, 1.06415557861328120000e+000) (55, 6.54674865722656250000e+002) (56, -1.48496679687500000000e+003) (57, -3.06060009002685550000e+001) (58, 1.50000000000000000000e+003) (59, -1.34686059570312500000e+003) (60, 1.83661758422851560000e+002) (61, -1.45888684082031250000e+003) (62, -1.39643945312500000000e+003) (63, 2.00856685638427730000e+001) (64, -1.15411254882812500000e+003) (65, -1.48828845214843750000e+003) (66, -8.22923461914062500000e+002) (67, 1.50000000000000000000e+003) (68, -1.49977160644531250000e+003) (69, 1.24166796875000000000e+003) (70, -1.49901562500000000000e+003) (71, -9.94505554199218750000e+002) (72, -1.53363937377929690000e+002) (73, -1.23134106445312500000e+003) (74, -1.49805224609375000000e+003) (75, 5.47130250930786130000e+000) (0, 3.77666076660156250000e+002) (1, -9.32321777343750000000e+002) (2, 1.41957031250000000000e+003) (3, 3.82758636474609370000e+001) (4, 1.29210400390625000000e+003) (5, 1.49436962890625000000e+003) (6, 2.68553409576416020000e+001) (7, -1.49881127929687500000e+003) (8, 1.31968981933593750000e+003) (9, -4.56562376022338870000e+000) (10, -1.49437109375000000000e+003) (11, 1.28737805175781250000e+003) (12, -8.06898784637451170000e+000) (13, 8.74130249023437500000e+002) (14, 1.49768310546875000000e+003) (15, 6.20687828063964840000e+001) (16, -1.86812103271484370000e+002) (17, -1.45885998535156250000e+003) (18, 9.36755065917968750000e+001) (19, 1.28273962402343750000e+003) (20, -1.78031021118164060000e+002) (21, -1.02893640136718750000e+003) (22, -1.49992395019531250000e+003) (23, -1.37470593261718750000e+003) (24, 3.59251070022583010000e+000) (25, 1.42819128417968750000e+003) (26, -1.46720495605468750000e+003) (27, -3.50492572784423830000e+000) (28, 1.49994787597656250000e+003) (29, -1.46854394531250000000e+003) (30, 2.71515838623046870000e+002) (31, -1.08222448730468750000e+003) (32, -1.00217523193359370000e+003) (33, 7.60184387207031250000e+002) (34, 1.49066882324218750000e+003) (35, 1.34080004882812500000e+003) (36, -1.60780838012695310000e+002) (37, 1.47883203125000000000e+003) (38, 1.07126135253906250000e+003) (39, -1.04685256958007810000e+002) (40, -1.21810888671875000000e+003) (41, 1.14626135253906250000e+003) (42, -1.10943199157714840000e+002) (43, 1.49100000000000000000e+003) (44, -1.36778491210937500000e+003) (45, 8.82530517578125000000e+001) (46, 9.40800048828125000000e+002) (47, 1.10267572402954100000e+001) (48, 1.74266254901885990000e+000) (49, -1.50000000000000000000e+003) (50, -1.46712744140625000000e+003) (51, -4.62038230895996090000e+000) (52, -1.26799523925781250000e+003) (53, 1.14981811523437500000e+003) (54, -6.02428615093231200000e-001) (55, -1.40611022949218750000e+003) (56, -1.25652880859375000000e+003) (57, -7.37856209278106690000e-001) (58, 3.28593673706054690000e+001) (59, 7.96631347656250000000e+002) (60, 1.20535949707031250000e+003) (61, -1.43930590820312500000e+003) (62, -1.47500000000000000000e+003) (63, 3.28170928955078120000e+001) (64, 1.49831298828125000000e+003) (65, 1.49985485839843750000e+003) (66, -5.88516235351562500000e+002) (67, 1.50000000000000000000e+003) (68, 1.49998217773437500000e+003) (69, -1.40178565979003910000e+001) (70, 1.49758520507812500000e+003) (71, -3.83818542480468750000e+002) (72, -2.97754812240600590000e+000) (73, 1.46577258300781250000e+003) (74, 1.45180041503906250000e+003) (75, -1.47301599121093750000e+003) (0, 4.32109870016574860000e-002) (1, -1.21113002300262450000e-001) (2, -1.25972881913185120000e-001) (3, 4.07461583614349370000e-001) (4, 1.95576116442680360000e-001) (5, 1.34374380111694340000e-001) (6, -2.76213109493255620000e-001) (7, -1.50644823908805850000e-001) (8, -9.73903656005859380000e-001) (9, 1.83155819773674010000e-001) (10, 1.06558270752429960000e-001) (11, 2.48696625232696530000e-001) (12, 1.10960423946380620000e-001) (13, 6.93095624446868900000e-002) (14, 9.09058302640914920000e-002) (15, 5.24494424462318420000e-002) (16, -2.53960695117712020000e-002) (17, 2.82464511692523960000e-002) (18, -5.23330569267272950000e-001) (19, 4.82003957033157350000e-001) (20, -5.47080039978027340000e-002) (21, -1.14001584053039550000e+000) (22, -1.59258440136909480000e-001) (23, 5.00614881515502930000e-001) (24, 4.43660169839859010000e-001) (25, 2.12692260742187500000e-001) (26, -8.41663256287574770000e-002) (27, -2.49630063772201540000e-001) (28, 4.96000461280345920000e-002) (29, 2.38680914044380190000e-001) (30, 6.36038333177566530000e-002) (31, 2.54048347473144530000e-001) (32, -1.20163578540086750000e-002) (33, -5.22612333297729490000e-001) (34, -5.15735983848571780000e-001) (35, -1.94082245230674740000e-001) (36, -3.59807640314102170000e-001) (37, 3.16832453012466430000e-001) (38, 1.04749880731105800000e-001) (39, -5.10714232921600340000e-001) (40, -5.38635730743408200000e-001) (41, -2.21905738115310670000e-001) (42, -1.41926348209381100000e-001) (43, -2.42369640618562700000e-002) (44, -2.27816000580787660000e-001) (45, -4.00070220232009890000e-001) (46, -3.72865563258528710000e-003) (47, -2.89179801940917970000e-001) (48, 5.41167259216308590000e-001) (49, -4.20766532421112060000e-001) (50, 4.67249631881713870000e-001) (51, 5.55214226245880130000e-001) (52, 4.40439656376838680000e-002) (53, -1.91040396690368650000e-001) (54, 4.69254314899444580000e-001) (55, -3.92642438411712650000e-001) (56, 2.56112098693847660000e-001) (57, 3.35941970348358150000e-001) (58, 7.00605362653732300000e-002) (59, 8.09579193592071530000e-002) (60, 1.53829172253608700000e-001) (61, -1.59723803400993350000e-001) (62, 2.18283742666244510000e-001) (63, 5.11495769023895260000e-002) (64, -3.60532812774181370000e-002) (65, -5.38087844848632810000e-001) (66, -3.58413457870483400000e-001) (67, 2.49661982059478760000e-001) (68, 5.45086503028869630000e-001) (69, 1.68856114149093630000e-001) (70, -2.35617905855178830000e-002) (71, -1.88908919692039490000e-001) (72, -2.26499319076538090000e-001) (73, 6.92368373274803160000e-002) (74, 2.49136537313461300000e-001) (75, -9.01839315891265870000e-001) (0, -8.22317838668823240000e-001) (1, 4.07965179443359370000e+002) (2, -7.23333190917968750000e+002) (3, 4.53259237110614780000e-002) (4, -6.10422119140625000000e+002) (5, 1.42704223632812500000e+003) (6, 6.70024812221527100000e-001) (7, 5.75016140937805180000e-002) (8, 1.47794165039062500000e+003) (9, 1.30660176277160640000e-001) (10, 6.66303405761718750000e+002) (11, 2.05495178222656250000e+002) (12, -2.50780731439590450000e-001) (13, 8.76047210693359370000e+001) (14, 1.97956390380859370000e+002) (15, 7.66645193099975590000e-001) (16, 1.36616027832031250000e+003) (17, 4.04093383789062500000e+002) (18, 8.97789835929870610000e-001) (19, 1.50000000000000000000e+003) (20, 1.46313366699218750000e+003) (21, 1.25761139392852780000e+000) (22, -1.08348205566406250000e+003) (23, -5.60622802734375000000e+002) (24, 7.43327558040618900000e-001) (25, 1.50000000000000000000e+003) (26, -1.49796215820312500000e+003) (27, 9.44764316082000730000e-001) (28, 1.50000000000000000000e+003) (29, 5.43021163940429690000e+001) (30, -2.17940092086791990000e-001) (31, -1.35672314453125000000e+003) (32, 4.98078186035156250000e+002) (33, -6.09661281108856200000e-001) (34, 1.50000000000000000000e+003) (35, 1.50000000000000000000e+003) (36, -4.16986131668090820000e+000) (37, 1.50000000000000000000e+003) (38, 1.50000000000000000000e+003) (39, -3.10897111892700200000e-001) (40, -5.10454177856445310000e+001) (41, 1.50000000000000000000e+003) (42, -3.07370573282241820000e-001) (43, 1.49941052246093750000e+003) (44, 5.67500650882720950000e-001) (45, 1.67962336540222170000e+000) (46, 1.48920007324218750000e+003) (47, -1.19722998142242430000e+000) (48, 7.19348788261413570000e-001) (49, -1.50000000000000000000e+003) (50, 1.49998608398437500000e+003) (51, -3.69621753692626950000e-001) (52, -1.50000000000000000000e+003) (53, 1.49958752441406250000e+003) (54, 4.28904801607131960000e-001) (55, 1.26203894042968750000e+003) (56, 6.15451240539550780000e+001) (57, 2.42860928177833560000e-001) (58, -2.70211944580078120000e+002) (59, 9.34181701660156250000e+002) (60, -2.81553477048873900000e-001) (61, -9.31592407226562500000e+002) (62, -1.50000000000000000000e+003) (63, -1.10081695020198820000e-001) (64, 1.49054296875000000000e+003) (65, 5.59054517745971680000e+000) (66, -2.43024206161499020000e+000) (67, 1.50000000000000000000e+003) (68, 1.48233715820312500000e+003) (69, -5.26144862174987790000e-001) (70, 1.49990832519531250000e+003) (71, 1.12828051757812500000e+003) (72, 7.29434043169021610000e-002) (73, 1.49697888183593750000e+003) (74, 1.33399084472656250000e+003) (75, -4.28125190734863280000e+000) (0, 2.62494951486587520000e-001) (1, 1.23835474252700810000e-001) (2, -1.65556464344263080000e-002) (3, -8.76671373844146730000e-002) (4, -1.28733247518539430000e-001) (5, -1.60015016794204710000e-001) (6, 1.42592579126358030000e-001) (7, 1.56809255480766300000e-001) (8, 1.07407659292221070000e-001) (9, 4.66850288212299350000e-002) (10, -9.51289981603622440000e-002) (11, 3.95395271480083470000e-002) (12, 1.10102616250514980000e-001) (13, 1.16576872766017910000e-001) (14, -5.47115243971347810000e-002) (15, -1.37729614973068240000e-001) (16, 1.66861057281494140000e-001) (17, 1.20695590972900390000e-001) (18, -4.37822073698043820000e-001) (19, -2.88967996835708620000e-001) (20, 1.96095835417509080000e-002) (21, -1.23763293027877810000e-001) (22, 3.33920657634735110000e-001) (23, 3.75815071165561680000e-002) (24, 6.19535326957702640000e-001) (25, 1.51503488421440120000e-001) (26, 4.13766354322433470000e-001) (27, -3.66627871990203860000e-001) (28, 4.93870787322521210000e-002) (29, 1.00240185856819150000e-002) (30, 1.01626142859458920000e-001) (31, 1.72127801924943920000e-002) (32, 1.54692204669117930000e-002) (33, -3.14634978771209720000e-001) (34, 1.32233882322907450000e-002) (35, 5.50930276513099670000e-002) (36, -5.60235977172851560000e-001) (37, -5.46928763389587400000e-001) (38, -2.60084360837936400000e-001) (39, -3.47071737051010130000e-001) (40, -1.58664137125015260000e-001) (41, -3.25279444456100460000e-001) (42, 1.30419516935944560000e-002) (43, 2.44251079857349400000e-002) (44, -1.47213265299797060000e-001) (45, 9.37141254544258120000e-002) (46, 1.68800219893455510000e-001) (47, 1.13456258550286290000e-002) (48, 7.38288089632987980000e-003) (49, -5.24825714528560640000e-002) (50, -8.51853489875793460000e-002) (51, 7.91771262884140010000e-002) (52, -6.00157439708709720000e-001) (53, 2.51760423183441160000e-001) (54, 3.36910963058471680000e-001) (55, -6.95565044879913330000e-002) (56, -1.00534327328205110000e-001) (57, -6.55768811702728270000e-002) (58, 9.99775808304548260000e-003) (59, 9.54015254974365230000e-002) (60, -2.53065079450607300000e-001) (61, 5.96888475120067600000e-002) (62, -2.52525448799133300000e-001) (63, 2.77548097074031830000e-002) (64, 6.44993707537651060000e-002) (65, 1.65893644094467160000e-001) (66, 4.36304271221160890000e-001) (67, -2.07315653562545780000e-001) (68, 1.66744012385606770000e-002) (69, -9.55998722929507490000e-004) (70, 1.31939411163330080000e-001) (71, 1.65232971310615540000e-001) (72, -2.30794399976730350000e-002) (73, -2.57184244692325590000e-002) (74, -2.40470338612794880000e-002) (75, -1.87627029418945310000e+000) (0, 9.51923206448554990000e-002) (1, 4.85692033544182780000e-003) (2, -2.14868292212486270000e-001) (3, 9.17521342635154720000e-002) (4, 6.14598160609602930000e-004) (5, -6.62782341241836550000e-002) (6, 2.28648722171783450000e-001) (7, 1.53381153941154480000e-001) (8, 5.14331050217151640000e-002) (9, 2.29072317481040950000e-001) (10, 7.51135312020778660000e-003) (11, -5.87123073637485500000e-003) (12, -9.28599089384078980000e-002) (13, -4.45135235786437990000e-002) (14, 5.37570416927337650000e-002) (15, -1.59129295498132710000e-002) (16, 7.23247379064559940000e-002) (17, 1.97624057531356810000e-001) (18, 2.27326482534408570000e-001) (19, 2.39319190382957460000e-001) (20, -7.15168798342347150000e-003) (21, 3.23462150990962980000e-002) (22, 3.93404453992843630000e-001) (23, -2.05003187060356140000e-001) (24, -1.05263181030750270000e-001) (25, 1.09288081526756290000e-001) (26, -2.85717491060495380000e-002) (27, 1.28816545009613040000e-001) (28, 3.21345254778862000000e-002) (29, -2.72366497665643690000e-002) (30, 6.05696737766265870000e-002) (31, 1.41854688525199890000e-001) (32, -2.05887928605079650000e-001) (33, -6.15269541740417480000e-002) (34, 4.24918830394744870000e-001) (35, -2.52302978187799450000e-002) (36, -9.95939791202545170000e-001) (37, 1.04331575334072110000e-001) (38, 2.67742007970809940000e-001) (39, 4.05820459127426150000e-002) (40, 1.53501763939857480000e-001) (41, 1.55382812023162840000e-001) (42, -1.06131032109260560000e-001) (43, 1.90920028835535050000e-002) (44, -1.49391576647758480000e-001) (45, -1.13883458077907560000e-001) (46, 2.27987751364707950000e-001) (47, 8.57400894165039060000e-002) (48, 1.89767345786094670000e-001) (49, 1.83005377650260930000e-001) (50, 1.49584218859672550000e-001) (51, 1.53477203845977780000e+000) (52, 1.79060548543930050000e-001) (53, 2.62176692485809330000e-001) (54, -1.17459028959274290000e-001) (55, 1.33066520094871520000e-001) (56, 1.97549518197774890000e-002) (57, 2.69699469208717350000e-002) (58, -1.15236500278115270000e-002) (59, 2.13938340544700620000e-001) (60, -2.70315855741500850000e-001) (61, 8.33673030138015750000e-002) (62, -6.47755265235900880000e-002) (63, -2.90677975863218310000e-002) (64, 4.93941456079483030000e-003) (65, -2.06220895051956180000e-001) (66, -3.95379185676574710000e-001) (67, 2.62663215398788450000e-001) (68, -4.16589975357055660000e-001) (69, 6.28321198746562000000e-003) (70, -5.73636852204799650000e-002) (71, -2.03533157706260680000e-001) (72, 5.62443537637591360000e-003) (73, 9.00403484702110290000e-002) (74, 2.82168477773666380000e-001) (75, -3.92470455169677730000e+000) (0, -9.23847839355468750000e+002) (1, 8.74667114257812500000e+002) (2, -1.40326049804687500000e+003) (3, -1.50000000000000000000e+003) (4, 1.49958911132812500000e+003) (5, -1.28237158203125000000e+003) (6, -1.50000000000000000000e+003) (7, 1.42189147949218750000e+003) (8, -7.55866882324218750000e+002) (9, -1.49996557617187500000e+003) (10, 1.50000000000000000000e+003) (11, 1.49956665039062500000e+003) (12, -1.50000000000000000000e+003) (13, 1.21497253417968750000e+003) (14, 1.07644567871093750000e+003) (15, -1.50000000000000000000e+003) (16, -1.41967114257812500000e+003) (17, 1.50000000000000000000e+003) (18, -1.50000000000000000000e+003) (19, 1.50000000000000000000e+003) (20, 1.50000000000000000000e+003) (21, -1.50000000000000000000e+003) (22, -1.45247937011718750000e+003) (23, 1.50000000000000000000e+003) (24, -1.50000000000000000000e+003) (25, 1.50000000000000000000e+003) (26, 1.49425927734375000000e+003) (27, -1.49999731445312500000e+003) (28, 1.50000000000000000000e+003) (29, 1.49428723144531250000e+003) (30, -1.49964135742187500000e+003) (31, -7.31545959472656250000e+002) (32, 1.50000000000000000000e+003) (33, -1.50000000000000000000e+003) (34, 1.50000000000000000000e+003) (35, 1.50000000000000000000e+003) (36, -1.49993847656250000000e+003) (37, 1.50000000000000000000e+003) (38, 1.50000000000000000000e+003) (39, -1.49821911621093750000e+003) (40, 1.02248394775390620000e+003) (41, 1.50000000000000000000e+003) (42, -1.49985900878906250000e+003) (43, 1.49910607910156250000e+003) (44, -7.54012451171875000000e+002) (45, -1.49980810546875000000e+003) (46, 1.50000000000000000000e+003) (47, -1.37505081176757810000e+002) (48, -1.49811975097656250000e+003) (49, -1.50000000000000000000e+003) (50, 2.43477706909179690000e+002) (51, -1.49998999023437500000e+003) (52, -1.50000000000000000000e+003) (53, -1.46241430664062500000e+003) (54, -1.50000000000000000000e+003) (55, -1.42153283691406250000e+003) (56, -8.16841857910156250000e+002) (57, -1.50000000000000000000e+003) (58, -3.39072601318359370000e+002) (59, -1.43026379394531250000e+003) (60, -1.50000000000000000000e+003) (61, 1.48758203125000000000e+003) (62, -1.50000000000000000000e+003) (63, -1.02396835327148440000e+002) (64, 1.48328869628906250000e+003) (65, -1.39894567871093750000e+003) (66, -1.50000000000000000000e+003) (67, 1.50000000000000000000e+003) (68, -1.49071228027343750000e+003) (69, -1.49989172363281250000e+003) (70, 1.50000000000000000000e+003) (71, -1.44989538574218750000e+003) (72, -1.49998803710937500000e+003) (73, 1.32143457031250000000e+003) (74, 1.09928637695312500000e+003) (75, -9.17126083374023440000e+000) (0, -4.52326118946075440000e-001) (1, -2.62444198131561280000e-001) (2, -9.11864876747131350000e-001) (3, 1.82112067937850950000e-001) (4, 2.88712233304977420000e-001) (5, -4.72949475049972530000e-001) (6, 6.71332538127899170000e-001) (7, 4.58339542150497440000e-001) (8, 3.64427089691162110000e-001) (9, 5.68778157234191890000e-001) (10, 2.80434399843215940000e-001) (11, -1.06896424293518070000e+000) (12, -2.95364141464233400000e-001) (13, -1.04058496654033660000e-001) (14, -1.10717900097370150000e-001) (15, -1.16188824176788330000e-001) (16, -3.70743721723556520000e-001) (17, 1.31863474845886230000e+000) (18, 1.38238474726676940000e-001) (19, 2.70552158355712890000e-001) (20, -3.91629427671432500000e-001) (21, 1.24622607231140140000e+000) (22, 1.14512622356414790000e+000) (23, 1.88955679535865780000e-001) (24, -6.64658322930336000000e-002) (25, 4.95482623577117920000e-001) (26, -4.84829135239124300000e-002) (27, 4.45286482572555540000e-001) (28, -1.23615048825740810000e-001) (29, -6.39623284339904790000e-001) (30, 2.64832824468612670000e-001) (31, -6.06720507144927980000e-001) (32, -8.24967086315155030000e-001) (33, -2.61166185140609740000e-001) (34, 3.20924036204814910000e-002) (35, -2.29073762893676760000e-001) (36, -1.65881887078285220000e-001) (37, -5.89344561100006100000e-001) (38, -4.03925269842147830000e-001) (39, -3.81861567497253420000e-001) (40, 1.09248384833335880000e-001) (41, 4.87137548625469210000e-002) (42, -4.85019803047180180000e-001) (43, -6.72133043408393860000e-002) (44, 3.75185757875442500000e-001) (45, -2.21788391470909120000e-001) (46, -3.80681872367858890000e-001) (47, 6.30558580160140990000e-002) (48, 3.54595750570297240000e-001) (49, 2.12795212864875790000e-001) (50, 2.06284031271934510000e-001) (51, 2.21997991204261780000e-001) (52, -7.68121480941772460000e-002) (53, -1.01700119674205780000e-001) (54, 1.60440281033515930000e-001) (55, -1.05219699442386630000e-001) (56, -1.64758369326591490000e-001) (57, -1.46249815821647640000e-001) (58, -4.95424509048461910000e-001) (59, 1.98957785964012150000e-001) (60, 1.21990211308002470000e-001) (61, -2.93695807456970210000e-001) (62, -5.45777529478073120000e-002) (63, -1.40348866581916810000e-001) (64, -7.32486248016357420000e-002) (65, 1.55394220352172850000e+000) (66, 2.33497321605682370000e-001) (67, -4.87700253725051880000e-002) (68, 7.37072974443435670000e-002) (69, -3.70837986469268800000e-001) (70, 7.12157599627971650000e-003) (71, -5.18148720264434810000e-001) (72, 5.96678555011749270000e-001) (73, -2.86223471164703370000e-001) (74, 8.27122867107391360000e-001) (75, -1.69457263946533200000e+001) (0, 1.53877496719360350000e-001) (1, 9.10198688507080080000e-002) (2, -1.51829600334167480000e-001) (3, -1.30956232547760010000e-001) (4, -2.94382628053426740000e-002) (5, 5.53147606551647190000e-002) (6, 6.24412335455417630000e-002) (7, 1.01553648710250850000e-001) (8, 1.31763830780982970000e-001) (9, -3.93513739109039310000e-002) (10, -1.00873991847038270000e-001) (11, 5.71392104029655460000e-002) (12, -6.12534359097480770000e-002) (13, -3.61688248813152310000e-002) (14, 2.57114730775356290000e-002) (15, -8.34328494966030120000e-003) (16, 2.11560621857643130000e-001) (17, 3.11046913266181950000e-002) (18, 5.56939542293548580000e-001) (19, 1.50681361556053160000e-001) (20, 2.97044754028320310000e-001) (21, -5.55135160684585570000e-002) (22, 6.27742090728133920000e-004) (23, -7.08499997854232790000e-002) (24, 4.92358773946762080000e-001) (25, 9.85981673002243040000e-002) (26, -1.33257851004600520000e-001) (27, 1.51522934436798100000e-001) (28, 2.73019932210445400000e-002) (29, 2.24348381161689760000e-002) (30, -2.41409376263618470000e-001) (31, 4.28948774933815000000e-002) (32, -2.29330107569694520000e-001) (33, 3.42945963144302370000e-001) (34, 6.29410028457641600000e-001) (35, 3.21328751742839810000e-002) (36, 1.03941881656646730000e+000) (37, 3.30765366554260250000e-001) (38, -5.58244168758392330000e-001) (39, -1.19316123425960540000e-001) (40, 3.26281726360321040000e-001) (41, 2.78196126222610470000e-001) (42, -1.14256538450717930000e-001) (43, -9.50530450791120530000e-003) (44, -7.81465992331504820000e-002) (45, 4.58501502871513370000e-002) (46, 1.11623160541057590000e-001) (47, -4.15785312652587890000e-002) (48, 1.24991655349731450000e-001) (49, 2.60420739650726320000e-001) (50, -4.19001036789268260000e-004) (51, -1.72052514553070070000e+000) (52, 6.91872298717498780000e-001) (53, -3.56247544288635250000e-001) (54, 1.38911962509155270000e-001) (55, 1.29244700074195860000e-001) (56, -1.62114188075065610000e-001) (57, 7.93668031692504880000e-002) (58, 6.69803470373153690000e-002) (59, 8.73879045248031620000e-002) (60, -1.19269639253616330000e-001) (61, 9.34131145477294920000e-002) (62, 5.43413646519184110000e-002) (63, -3.76164056360721590000e-002) (64, 1.03702999651432040000e-001) (65, 2.94445246458053590000e-001) (66, -4.18962836265563960000e-001) (67, 1.14716187119483950000e-001) (68, 2.52090424299240110000e-001) (69, -2.52908438444137570000e-001) (70, 5.27501665055751800000e-002) (71, -4.97838966548442840000e-002) (72, -2.74778306484222410000e-002) (73, 1.24719463288784030000e-001) (74, 1.64752006530761720000e-001) (75, 4.46616792678833010000e+000) (0, -2.50997185707092290000e-001) (1, -1.19257137179374690000e-001) (2, -1.07606895267963410000e-001) (3, 3.22619408369064330000e-001) (4, 1.14133320748806000000e-001) (5, 4.16477881371974950000e-002) (6, -2.02312871813774110000e-001) (7, -1.45455196499824520000e-001) (8, 4.21385198831558230000e-001) (9, 5.01518726348876950000e-001) (10, 2.19916731119155880000e-001) (11, 5.36206841468811040000e-001) (12, -5.67808300256729130000e-002) (13, -5.52687002345919610000e-003) (14, -1.76389552652835850000e-002) (15, -9.11049265414476390000e-003) (16, -2.41418197751045230000e-001) (17, -9.43332985043525700000e-002) (18, -4.80353385210037230000e-002) (19, 3.38055312633514400000e-001) (20, -1.45275324583053590000e-001) (21, 1.41906487941741940000e+000) (22, -1.71718075871467590000e-001) (23, -6.61389410495758060000e-001) (24, -5.67065060138702390000e-001) (25, 3.76798473298549650000e-002) (26, -3.04639637470245360000e-001) (27, -1.37030988931655880000e-001) (28, -1.58011436462402340000e-001) (29, -2.22248751670122150000e-002) (30, -3.07741705328226090000e-002) (31, -1.54551863670349120000e-001) (32, 1.08834572136402130000e-001) (33, -2.58089631795883180000e-001) (34, 2.59060353040695190000e-001) (35, 4.74251527339220050000e-003) (36, -9.07203018665313720000e-001) (37, 8.33944499492645260000e-001) (38, 4.68593724071979520000e-002) (39, 3.30816954374313350000e-001) (40, -6.93263173103332520000e-001) (41, 1.57121181488037110000e-001) (42, 1.79426565766334530000e-001) (43, 1.91402547061443330000e-002) (44, 5.17787821590900420000e-002) (45, -7.67064169049263000000e-002) (46, -1.97185963392257690000e-001) (47, -2.98571437597274780000e-001) (48, -6.00106790661811830000e-002) (49, 1.53436884284019470000e-001) (50, 4.20101314783096310000e-001) (51, -3.21206390857696530000e-001) (52, 1.49370387196540830000e-001) (53, -2.08217754960060120000e-001) (54, 1.07463032007217410000e-001) (55, -1.92452967166900630000e-001) (56, 1.00010462105274200000e-001) (57, 1.68513387441635130000e-001) (58, 1.82909741997718810000e-001) (59, -1.15845456719398500000e-001) (60, 9.64576601982116700000e-002) (61, -1.46360084414482120000e-001) (62, 2.90636181831359860000e-001) (63, -7.71012157201766970000e-002) (64, 1.08369268476963040000e-001) (65, -2.61260002851486210000e-001) (66, -9.56724360585212710000e-002) (67, 3.48863787949085240000e-002) (68, 1.31606549024581910000e-001) (69, 3.36818188428878780000e-001) (70, -5.19641228020191190000e-002) (71, -1.12199164927005770000e-001) (72, -1.69555515050888060000e-001) (73, 1.88942670822143550000e-001) (74, -1.53535911813378330000e-002) (75, -2.38329863548278810000e+000) (0, -1.18710912764072420000e-001) (1, -1.31114885210990910000e-001) (2, 2.25023344159126280000e-001) (3, -1.68272163718938830000e-002) (4, -8.07987079024314880000e-002) (5, -1.41929641366004940000e-001) (6, 4.57137525081634520000e-001) (7, 3.04788023233413700000e-001) (8, -1.44492285326123240000e-002) (9, -5.16507327556610110000e-001) (10, -2.61433213949203490000e-001) (11, 6.49425148963928220000e-001) (12, -4.96351383626461030000e-002) (13, 4.21717949211597440000e-002) (14, -2.27051228284835820000e-003) (15, 1.02748364210128780000e-001) (16, -2.00111996382474900000e-002) (17, 6.09190985560417180000e-002) (18, -5.29767572879791260000e-002) (19, -8.27729180455207820000e-002) (20, 4.21280086040496830000e-001) (21, 7.61583268642425540000e-001) (22, 8.40753674507141110000e-001) (23, 3.78915190696716310000e-001) (24, -5.64309060573577880000e-001) (25, -6.62921190261840820000e-001) (26, -2.19154447317123410000e-001) (27, -3.42109203338623050000e-002) (28, 5.88618926703929900000e-002) (29, -2.30333998799324040000e-001) (30, -1.48269146680831910000e-001) (31, 4.97054532170295720000e-002) (32, -1.26084715127944950000e-001) (33, -1.24268181622028350000e-001) (34, -4.80896800756454470000e-001) (35, -3.17593276500701900000e-001) (36, -2.34179124236106870000e-001) (37, -8.03911447525024410000e-001) (38, -1.01871144771575930000e+000) (39, -1.44020989537239070000e-001) (40, 5.58793842792510990000e-001) (41, 1.57156527042388920000e-001) (42, -1.45662561058998110000e-001) (43, -2.69972980022430420000e-001) (44, -3.77574980258941650000e-001) (45, 9.97712686657905580000e-002) (46, 1.84740841388702390000e-001) (47, 2.45540574193000790000e-001) (48, 2.88675367832183840000e-001) (49, -5.75299203395843510000e-001) (50, 2.79616445302963260000e-001) (51, 4.46256846189498900000e-001) (52, -1.97604671120643620000e-001) (53, 1.07178196310997010000e-001) (54, -4.90203857421875000000e-001) (55, 1.11199654638767240000e-002) (56, 1.45426005125045780000e-001) (57, 6.41433835029602050000e-001) (58, 1.71627327799797060000e-001) (59, 1.07500985264778140000e-001) (60, -2.97129511833190920000e-001) (61, 2.14417856186628340000e-002) (62, 3.72007787227630620000e-002) (63, 5.80452919006347660000e-001) (64, 2.24443804472684860000e-002) (65, -2.92691141366958620000e-001) (66, -1.08724780380725860000e-001) (67, 1.76107753068208690000e-002) (68, -2.55499213933944700000e-001) (69, 2.02388957142829900000e-001) (70, -7.91297527030110360000e-004) (71, -2.99312658607959750000e-002) (72, -3.79534274339675900000e-001) (73, 2.84785211086273190000e-001) (74, 3.98184925317764280000e-001) (75, -4.74216890335083010000e+000) (0, -2.73486399650573730000e+000) (1, 1.49472119140625000000e+003) (2, -1.50000000000000000000e+003) (3, -1.77632585167884830000e-001) (4, -1.46880236816406250000e+003) (5, -1.44883874511718750000e+003) (6, -2.58300155401229860000e-001) (7, 1.49380993652343750000e+003) (8, -1.31815551757812500000e+003) (9, -5.13255715370178220000e-001) (10, 1.48706762695312500000e+003) (11, -1.28944860839843750000e+003) (12, -3.48302274942398070000e-001) (13, 3.64545593261718750000e+001) (14, 4.75460815429687500000e+001) (15, -5.58546483516693120000e-002) (16, 1.39084301757812500000e+003) (17, -1.40947241210937500000e+003) (18, 7.85119682550430300000e-002) (19, 1.49991662597656250000e+003) (20, 1.50000000000000000000e+003) (21, -2.64760497957468030000e-002) (22, -1.45308959960937500000e+003) (23, 1.49426147460937500000e+003) (24, 8.17974805831909180000e-002) (25, 1.42530773925781250000e+003) (26, 1.50000000000000000000e+003) (27, 4.82941381633281710000e-002) (28, 7.27952209472656250000e+002) (29, 1.49882043457031250000e+003) (30, -3.85042399168014530000e-001) (31, 3.65223663330078120000e+002) (32, 1.47178479003906250000e+003) (33, 3.83704334497451780000e-001) (34, 1.50000000000000000000e+003) (35, 1.50000000000000000000e+003) (36, -8.93763923645019530000e+000) (37, 1.50000000000000000000e+003) (38, 1.50000000000000000000e+003) (39, 3.23911339044570920000e-001) (40, 1.46025805664062500000e+003) (41, 1.50000000000000000000e+003) (42, 1.09548896551132200000e-001) (43, 1.24836413574218750000e+003) (44, 1.50000000000000000000e+003) (45, -6.42711967229843140000e-002) (46, 1.43661181640625000000e+003) (47, -1.50000000000000000000e+003) (48, 3.34784913063049320000e+000) (49, -1.50000000000000000000e+003) (50, 1.49980065917968750000e+003) (51, 1.41249113082885740000e+001) (52, -1.50000000000000000000e+003) (53, 1.49810388183593750000e+003) (54, -9.01181221008300780000e-001) (55, 1.47579870605468750000e+003) (56, -6.24450683593750000000e+002) (57, -2.77700722217559810000e-001) (58, 9.02774414062500000000e+002) (59, 1.41045690917968750000e+003) (60, -8.67333292961120610000e-001) (61, 1.47680444335937500000e+003) (62, -1.50000000000000000000e+003) (63, -4.58155721426010130000e-001) (64, 1.50000000000000000000e+003) (65, 1.05378833007812500000e+003) (66, -1.37010955810546870000e+000) (67, 1.01259460449218750000e+003) (68, -1.47535681152343750000e+003) (69, -1.82933397591114040000e-002) (70, 1.49967236328125000000e+003) (71, -1.44299609375000000000e+003) (72, 6.47372305393218990000e-001) (73, 1.50000000000000000000e+003) (74, 2.69535980224609370000e+002) (75, -9.30767917633056640000e+000) (0, -1.68529748916625980000e-001) (1, -1.14399500191211700000e-001) (2, 9.23652388155460360000e-003) (3, -6.30519390106201170000e-002) (4, 3.50443348288536070000e-002) (5, -4.55671325325965880000e-002) (6, 1.31399214267730710000e-001) (7, 1.26499999314546590000e-002) (8, 3.46404433250427250000e-001) (9, -2.56397962570190430000e-001) (10, 1.82011127471923830000e-002) (11, -3.22745233774185180000e-001) (12, 1.39747023582458500000e-001) (13, 3.75539176166057590000e-002) (14, 1.03229194879531860000e-001) (15, -1.00471980869770050000e-001) (16, -3.27011436223983760000e-001) (17, -1.21258646249771120000e-001) (18, 3.52171212434768680000e-001) (19, 1.86567634344100950000e-001) (20, -1.56899109482765200000e-001) (21, -7.39443600177764890000e-002) (22, 6.46846592426300050000e-002) (23, 6.81915134191513060000e-002) (24, -2.91042089462280270000e-001) (25, -2.92743712663650510000e-001) (26, 1.18123471736907960000e-001) (27, -1.24244026839733120000e-001) (28, 8.96277129650115970000e-002) (29, 3.56635451316833500000e-002) (30, 2.04426199197769170000e-001) (31, -2.42022648453712460000e-001) (32, -3.60681638121604920000e-002) (33, 2.20432117581367490000e-001) (34, 3.67318093776702880000e-001) (35, 1.70236021280288700000e-001) (36, -1.16793908178806300000e-001) (37, -8.37783634662628170000e-001) (38, -9.71391975879669190000e-001) (39, -5.33116996288299560000e-001) (40, -7.75615215301513670000e-001) (41, -4.88790839910507200000e-001) (42, -9.10757780075073240000e-002) (43, -8.90247523784637450000e-002) (44, -1.23686857521533970000e-001) (45, -1.33946105837821960000e-001) (46, -4.47457320988178250000e-002) (47, 3.88424515724182130000e-001) (48, 1.67123317718505860000e-001) (49, 7.29034096002578740000e-002) (50, 2.99599617719650270000e-002) (51, -5.88339149951934810000e-001) (52, 4.30011242628097530000e-001) (53, 6.05270862579345700000e-001) (54, -9.27270054817199710000e-002) (55, -1.69833466410636900000e-001) (56, 7.05479919910430910000e-001) (57, 3.11895251274108890000e-001) (58, -7.62047544121742250000e-002) (59, -1.84970036149024960000e-001) (60, 9.03582349419593810000e-002) (61, -3.20038460195064540000e-002) (62, -2.02304109930992130000e-001) (63, -1.22900709509849550000e-001) (64, 8.49277153611183170000e-003) (65, -1.74841299653053280000e-001) (66, -1.90485149621963500000e-001) (67, 1.25770345330238340000e-001) (68, -2.10266560316085820000e-003) (69, -4.09046709537506100000e-002) (70, -9.06551927328109740000e-002) (71, 1.55892014503479000000e-001) (72, -7.41659253835678100000e-002) (73, 8.21327641606330870000e-002) (74, -9.88045781850814820000e-002) (75, 6.14407444000244140000e+000) (0, 1.49993151855468750000e+003) (1, 9.11906982421875000000e+002) (2, -1.24733996582031250000e+003) (3, 1.49993395996093750000e+003) (4, -1.49971215820312500000e+003) (5, -1.49138598632812500000e+003) (6, 1.49990979003906250000e+003) (7, 1.49806457519531250000e+003) (8, -1.34987597656250000000e+003) (9, 1.49992980957031250000e+003) (10, 1.50000000000000000000e+003) (11, 2.36135726928710940000e+002) (12, 1.49993627929687500000e+003) (13, -3.61997467041015620000e+002) (14, -1.44583581542968750000e+003) (15, 1.49993286132812500000e+003) (16, -1.15129833984375000000e+003) (17, 1.49976464843750000000e+003) (18, 1.49991577148437500000e+003) (19, 1.46388610839843750000e+003) (20, 1.50000000000000000000e+003) (21, 1.49991418457031250000e+003) (22, -1.49873046875000000000e+003) (23, 1.48200000000000000000e+003) (24, 1.49993237304687500000e+003) (25, 1.50000000000000000000e+003) (26, 1.50000000000000000000e+003) (27, 1.49993457031250000000e+003) (28, 1.50000000000000000000e+003) (29, 1.49793652343750000000e+003) (30, 1.49992761230468750000e+003) (31, 1.29821313476562500000e+003) (32, 1.49822888183593750000e+003) (33, 1.49988378906250000000e+003) (34, 1.50000000000000000000e+003) (35, 1.50000000000000000000e+003) (36, 1.49992102050781250000e+003) (37, 1.50000000000000000000e+003) (38, 1.50000000000000000000e+003) (39, 1.49993908691406250000e+003) (40, 1.39223913574218750000e+003) (41, 1.50000000000000000000e+003) (42, 1.49993847656250000000e+003) (43, -1.31237597656250000000e+003) (44, 1.46978430175781250000e+003) (45, 1.49992614746093750000e+003) (46, 1.50000000000000000000e+003) (47, 9.02228576660156250000e+002) (48, 1.49993115234375000000e+003) (49, -1.21580004882812500000e+003) (50, 1.49999450683593750000e+003) (51, 7.02411575317382810000e+001) (52, -1.50000000000000000000e+003) (53, -1.29254431152343750000e+003) (54, 1.49987561035156250000e+003) (55, -1.47901416015625000000e+003) (56, 1.49712011718750000000e+003) (57, 1.49993359375000000000e+003) (58, -4.25963714599609370000e+002) (59, -1.38609094238281250000e+003) (60, 1.49988659667968750000e+003) (61, 1.49844323730468750000e+003) (62, -1.50000000000000000000e+003) (63, 1.50000000000000000000e+003) (64, 1.49927941894531250000e+003) (65, 1.49992907714843750000e+003) (66, 1.49993603515625000000e+003) (67, 1.50000000000000000000e+003) (68, 1.17829040527343750000e+003) (69, 1.49998229980468750000e+003) (70, 1.49999890136718750000e+003) (71, 1.01479455566406250000e+003) (72, 1.49993640136718750000e+003) (73, 1.49950280761718750000e+003) (74, 1.49993994140625000000e+003) (75, 7.45535202026367190000e+001) (0, 1.42710925292968750000e+003) (1, 1.43650915527343750000e+003) (2, -1.48042919921875000000e+003) (3, 1.48597924804687500000e+003) (4, -3.35423675537109370000e+002) (5, 8.34456054687500000000e+002) (6, -4.51487121582031250000e+002) (7, -1.48917871093750000000e+003) (8, 4.68165985107421870000e+002) (9, 9.20990478515625000000e+002) (10, -1.37586022949218750000e+003) (11, 1.49485156250000000000e+003) (12, 4.79497955322265620000e+002) (13, -6.35140563964843750000e+002) (14, -1.46526452636718750000e+003) (15, 1.42245275878906250000e+003) (16, 1.50000000000000000000e+003) (17, -1.38444592285156250000e+003) (18, 1.31700854492187500000e+003) (19, -1.50000000000000000000e+003) (20, -6.44253540039062500000e+002) (21, -6.39135681152343750000e+002) (22, 1.49609680175781250000e+003) (23, -1.44263256835937500000e+003) (24, -1.05038818359375000000e+003) (25, -1.50000000000000000000e+003) (26, 1.48748999023437500000e+003) (27, 1.43885791015625000000e+003) (28, -1.50000000000000000000e+003) (29, 1.49999951171875000000e+003) (30, 1.50000000000000000000e+003) (31, 6.40785675048828130000e+001) (32, -1.50000000000000000000e+003) (33, 1.50000000000000000000e+003) (34, -1.50000000000000000000e+003) (35, -1.50000000000000000000e+003) (36, -1.49987646484375000000e+003) (37, -1.50000000000000000000e+003) (38, -1.50000000000000000000e+003) (39, -1.08318798828125000000e+003) (40, 1.10314782714843750000e+003) (41, 8.18195861816406250000e+002) (42, -4.11260711669921870000e+002) (43, -8.13542785644531250000e+002) (44, 1.49749572753906250000e+003) (45, 1.11219604492187500000e+003) (46, -1.50000000000000000000e+003) (47, -1.29548852539062500000e+003) (48, 1.49384204101562500000e+003) (49, 1.50000000000000000000e+003) (50, -7.17722167968750000000e+002) (51, -1.76707916259765620000e+002) (52, 1.50000000000000000000e+003) (53, -1.40361608886718750000e+003) (54, -7.93221252441406250000e+002) (55, 1.50000000000000000000e+003) (56, -1.48052062988281250000e+003) (57, 1.79295867919921870000e+002) (58, -7.37874084472656250000e+002) (59, -9.52624450683593750000e+002) (60, 1.50000000000000000000e+003) (61, 7.26004699707031250000e+002) (62, 1.50000000000000000000e+003) (63, 1.32269384765625000000e+003) (64, -1.19095214843750000000e+003) (65, -1.21060913085937500000e+003) (66, -7.38410217285156250000e+002) (67, -1.50000000000000000000e+003) (68, -1.13584057617187500000e+003) (69, 1.63509765625000000000e+002) (70, -1.44906176757812500000e+003) (71, -1.27564440917968750000e+003) (72, 5.53984863281250000000e+002) (73, 5.15639770507812500000e+002) (74, 1.45159179687500000000e+003) (75, 1.52671371459960940000e+002) (0, 3.62020939588546750000e-001) (1, 2.60294020175933840000e-001) (2, 7.64972269535064700000e-002) (3, -1.09115745872259140000e-002) (4, -2.72422820329666140000e-001) (5, -3.32745956256985660000e-003) (6, 3.12906593084335330000e-001) (7, 1.87015831470489500000e-001) (8, 4.85631316900253300000e-001) (9, -9.10844653844833370000e-003) (10, -1.74184396862983700000e-001) (11, -3.72021924704313280000e-004) (12, 3.19897770881652830000e-001) (13, 1.61017999053001400000e-001) (14, -1.85882627964019780000e-001) (15, -1.40028282999992370000e-001) (16, 2.83772736787796020000e-001) (17, 2.28860363364219670000e-001) (18, 2.27902874350547790000e-001) (19, 1.38496190309524540000e-001) (20, 9.42865461111068730000e-002) (21, -2.81284898519515990000e-001) (22, 1.23392820358276370000e-001) (23, -9.64222192764282230000e-001) (24, 4.32577371597290040000e-001) (25, 2.31607556343078610000e-001) (26, 7.30566620826721190000e-001) (27, 8.41856524348258970000e-002) (28, 6.74237847328186040000e-001) (29, -6.93052053451538090000e-001) (30, 1.83878064155578610000e-001) (31, 5.15851199626922610000e-001) (32, -1.27041712403297420000e-001) (33, -7.58714973926544190000e-001) (34, -1.00729748606681820000e-001) (35, -5.14107704162597660000e-001) (36, -2.16175198554992680000e-001) (37, -3.48793566226959230000e-001) (38, 4.83789145946502690000e-001) (39, -5.64262032508850100000e-001) (40, 2.66181975603103640000e-002) (41, -4.16817396879196170000e-001) (42, -1.71415925025939940000e-001) (43, 4.61042940616607670000e-001) (44, 3.60306501388549800000e-001) (45, -2.10560157895088200000e-001) (46, 2.26125359535217290000e-001) (47, 3.86590957641601560000e-001) (48, 2.14547157287597660000e-001) (49, 2.62658268213272090000e-001) (50, -8.54890868067741390000e-002) (51, -5.14470338821411130000e-001) (52, 9.09987807273864750000e-001) (53, 5.60363411903381350000e-001) (54, 2.87777274847030640000e-001) (55, -2.22721651196479800000e-001) (56, -1.26809251308441160000e+000) (57, -4.62447732686996460000e-001) (58, 2.09688767790794370000e-001) (59, 4.75731074810028080000e-001) (60, 3.22633869946002960000e-002) (61, 9.47313569486141200000e-003) (62, -5.18857896327972410000e-001) (63, -4.11930173635482790000e-001) (64, 2.57000297307968140000e-001) (65, 9.28850620985031130000e-002) (66, -6.29101753234863280000e-001) (67, 2.86703795194625850000e-001) (68, 2.99001485109329220000e-001) (69, 2.61701464653015140000e-001) (70, -2.08697072230279450000e-003) (71, -2.53475517034530640000e-001) (72, 4.74868947640061380000e-003) (73, 1.00530534982681270000e-001) (74, 6.82901620864868160000e-001) (75, 1.03474016189575200000e+001) (76, 6.30581200122833250000e-001) (77, 1.94226145744323730000e+000) (78, 1.03762474060058590000e+001) (79, 1.67359125614166260000e+000) (80, 5.82135677337646480000e-001) (81, -5.90109467506408690000e-001) (82, 2.12014138698577880000e-001) (83, 5.20838642120361330000e+000) (84, -3.86438816785812380000e-001) (85, 9.20124530792236330000e-001) (86, 1.30255714058876040000e-001) (87, 6.48746728897094730000e-001) (88, 7.64792263507843020000e-001) (89, -2.73375663757324220000e+001) (90, -1.67156398296356200000e+000) (91, 3.00725340843200680000e+000) (92, 1.53881704807281490000e+000) (93, 8.27330797910690310000e-002) (94, 9.58615970611572270000e+000) (95, -3.07194679975509640000e-001) (96, -2.36362129449844360000e-001) (97, 2.92409777641296390000e+000) (98, -1.64899572730064390000e-001) (99, 6.65364563465118410000e-001) (100, 1.38093030452728270000e+000) (101, 8.01960563659667970000e+000) (102, 1.62446272373199460000e+000) (103, -2.12058916687965390000e-001) (104, 3.63451063632965090000e-001) (105, -8.30613803863525390000e+000) (106, 1.80108174681663510000e-001) (107, -2.46158814430236820000e+000) (108, -9.47438597679138180000e-001) (109, -1.15929983556270600000e-001) (110, -5.41033387184143070000e-001) (111, 3.44039940834045410000e+000) (112, 1.13159394264221190000e+000) (113, -1.30852058529853820000e-001) (114, 7.31540775299072270000e+000) (115, -8.97887420654296870000e+000) (116, 5.88399887084960940000e-001) (117, 2.96816873550415040000e+000) (118, 2.12152695655822750000e+000) (119, 3.11282706260681150000e+000) (120, 3.99999213218688960000e+000) (121, -1.92960333824157710000e+000) (122, 1.62906420230865480000e+000) (123, 8.45176696777343750000e-001) (124, 1.05819237232208250000e+000) (125, 8.85621190071105960000e-001) (126, 8.61764103174209590000e-002) (76, 7.82094430923461910000e+000) (77, 9.84349846839904790000e-001) (78, -2.30141615867614750000e+000) (79, 1.26700174808502200000e+000) (80, -3.18540245294570920000e-001) (81, -5.74901401996612550000e-001) (82, -4.36337947845458980000e-001) (83, 5.67083978652954100000e+000) (84, -1.27992343902587890000e+000) (85, -1.23967081308364870000e-001) (86, -9.86411869525909420000e-001) (87, 1.31228303909301760000e+000) (88, 2.78693509101867680000e+000) (89, 1.34683597087860110000e+000) (90, 4.25549089908599850000e-001) (91, 3.51402372121810910000e-001) (92, 8.91732811927795410000e-001) (93, 1.26230514049530030000e+000) (94, 1.14763271808624270000e+000) (95, 4.05057430267333980000e-001) (96, 1.53148972988128660000e+000) (97, -1.28947436809539790000e+000) (98, 1.10613989830017090000e+000) (99, 3.46176576614379880000e+000) (100, 3.10707402229309080000e+000) (101, -6.23534262180328370000e-001) (102, -6.58181142807006840000e+000) (103, -4.97302889823913570000e-001) (104, 4.61753129959106450000e-001) (105, -8.10684919357299800000e-001) (106, -2.72765278816223140000e-001) (107, -1.57623457908630370000e+000) (108, -2.13609027862548830000e+000) (109, -3.12816882133483890000e+000) (110, -1.06016135215759280000e+000) (111, -1.51937794685363770000e+000) (112, 1.40407156944274900000e+000) (113, 1.32677531242370610000e+000) (114, 7.35157907009124760000e-001) (115, -4.68302106857299800000e+000) (116, -3.71435016393661500000e-001) (117, 8.88225793838500980000e-001) (118, 2.41630339622497560000e+000) (119, 2.20798149704933170000e-001) (120, -6.06096312403678890000e-002) (121, 4.70624029636383060000e-001) (122, 8.83535099029541020000e+000) (123, 4.10275697708129880000e-001) (124, 2.82010406255722050000e-001) (125, 4.63775157928466800000e+000) (126, 5.67660629749298100000e-001) (76, 1.59790575504302980000e+000) (77, 5.05624103546142580000e+000) (78, -9.23842102050781250000e+002) (79, 7.71241545677185060000e-001) (80, -2.93409454345703120000e+002) (81, 1.09405444335937500000e+003) (82, 8.49797189235687260000e-001) (83, 7.35826904296875000000e+002) (84, 8.54877258300781250000e+002) (85, 1.47062817382812500000e+003) (86, 1.53338491916656490000e+000) (87, -7.59413146972656250000e+002) (88, 1.41771042346954350000e+000) (89, -2.15227675437927250000e+000) (90, 5.14714002609252930000e-001) (91, 1.75976699829101560000e+002) (92, 1.49998400878906250000e+003) (93, 3.90701562166213990000e-001) (94, 4.32549285888671870000e+000) (95, -7.92810767889022830000e-002) (96, 3.68194520473480220000e-001) (97, 8.28219787597656250000e+002) (98, 4.96615469455718990000e-001) (99, 7.60388672351837160000e-001) (100, 1.45937280273437500000e+003) (101, 7.48585176467895510000e+000) (102, -1.49991259765625000000e+003) (103, 1.12998132324218750000e+003) (104, 7.03252732753753660000e-001) (105, -2.17880191802978520000e+001) (106, -1.49579052734375000000e+003) (107, -8.64484977722167970000e+000) (108, -5.41332054138183590000e+000) (109, 1.16611170768737790000e+000) (110, 7.86068856716156010000e-001) (111, -1.46268737792968750000e+003) (112, -1.68171599507331850000e-001) (113, -1.50000000000000000000e+003) (114, 1.99579882621765140000e+000) (115, -1.45890173339843750000e+003) (116, -1.40565466308593750000e+003) (117, 3.06347846984863280000e-001) (118, 1.63767540454864500000e+000) (119, 1.82029986381530760000e+000) (120, 6.71026229858398440000e+000) (121, -1.49983508300781250000e+003) (122, 1.38360192871093750000e+003) (123, 8.81974339485168460000e-001) (124, 1.47185534667968750000e+003) (125, 1.05107295513153080000e+000) (126, 4.48134988546371460000e-002) (76, 2.07876992225646970000e+000) (77, -8.32052588462829590000e-001) (78, 1.16052484512329100000e+000) (79, 7.64377975463867190000e+000) (80, 1.25879156589508060000e+000) (81, 8.03583145141601560000e-001) (82, 1.37844160199165340000e-001) (83, 2.76966667175292970000e+000) (84, -7.71579146385192870000e-001) (85, -4.98475044965744020000e-001) (86, -4.64214861392974850000e-001) (87, 1.33439794182777400000e-001) (88, -1.69319137930870060000e-001) (89, -1.06950032711029050000e+000) (90, -1.12896144390106200000e+000) (91, 3.18349194526672360000e+000) (92, 3.01072984933853150000e-001) (93, -1.45514950156211850000e-001) (94, -1.16549976170063020000e-001) (95, -1.93141415715217590000e-001) (96, -1.30960062146186830000e-001) (97, 1.05213546752929690000e+000) (98, -1.50167718529701230000e-001) (99, 1.52848586440086360000e-001) (100, 1.19994032382965090000e+000) (101, 1.46980037689208980000e+001) (102, 1.07474291324615480000e+000) (103, 5.51266551017761230000e-001) (104, -6.05827808380126950000e-001) (105, -2.66983246803283690000e+000) (106, -1.18337428569793700000e+000) (107, 4.76208060979843140000e-001) (108, -5.11079072952270510000e+000) (109, -2.22628906369209290000e-001) (110, -1.08425840735435490000e-001) (111, 2.09045615047216420000e-002) (112, 3.72535777091979980000e+000) (113, -9.70836341381073000000e-001) (114, 6.01063299179077150000e+000) (115, -8.23165476322174070000e-001) (116, 7.00313597917556760000e-002) (117, 1.85253703594207760000e+000) (118, 7.43840813636779790000e-001) (119, 3.67121481895446780000e+000) (120, 2.96884131431579590000e+000) (121, -3.74972987174987790000e+000) (122, 2.98085689544677730000e+000) (123, -9.18977320194244380000e-001) (124, -1.14507484436035160000e+000) (125, -5.58257624506950380000e-002) (126, 9.60152298212051390000e-002) (76, 1.35098533630371090000e+001) (77, 1.08358788490295410000e+000) (78, -6.13053464889526370000e+000) (79, -3.46634685993194580000e-001) (80, 5.18686437606811520000e+000) (81, 5.35227298736572270000e+000) (82, 3.60574960708618160000e+000) (83, 1.64804756641387940000e+000) (84, 3.00297170877456670000e-001) (85, 6.87359929084777830000e-001) (86, -7.38905668258666990000e+000) (87, -2.47405529022216800000e-001) (88, 7.34721565246582030000e+000) (89, 8.22261095046997070000e-001) (90, -9.87350270152091980000e-002) (91, 9.09826946258544920000e+000) (92, 1.35792255401611330000e+001) (93, 1.58296537399291990000e+000) (94, -1.77009459584951400000e-002) (95, 1.43643450736999510000e+000) (96, 1.64449107646942140000e+000) (97, 4.52593374252319340000e+000) (98, 1.98902416229248050000e+000) (99, 1.04656295776367190000e+001) (100, 3.81657814979553220000e+000) (101, -6.77402138710021970000e-001) (102, -1.66324386596679690000e+001) (103, -4.19848859310150150000e-001) (104, 2.65692442655563350000e-001) (105, 2.43329107761383060000e-001) (106, 1.15885696411132810000e+001) (107, -3.45386719703674320000e+000) (108, -1.74125027656555180000e+000) (109, -2.24766254425048830000e-001) (110, -1.78867506980896000000e+000) (111, 1.51899042129516600000e+001) (112, 8.87901127338409420000e-001) (113, -5.76279640197753910000e+000) (114, -2.23525643348693850000e+000) (115, -6.06651353836059570000e+000) (116, 2.10867419838905330000e-001) (117, 6.15440085530281070000e-002) (118, 6.87549018859863280000e+000) (119, 1.40197086334228520000e+000) (120, 5.93569040298461910000e-001) (121, 6.15913152694702150000e+000) (122, 4.22264432907104490000e+000) (123, -2.71361994743347170000e+000) (124, -5.06114602088928220000e-001) (125, 2.13312473297119140000e+001) (126, 8.51475954055786130000e-001) (76, 8.02026271820068360000e+000) (77, 9.05389487743377690000e-001) (78, -9.52191833496093750000e+002) (79, 6.63508832454681400000e-001) (80, 5.52924865722656250000e+002) (81, 1.06813354492187500000e+003) (82, 2.08020520210266110000e+000) (83, 1.49740295410156250000e+003) (84, 1.49949682617187500000e+003) (85, 1.47518896484375000000e+003) (86, -3.21771287918090820000e+000) (87, -6.54249938964843750000e+002) (88, 9.38607978820800780000e+000) (89, 5.39512395858764650000e-001) (90, 1.01605963706970210000e+000) (91, 1.45642456054687500000e+003) (92, 1.49997998046875000000e+003) (93, 7.38025009632110600000e-001) (94, 2.65138745307922360000e+000) (95, 7.52014040946960450000e-001) (96, 1.05885744094848630000e+000) (97, 9.37209960937500000000e+002) (98, 7.33910262584686280000e-001) (99, 7.70073928833007810000e+001) (100, 1.49986987304687500000e+003) (101, 7.02733933925628660000e-001) (102, -1.16840893554687500000e+003) (103, 1.05273181152343750000e+003) (104, -1.12201356887817380000e+000) (105, -7.47998416423797610000e-001) (106, 1.49999279785156250000e+003) (107, -7.00300812721252440000e-001) (108, -9.71871948242187500000e+000) (109, -1.25187885761260990000e+000) (110, -3.81878763437271120000e-001) (111, -1.46264086914062500000e+003) (112, -4.38126862049102780000e-001) (113, -1.49996301269531250000e+003) (114, 1.30357193946838380000e+000) (115, -1.46913806152343750000e+003) (116, -1.49677893066406250000e+003) (117, 1.63150203227996830000e+000) (118, 2.96389198303222660000e+001) (119, 2.76022768020629880000e+000) (120, 7.82038807868957520000e-001) (121, 1.46116503906250000000e+003) (122, 1.49786108398437500000e+003) (123, -3.22785043716430660000e+000) (124, 1.41342260742187500000e+003) (125, 3.80637812614440920000e+000) (126, 6.50367259979248050000e-001) (76, 1.08169424533843990000e+000) (77, -5.90683892369270320000e-002) (78, -7.92345404624938960000e-003) (79, 1.66118764877319340000e+000) (80, 1.47352125495672230000e-002) (81, 4.02406483888626100000e-001) (82, 1.86425447463989260000e-003) (83, 4.07909959554672240000e-001) (84, -2.23844394087791440000e-001) (85, 3.49953360855579380000e-002) (86, -1.52755260467529300000e-001) (87, 2.15942412614822390000e-001) (88, 8.32213163375854490000e-001) (89, 8.18870067596435550000e-001) (90, -4.52946349978446960000e-002) (91, 2.32734823226928710000e+000) (92, 3.74737791717052460000e-002) (93, 6.56235143542289730000e-002) (94, 1.01594746112823490000e+000) (95, -6.40375539660453800000e-003) (96, 1.26488670706748960000e-001) (97, 1.65000185370445250000e-001) (98, 4.67876583337783810000e-001) (99, 9.17020201683044430000e-001) (100, 6.63350880146026610000e-001) (101, 1.52285194396972660000e+000) (102, 4.64255952835083010000e+000) (103, 9.47523713111877440000e-002) (104, 1.57157376408576970000e-001) (105, -1.41986966133117680000e-001) (106, -7.10675865411758420000e-003) (107, 2.41175778210163120000e-002) (108, 2.06295594573020940000e-001) (109, -6.11519217491149900000e-001) (110, 9.49634984135627750000e-002) (111, 4.95034968480467800000e-003) (112, 4.94034945964813230000e-001) (113, -1.79092939943075180000e-002) (114, 1.77670419216156010000e+000) (115, -1.68100729584693910000e-001) (116, -7.13836848735809330000e-002) (117, 1.23582088947296140000e+000) (118, 1.23630821704864500000e+000) (119, 8.52449476718902590000e-001) (120, 1.07955813407897950000e+000) (121, -4.29587624967098240000e-002) (122, 9.67481493949890140000e-001) (123, 1.24368272721767430000e-001) (124, -9.17958989739418030000e-002) (125, 8.97680103778839110000e-001) (126, 1.26360189914703370000e+000) (76, 5.77528774738311770000e-001) (77, 2.04239177703857420000e+000) (78, -9.99445739746093750000e+002) (79, 7.00779438018798830000e-001) (80, -1.65821594238281250000e+002) (81, 1.25475537109375000000e+003) (82, 2.94888663291931150000e+000) (83, 1.49958276367187500000e+003) (84, 8.61210754394531250000e+002) (85, 1.46025207519531250000e+003) (86, 1.09345602989196780000e+000) (87, -6.16683227539062500000e+002) (88, 3.58082443475723270000e-001) (89, -6.17299750447273250000e-002) (90, 8.38455557823181150000e-001) (91, 1.49969799804687500000e+003) (92, -1.49994885253906250000e+003) (93, 2.41547524929046630000e-001) (94, 1.23721897602081300000e+000) (95, 1.98972791433334350000e-001) (96, 1.75607148557901380000e-002) (97, 1.49953662109375000000e+003) (98, 1.03178471326828000000e-001) (99, 2.87361532449722290000e-001) (100, 1.49960510253906250000e+003) (101, 9.77340817451477050000e-001) (102, 1.49995312500000000000e+003) (103, 8.70217407226562500000e+002) (104, 1.49678686523437500000e+003) (105, -2.25138115882873540000e+000) (106, -1.49998718261718750000e+003) (107, -1.47611999511718750000e+003) (108, -3.79051513671875000000e+001) (109, 1.57307028770446780000e+000) (110, -1.48321337890625000000e+003) (111, 1.49535119628906250000e+003) (112, -2.54373997449874880000e-001) (113, 1.49995654296875000000e+003) (114, 6.33975088596343990000e-001) (115, -1.47557983398437500000e+003) (116, -4.43879730224609370000e+002) (117, 8.64625740051269530000e+000) (118, 1.49960925292968750000e+003) (119, 1.36386370658874510000e+000) (120, 3.57048988342285160000e+000) (121, -1.98325103759765620000e+002) (122, 1.49068664550781250000e+003) (123, 1.48765625000000000000e+003) (124, 1.44192407226562500000e+003) (125, 1.32231354713439940000e+000) (126, 7.36247062683105470000e-001) (76, 1.06549119949340820000e+000) (77, 1.08050525188446040000e+000) (78, 7.61600399017333980000e+000) (79, -3.02398180961608890000e+000) (80, -6.67241859436035160000e+000) (81, 4.74239397048950200000e+000) (82, 5.88199555873870850000e-001) (83, -2.72513270378112790000e+000) (84, 2.14383053779602050000e+000) (85, 2.57769107818603520000e+000) (86, -2.75938034057617190000e-001) (87, 2.39035034179687500000e+000) (88, 3.15192103385925290000e-001) (89, 7.63796329498291020000e+000) (90, 2.33287119865417480000e+000) (91, -4.79036539793014530000e-001) (92, -1.10507783889770510000e+001) (93, 1.22832584381103520000e+000) (94, -3.03661346435546870000e+000) (95, 1.29992473125457760000e+000) (96, 1.27352368831634520000e+000) (97, 1.38943064212799070000e+000) (98, 1.14928078651428220000e+000) (99, 1.16129092872142790000e-001) (100, 7.93937295675277710000e-002) (101, -5.18521928787231450000e+000) (102, 2.94555830955505370000e+000) (103, -1.18226456642150880000e+000) (104, 3.59365057945251460000e+000) (105, 8.64870262145996090000e+000) (106, 8.33448767662048340000e-002) (107, 1.27681231498718260000e+000) (108, 1.30712270736694340000e+001) (109, 2.64781260490417480000e+000) (110, 3.41829276084899900000e+000) (111, -9.07937908172607420000e+000) (112, -7.94426202774047850000e-001) (113, 3.68709802627563480000e+000) (114, -1.30191202163696290000e+001) (115, 2.47948932647705080000e+000) (116, -1.57103550434112550000e+000) (117, -7.76453351974487300000e+000) (118, -1.37107717990875240000e+000) (119, -4.23338460922241210000e+000) (120, -4.47328996658325200000e+000) (121, 1.28817911148071290000e+001) (122, -2.20710292458534240000e-001) (123, 2.67578005790710450000e+000) (124, 5.40033197402954100000e+000) (125, 2.59308278560638430000e-001) (126, 9.48218941688537600000e-001) (76, 1.86040438711643220000e-002) (77, -1.03388391435146330000e-001) (78, -2.52898316830396650000e-002) (79, 1.22753393650054930000e+000) (80, 7.22671225666999820000e-002) (81, -1.79396286606788640000e-001) (82, -3.99233907461166380000e-001) (83, 4.14488494396209720000e-001) (84, -2.19066724181175230000e-001) (85, -3.22756916284561160000e-002) (86, -4.77587908506393430000e-001) (87, 3.10485780239105220000e-001) (88, -6.56879991292953490000e-002) (89, -2.95337820053100590000e+000) (90, -7.15522050857543950000e-001) (91, 2.35137239098548890000e-001) (92, -1.07663355767726900000e-001) (93, 7.51727879047393800000e-001) (94, -5.24668276309967040000e-001) (95, -2.38430783152580260000e-001) (96, 6.87605917453765870000e-001) (97, 3.26767086982727050000e-001) (98, 7.05977499485015870000e-001) (99, -1.61897540092468260000e-002) (100, 1.16453266143798830000e+000) (101, 4.22376775741577150000e+000) (102, 3.46812635660171510000e-001) (103, -2.27158755064010620000e-001) (104, -2.61566370725631710000e-001) (105, 6.75353944301605220000e-001) (106, 5.53310871124267580000e-001) (107, -3.30154299736022950000e-001) (108, -1.12144160270690920000e+000) (109, -5.43231964111328130000e-001) (110, -1.55759558081626890000e-001) (111, 6.85251891613006590000e-001) (112, 1.46250700950622560000e+000) (113, 3.08004349470138550000e-001) (114, 1.36570286750793460000e+000) (115, 1.04692019522190090000e-001) (116, 4.39406663179397580000e-001) (117, 1.47284162044525150000e+000) (118, 2.15336322784423830000e-001) (119, 8.59036803245544430000e-001) (120, 6.16044521331787110000e-001) (121, 8.46458315849304200000e-001) (122, 6.06715619564056400000e-001) (123, -1.23118378221988680000e-001) (124, -1.33867830038070680000e-001) (125, -1.51597455143928530000e-001) (126, -5.38616597652435300000e-001) (76, -2.85116881132125850000e-001) (77, -7.17376023530960080000e-002) (78, -2.36969031393527980000e-002) (79, -6.50386393070220950000e-001) (80, -8.33570957183837890000e-003) (81, 5.07489085197448730000e-001) (82, 1.09561875462532040000e-001) (83, -1.10091245174407960000e+000) (84, -8.22247192263603210000e-002) (85, 2.90714204311370850000e-002) (86, -3.18520814180374150000e-002) (87, 4.16815876960754390000e-001) (88, -1.79307088255882260000e-001) (89, 1.60920187830924990000e-001) (90, 1.14848470687866210000e+000) (91, -4.69314604997634890000e-001) (92, 2.04975996166467670000e-003) (93, -2.12659135460853580000e-001) (94, -9.06169414520263670000e-001) (95, 5.66593050956726070000e-001) (96, -1.04656517505645750000e-001) (97, 1.40784829854965210000e-001) (98, -2.51458525657653810000e-001) (99, -4.69605356454849240000e-001) (100, -3.80532413721084590000e-001) (101, 2.22221910953521730000e-002) (102, -1.77333354949951170000e-001) (103, 1.02817952632904050000e-001) (104, -1.91659405827522280000e-002) (105, 5.48541069030761720000e-001) (106, -1.70847978442907330000e-002) (107, 9.99038014560937880000e-003) (108, 6.78709268569946290000e-001) (109, 1.19703841209411620000e+000) (110, 6.95122852921485900000e-002) (111, -8.39905440807342530000e-003) (112, -4.68131691217422490000e-001) (113, -4.45475755259394650000e-003) (114, -6.56912744045257570000e-001) (115, 2.17525959014892580000e+000) (116, -9.04678255319595340000e-002) (117, 1.13043570891022680000e-002) (118, -3.79708504676818850000e+000) (119, -1.33666604757308960000e-001) (120, 1.54540790244936940000e-002) (121, 4.10012388601899150000e-003) (122, -8.63495051860809330000e-001) (123, 1.06520866975188260000e-002) (124, -4.57266420125961300000e-002) (125, -5.60792446136474610000e-001) (126, 1.29365551471710210000e+000) (76, 6.82618379592895510000e-001) (77, 1.59867331385612490000e-002) (78, -4.02929149568080900000e-002) (79, 7.44118273258209230000e-001) (80, 2.17923521995544430000e-002) (81, 4.80517596006393430000e-002) (82, 8.84715616703033450000e-002) (83, 7.91583120822906490000e-001) (84, 9.55946277827024460000e-003) (85, -3.69873195886611940000e-002) (86, 3.86027619242668150000e-002) (87, 5.74595108628273010000e-002) (88, 6.13135933876037600000e-001) (89, 7.82144308090209960000e-001) (90, 3.33595991134643550000e-001) (91, 1.17045271396636960000e+000) (92, -6.94761648774147030000e-002) (93, 4.16350424289703370000e-001) (94, 6.35591089725494380000e-001) (95, 8.24623048305511470000e-001) (96, 7.36499905586242680000e-001) (97, -9.67429280281066890000e-002) (98, 3.85367989540100100000e-001) (99, 4.88872259855270390000e-001) (100, 7.88383483886718750000e-001) (101, 4.09663677215576170000e-001) (102, -5.28350877761840820000e+000) (103, 5.21785356104373930000e-002) (104, 8.53592604398727420000e-002) (105, -1.80073976516723630000e-001) (106, 1.09221525490283970000e-001) (107, 2.16853506863117220000e-002) (108, -5.98701477050781250000e-001) (109, -1.81753849983215330000e+000) (110, 6.40507787466049190000e-003) (111, 1.64515729993581770000e-002) (112, 8.92666220664978030000e-001) (113, -3.68312187492847440000e-002) (114, 1.16319704055786130000e+000) (115, -1.18902695178985600000e+000) (116, 1.69281795620918270000e-001) (117, 6.75370407104492190000e+000) (118, 1.49926042556762700000e+000) (119, 6.48845255374908450000e-001) (120, 6.22017502784729000000e-001) (121, 1.89416930079460140000e-002) (122, 1.07781803607940670000e+000) (123, 8.10404643416404720000e-002) (124, 7.21772313117980960000e-002) (125, 9.09890472888946530000e-001) (126, 9.20195281505584720000e-001) (76, 3.37403267621994020000e-002) (77, -2.88413688540458680000e-002) (78, 5.36851026117801670000e-002) (79, 1.12948262691497800000e+000) (80, -1.19884990155696870000e-001) (81, 2.32846215367317200000e-001) (82, 1.02314457297325130000e-001) (83, 7.82624840736389160000e-001) (84, -8.05887207388877870000e-002) (85, -3.20786386728286740000e-002) (86, -8.23755711317062380000e-002) (87, 2.07802042365074160000e-001) (88, 3.82063210010528560000e-001) (89, 1.55498189851641650000e-002) (90, -1.65245056152343750000e-001) (91, 1.50391852855682370000e+000) (92, -2.01134636998176570000e-001) (93, 6.81385993957519530000e-001) (94, 9.13097858428955080000e-001) (95, 2.15439766645431520000e-001) (96, 8.50122213363647460000e-001) (97, -1.26688957214355470000e-001) (98, 5.05051016807556150000e-001) (99, 3.81659656763076780000e-001) (100, 4.00074839591979980000e-001) (101, 9.99545276165008540000e-001) (102, 5.28657770156860350000e+000) (103, 5.16483969986438750000e-002) (104, -5.20119927823543550000e-002) (105, -9.63191390037536620000e-002) (106, 4.87402407452464100000e-003) (107, 1.36385083198547360000e-001) (108, -1.52910864353179930000e+000) (109, -1.40806710720062260000e+000) (110, 4.99846413731575010000e-002) (111, -1.75092536956071850000e-002) (112, 8.15432131290435790000e-001) (113, -1.19237750768661500000e-001) (114, 1.38405132293701170000e+000) (115, -8.80077958106994630000e-001) (116, 4.92869019508361820000e-002) (117, 1.95626640319824220000e+000) (118, 1.55056011676788330000e+000) (119, 1.01165735721588130000e+000) (120, 9.29791271686553960000e-001) (121, -1.56284466385841370000e-001) (122, 6.76174163818359380000e-001) (123, 3.37891164235770700000e-003) (124, 8.34782142192125320000e-003) (125, 5.23764908313751220000e-001) (126, 9.30941522121429440000e-001) (76, -1.54819850921630860000e+001) (77, 4.34031903743743900000e-001) (78, 9.79867980957031250000e+002) (79, 1.03650562465190890000e-001) (80, 1.13486364746093750000e+003) (81, -8.50014709472656250000e+002) (82, -4.01015371084213260000e-001) (83, -1.49900378417968750000e+003) (84, -5.55114593505859380000e+001) (85, -1.34181750488281250000e+003) (86, 9.86924886703491210000e-001) (87, 8.46591674804687500000e+002) (88, -2.85888284444808960000e-001) (89, 7.41319119930267330000e-001) (90, 1.26429212093353270000e+000) (91, -1.49977465820312500000e+003) (92, -1.15396142578125000000e+003) (93, 1.22200986370444300000e-002) (94, 8.31771671772003170000e-001) (95, -3.00603322684764860000e-002) (96, -8.29576790332794190000e-001) (97, -8.91305389404296880000e+001) (98, -3.59768867492675780000e-001) (99, -1.51782870292663570000e+000) (100, -1.49462475585937500000e+003) (101, 2.46409845352172850000e+000) (102, -1.41024084472656250000e+003) (103, -1.28461218261718750000e+003) (104, 8.49886178970336910000e-001) (105, 8.35978865623474120000e-001) (106, -1.49987341308593750000e+003) (107, 3.71507143974304200000e+000) (108, 3.95279026031494140000e+000) (109, 1.45981538295745850000e+000) (110, 1.07365942001342770000e+000) (111, 1.48900585937500000000e+003) (112, 1.45526897907257080000e+000) (113, 1.36068505859375000000e+003) (114, 4.60670518875122070000e+000) (115, 1.49985498046875000000e+003) (116, 2.44377365112304690000e+002) (117, 4.16636973619461060000e-001) (118, -4.28037595748901370000e+000) (119, 1.03233873844146730000e+000) (120, 8.49650740623474120000e-001) (121, -4.50027557373046870000e+002) (122, -1.42442016601562500000e+003) (123, 1.64268553256988530000e+000) (124, -1.19480725097656250000e+003) (125, -2.79817169189453120000e+002) (126, 6.16411864757537840000e-001) (76, 1.19033992290496830000e+000) (77, -3.84536087512969970000e-002) (78, -1.81241463869810100000e-002) (79, 1.48410999774932860000e+000) (80, -3.18287052214145660000e-002) (81, 8.96140038967132570000e-002) (82, -6.33386299014091490000e-002) (83, 2.79335081577301030000e-001) (84, -1.26659378409385680000e-001) (85, 4.23541263444349170000e-004) (86, -1.86442181468009950000e-001) (87, 7.24857896566390990000e-002) (88, 1.00107550621032710000e+000) (89, 2.46435016393661500000e-001) (90, -1.82115241885185240000e-001) (91, 1.75412058830261230000e+000) (92, 4.65168952941894530000e-002) (93, 2.44390949606895450000e-001) (94, 7.30935811996459960000e-001) (95, 5.34482479095458980000e-001) (96, 4.82440859079360960000e-001) (97, 1.64418831467628480000e-001) (98, 3.76607298851013180000e-001) (99, 1.13874113559722900000e+000) (100, 6.41419053077697750000e-001) (101, 1.29010498523712160000e+000) (102, 1.17198538780212400000e+000) (103, 2.15461198240518570000e-002) (104, -4.64010164141654970000e-002) (105, 2.35396429896354680000e-001) (106, 1.88912590965628620000e-003) (107, 6.86377752572298050000e-004) (108, -1.10980436205863950000e-001) (109, -4.88906472921371460000e-001) (110, 4.96545881032943730000e-002) (111, -1.33090298622846600000e-002) (112, 2.70785003900527950000e-001) (113, 1.77248232066631320000e-002) (114, 6.92629456520080570000e-001) (115, -4.51673299074172970000e-001) (116, -1.74050420522689820000e-001) (117, 8.39441108703613280000e+000) (118, 1.21397614479064940000e+000) (119, 7.29735910892486570000e-001) (120, 5.97933113574981690000e-001) (121, 4.56654094159603120000e-003) (122, 7.88214385509490970000e-001) (123, 2.71232868544757370000e-003) (124, -2.25315272808074950000e-001) (125, 6.01344645023345950000e-001) (126, -2.22160100936889650000e-001) (76, -2.02928042411804200000e+000) (77, 3.87593448162078860000e-001) (78, 1.36324780273437500000e+003) (79, 1.25944852828979490000e+000) (80, -2.03485351562500000000e+002) (81, -4.30785491943359370000e+002) (82, -5.69179654121398930000e-002) (83, 1.49978625488281250000e+003) (84, 7.30874511718750000000e+002) (85, 7.46798950195312500000e+002) (86, 6.75606012344360350000e-001) (87, -6.16215209960937500000e+002) (88, -3.97094821929931640000e+000) (89, -1.32357105612754820000e-001) (90, 9.80039715766906740000e-001) (91, 1.49974609375000000000e+003) (92, 1.49993762207031250000e+003) (93, -9.70752388238906860000e-002) (94, 1.95058238506317140000e+000) (95, -3.29148888587951660000e-001) (96, -1.21652595698833470000e-001) (97, 2.66457641601562500000e+002) (98, -8.40709209442138670000e-002) (99, -4.98918920755386350000e-001) (100, 1.49980627441406250000e+003) (101, 1.98267078399658200000e+000) (102, 1.49716467285156250000e+003) (103, -8.47241577148437500000e+002) (104, 4.13951754570007320000e-001) (105, 6.49061441421508790000e-001) (106, -1.48752722167968750000e+003) (107, -1.17389130592346190000e+000) (108, 2.13409256935119630000e+000) (109, 4.67441022396087650000e-001) (110, 1.81901681423187260000e+000) (111, -1.08992175292968750000e+003) (112, 1.32525038719177250000e+000) (113, -1.49977233886718750000e+003) (114, 9.26587402820587160000e-001) (115, 1.48596289062500000000e+003) (116, -9.44166992187500000000e+002) (117, 3.12201768159866330000e-001) (118, -3.00251369476318360000e+001) (119, 7.74015188217163090000e-001) (120, 1.36973893642425540000e+000) (121, 7.15797424316406250000e+002) (122, 1.49982104492187500000e+003) (123, 8.36275160312652590000e-001) (124, 9.54602233886718750000e+002) (125, -1.49851538085937500000e+003) (126, 3.11626762151718140000e-001) (76, -1.86552539467811580000e-001) (77, -5.35082481801509860000e-002) (78, 3.42055112123489380000e-001) (79, 2.28746986389160160000e+000) (80, 1.18638110160827640000e+000) (81, 1.24543294310569760000e-001) (82, 3.07337731122970580000e-001) (83, 2.18314194679260250000e+000) (84, -5.93349337577819820000e-001) (85, -7.85233557224273680000e-001) (86, 5.75597524642944340000e-001) (87, 7.27748572826385500000e-001) (88, -1.08337126672267910000e-001) (89, -8.33688640594482420000e+000) (90, -5.49694657325744630000e-001) (91, 1.69437074661254880000e+000) (92, 6.07272028923034670000e-001) (93, -3.63995432853698730000e-001) (94, 2.70528149604797360000e+000) (95, -4.89638328552246090000e-001) (96, -4.21811431646347050000e-001) (97, 1.53278103098273280000e-002) (98, -3.27658653259277340000e-001) (99, -1.99924826622009280000e-001) (100, 7.42743134498596190000e-001) (101, 5.44488191604614260000e+000) (102, 7.25786685943603520000e-001) (103, 9.93420898914337160000e-001) (104, 3.63450974225997920000e-001) (105, -3.32917666435241700000e+000) (106, -2.12547734379768370000e-001) (107, -7.11136043071746830000e-001) (108, -6.62478733062744140000e+000) (109, -2.03598991036415100000e-001) (110, -1.37286818027496340000e+000) (111, 1.10169148445129390000e+000) (112, 1.35947823524475100000e+000) (113, 2.46676281094551090000e-001) (114, 5.04957389831542970000e+000) (115, -3.54187226295471190000e+000) (116, -2.36154198646545410000e-001) (117, 1.07888588681817050000e-002) (118, 1.56187698245048520000e-001) (119, 4.26028394699096680000e+000) (120, 5.30748796463012700000e+000) (121, 1.03752346038818360000e+001) (122, 1.13219535350799560000e+000) (123, -4.57260251045227050000e-001) (124, 1.61007833480834960000e+000) (125, -1.91050544381141660000e-002) (126, 3.79264131188392640000e-002) (76, 2.12602305412292480000e+000) (77, 7.23591983318328860000e-001) (78, -5.17050623893737790000e-001) (79, 1.45068466663360600000e-001) (80, -7.11357314139604570000e-003) (81, -1.35953679680824280000e-001) (82, 2.39241644740104680000e-001) (83, -4.15067851543426510000e-001) (84, 6.02423787117004390000e-001) (85, -3.75921070575714110000e-001) (86, 4.52418357133865360000e-001) (87, 7.96546816825866700000e-001) (88, 1.72331321239471440000e+000) (89, 9.54799294471740720000e-001) (90, 5.35308979451656340000e-002) (91, 6.98218196630477910000e-002) (92, -3.24076950550079350000e-001) (93, 1.20459342002868650000e+000) (94, -1.11854068934917450000e-001) (95, 3.53189170360565190000e-001) (96, 1.86515140533447270000e+000) (97, -1.21524773538112640000e-001) (98, 1.41968333721160890000e+000) (99, 1.75135397911071780000e+000) (100, 1.13533973693847660000e+000) (101, -2.19205647706985470000e-001) (102, -1.98841169476509090000e-001) (103, 1.87392428517341610000e-001) (104, 2.71981954574584960000e-001) (105, -4.98414635658264160000e-001) (106, -4.96379174292087550000e-002) (107, 2.75834113359451290000e-001) (108, -6.34636163711547850000e-001) (109, -1.22079265117645260000e+000) (110, 7.13700428605079650000e-003) (111, 2.55273967981338500000e-001) (112, 1.19541347026824950000e+000) (113, 3.06694377213716510000e-002) (114, 1.00741937756538390000e-001) (115, -8.72817158699035640000e-001) (116, 4.82843190431594850000e-001) (117, 1.40983355045318600000e+000) (118, 1.84813129901885990000e+000) (119, 4.15167391300201420000e-001) (120, 1.22986471652984620000e+000) (121, -2.01058208942413330000e-001) (122, 1.90635037422180180000e+000) (123, 1.48861318826675420000e-001) (124, -9.61121767759323120000e-002) (125, 2.28574848175048830000e+000) (126, 7.44219303131103520000e-001) (76, 4.08731689453125000000e+001) (77, 1.04011309146881100000e+000) (78, 4.24071273803710940000e+001) (79, -3.79793107509613040000e-001) (80, 1.81609420776367190000e+001) (81, 2.03302645683288570000e+000) (82, 5.10697793960571290000e+000) (83, 2.37467849731445310000e+002) (84, 2.67292094230651860000e+000) (85, 1.54328858852386470000e+000) (86, -1.23008273541927340000e-001) (87, 1.15149097442626950000e+001) (88, 9.24514770507812500000e+000) (89, 9.57821905612945560000e-001) (90, 1.24036157131195070000e+000) (91, 2.97852752685546870000e+002) (92, 7.93643951416015630000e+001) (93, 1.90358865261077880000e+000) (94, 4.29260671138763430000e-001) (95, 1.53283715248107910000e+000) (96, 1.53495168685913090000e+000) (97, 7.07758941650390620000e+001) (98, 1.65998232364654540000e+000) (99, 3.95015563964843750000e+001) (100, 2.66962852478027340000e+001) (101, -1.86895594000816350000e-001) (102, -1.97916431427001950000e+001) (103, -1.02558112144470210000e+000) (104, 1.04232311248779300000e+000) (105, 6.49143338203430180000e-001) (106, 6.77886104583740230000e+000) (107, -2.19396442174911500000e-001) (108, -3.59587907791137700000e-001) (109, 7.51715898513793950000e-001) (110, -6.77025020122528080000e-001) (111, -1.69251785278320310000e+001) (112, -7.47027933597564700000e-001) (113, -6.00302848815917970000e+001) (114, 3.73853921890258790000e-001) (115, -4.79593391418457030000e+001) (116, 3.25355243682861330000e+000) (117, 3.30339848995208740000e-001) (118, 1.17442483901977540000e+001) (119, -1.85541570186614990000e+000) (120, 4.00041967630386350000e-001) (121, -9.76230163574218750000e+001) (122, 8.18397293090820310000e+001) (123, 2.66346126794815060000e-001) (124, -2.19062551856040950000e-001) (125, 1.09437797546386720000e+002) (126, 1.01677978038787840000e+000) (76, 2.11049646139144900000e-001) (77, 9.29949283599853520000e-001) (78, -9.88893449306488040000e-001) (79, -1.38895690441131590000e+000) (80, -5.10710000991821290000e-001) (81, -1.85916411876678470000e+000) (82, -9.37452390789985660000e-002) (83, -9.89754915237426760000e-001) (84, 4.14546698331832890000e-001) (85, -8.20201411843299870000e-002) (86, 7.38220274448394780000e-001) (87, 3.97956892848014830000e-002) (88, 1.71552628278732300000e-001) (89, 9.62192654609680180000e-001) (90, 2.37594938278198240000e+000) (91, -8.13226413726806640000e+000) (92, 8.75094354152679440000e-001) (93, 4.65090602636337280000e-001) (94, -4.49448108673095700000e+000) (95, 8.61938834190368650000e-001) (96, 1.03440046310424800000e+000) (97, -5.14065504074096680000e-001) (98, 4.34214293956756590000e-001) (99, 1.34498938918113710000e-001) (100, -1.23427462577819820000e+000) (101, -4.87700343132019040000e-001) (102, 1.11171221733093260000e+000) (103, 2.78953647613525390000e+000) (104, 2.10299277305603030000e+000) (105, 1.90150320529937740000e+000) (106, 5.38124275207519530000e+001) (107, 3.07924568653106690000e-001) (108, 2.73278665542602540000e+000) (109, 5.42038083076477050000e-001) (110, 4.31941539049148560000e-001) (111, -2.24044308066368100000e-001) (112, 1.70373547077178960000e+000) (113, -5.38026046752929690000e+001) (114, -2.97723937034606930000e+000) (115, 3.95370793342590330000e+000) (116, 1.29482889175415040000e+000) (117, -1.78918123245239260000e+000) (118, 7.36604928970336910000e-002) (119, 1.26739406585693360000e+000) (120, -2.76791548728942870000e+000) (121, 2.77498755604028700000e-002) (122, -6.37859284877777100000e-001) (123, 1.56374096870422360000e-001) (124, -1.33282363414764400000e-001) (125, -1.50289142131805420000e+000) (126, 2.95050710439682010000e-001) (76, 1.58346538543701170000e+001) (77, 9.25574719905853270000e-001) (78, -1.47978901863098140000e+000) (79, 3.03905904293060300000e-001) (80, 1.39532365798950200000e+001) (81, 1.11118364334106450000e+000) (82, 4.27536821365356450000e+000) (83, 1.03341972351074220000e+002) (84, 7.13674724102020260000e-001) (85, 9.24759656190872190000e-002) (86, -9.13435995578765870000e-001) (87, 3.73822361230850220000e-001) (88, 1.95000953674316410000e+001) (89, 3.87019187211990360000e-001) (90, 2.42589068412780760000e+000) (91, 9.05388793945312500000e+001) (92, 2.23833503723144530000e+001) (93, 7.06619262695312500000e+000) (94, -1.71096801757812500000e-001) (95, 1.37738049030303960000e+000) (96, 1.66652131080627440000e+000) (97, 2.64273285865783690000e-001) (98, 1.99285006523132320000e+000) (99, 3.39368362426757810000e+001) (100, 1.19680194854736330000e+001) (101, -7.01137661933898930000e-001) (102, -1.26775646209716800000e+001) (103, -6.82886981964111330000e+000) (104, 2.59924262762069700000e-001) (105, 5.71703873574733730000e-002) (106, -1.88695418834686280000e+000) (107, -3.41387629508972170000e+000) (108, -1.20863795280456540000e+000) (109, -3.80136162042617800000e-001) (110, 3.94829094409942630000e-001) (111, -4.26078605651855470000e+000) (112, 3.56429547071456910000e-001) (113, 4.16806745529174800000e+000) (114, 2.89753794670104980000e-001) (115, -3.03014183044433590000e+000) (116, -4.42258358001708980000e+000) (117, -2.59909301996231080000e-001) (118, 2.36074852943420410000e+000) (119, -2.27492356300354000000e+000) (120, -3.66287618875503540000e-001) (121, -4.99987268447875980000e+000) (122, 5.59227991104125980000e+000) (123, -1.69762289524078370000e+000) (124, 1.41054201126098630000e+000) (125, 8.66337490081787110000e+000) (126, 9.11543369293212890000e-001) (76, 2.03461395263671870000e+002) (77, -5.73548907414078710000e-003) (78, -4.47554931640625000000e+002) (79, -1.10520675778388980000e-001) (80, 8.14512878417968750000e+002) (81, 8.45403320312500000000e+002) (82, 1.58501148223876950000e+000) (83, 1.49980786132812500000e+003) (84, 8.45374328613281250000e+002) (85, 1.46345153808593750000e+003) (86, -1.13286113739013670000e+000) (87, -6.57696899414062500000e+002) (88, 1.28283393383026120000e+000) (89, 4.68834012746810910000e-001) (90, 2.77264803647995000000e-001) (91, 1.49990539550781250000e+003) (92, -1.49994396972656250000e+003) (93, 1.20018923282623290000e+000) (94, 2.09601014852523800000e-001) (95, 9.00239884853363040000e-001) (96, 9.11395251750946040000e-001) (97, 1.11726098632812500000e+003) (98, 1.14979112148284910000e+000) (99, 3.78329491615295410000e+000) (100, 1.49982153320312500000e+003) (101, -3.02722066640853880000e-001) (102, 1.49998168945312500000e+003) (103, 5.64696838378906250000e+002) (104, 2.43134570121765140000e+000) (105, 7.43483185768127440000e-001) (106, 1.48283996582031250000e+003) (107, -1.49146557617187500000e+003) (108, 4.24483180046081540000e-001) (109, 9.67859506607055660000e-001) (110, -1.36610449218750000000e+003) (111, 1.49539501953125000000e+003) (112, -8.61168622970581050000e-001) (113, 4.85898864746093750000e+002) (114, 9.44997221231460570000e-002) (115, -1.49456750488281250000e+003) (116, -1.49730749511718750000e+003) (117, 1.47306546568870540000e-001) (118, 6.19138671875000000000e+002) (119, 2.69872605800628660000e-001) (120, -1.85833108425140380000e+000) (121, 1.49980371093750000000e+003) (122, 1.49981848144531250000e+003) (123, 9.61986541748046880000e+001) (124, 1.44217150878906250000e+003) (125, 1.49982922363281250000e+003) (126, 3.58193516731262210000e-001) (76, 6.88912093639373780000e-001) (77, -1.47809934616088870000e+000) (78, -2.24464488029479980000e+000) (79, 4.13362789154052730000e+000) (80, -3.45194488763809200000e-001) (81, -6.14437162876129150000e-001) (82, 4.36226695775985720000e-001) (83, 1.32990407943725590000e+000) (84, -7.76605963706970210000e-001) (85, 1.99438393115997310000e-001) (86, -4.58046972751617430000e-001) (87, 4.80659715831279750000e-002) (88, 5.47432363033294680000e-001) (89, -1.60297241210937500000e+001) (90, -2.24469113349914550000e+000) (91, 5.57863473892211910000e-001) (92, 7.44622468948364260000e-001) (93, -3.20269823074340820000e-001) (94, 2.39597034454345700000e+000) (95, -6.22400879859924320000e-001) (96, -3.08967262506484990000e-001) (97, 1.25992071628570560000e+000) (98, -4.80588912963867190000e-001) (99, -1.20991282165050510000e-001) (100, 7.87995994091033940000e-001) (101, 4.94740581512451170000e+000) (102, 4.56104427576065060000e-001) (103, 2.65203893184661870000e-001) (104, -4.99788433313369750000e-001) (105, -2.70517802238464360000e+000) (106, -3.99580478668212890000e-001) (107, -2.22315335273742680000e+000) (108, -8.40372025966644290000e-001) (109, -1.12719905376434330000e+000) (110, -6.07042431831359860000e-001) (111, 9.98307108879089360000e-001) (112, 1.49802792072296140000e+000) (113, 2.50475120544433590000e+000) (114, 5.69502925872802730000e+000) (115, -2.08216810226440430000e+000) (116, 6.08134567737579350000e-001) (117, 1.64755666255950930000e+000) (118, 9.29289996623992920000e-001) (119, 2.47480487823486330000e+000) (120, 5.50248003005981450000e+000) (121, -7.74553537368774410000e+000) (122, 3.20900130271911620000e+000) (123, -1.49204969406127930000e+000) (124, -7.29702830314636230000e-001) (125, -1.52704626321792600000e-001) (126, -1.07281304895877840000e-001) (76, 1.16803379058837890000e+001) (77, 1.33155822753906250000e+000) (78, 1.35563783645629880000e+001) (79, -1.66266307234764100000e-001) (80, -3.98877501487731930000e-001) (81, 5.90286314487457280000e-001) (82, 3.65518033504486080000e-001) (83, 2.91475830078125000000e+001) (84, 1.36874771118164060000e+000) (85, 5.13929426670074460000e-001) (86, -3.03604459762573240000e+000) (87, 1.88762474060058590000e+000) (88, 8.39124298095703120000e+000) (89, 1.72711658477783200000e+000) (90, 3.32744926214218140000e-001) (91, 1.97174434661865230000e+001) (92, 6.10534429550170900000e+000) (93, 1.67394030094146730000e+000) (94, 4.22116935253143310000e-001) (95, 6.93317174911499020000e-001) (96, 2.44669580459594730000e+000) (97, -5.28764188289642330000e-001) (98, 4.52426671981811520000e+000) (99, 9.73085689544677730000e+000) (100, 1.46124124526977540000e+001) (101, -1.27024948596954350000e+000) (102, -4.58288717269897460000e+000) (103, -3.21916890144348140000e+000) (104, 8.03285062313079830000e-001) (105, -1.70335161685943600000e+000) (106, 2.10110855102539060000e+000) (107, -4.81297683715820310000e+000) (108, -7.89547562599182130000e-001) (109, -6.90170228481292720000e-001) (110, -7.05812335014343260000e-001) (111, 2.73345470428466800000e-001) (112, 1.67047524452209470000e+000) (113, -7.85536229610443120000e-001) (114, 8.34613263607025150000e-001) (115, -4.21206617355346680000e+000) (116, -2.46954345703125000000e+000) (117, 5.85195839405059810000e-001) (118, 3.37846803665161130000e+000) (119, -2.47739768028259280000e+000) (120, 1.23984277248382570000e+000) (121, 7.93289184570312500000e+000) (122, 1.08205718994140630000e+001) (123, -2.45007485151290890000e-001) (124, -4.26943987607955930000e-001) (125, 1.01990127563476560000e+001) (126, 9.21272695064544680000e-001) (76, 8.13907206058502200000e-001) (77, 3.74829359352588650000e-002) (78, 3.06125432252883910000e-002) (79, 1.45958828926086430000e+000) (80, 1.45697556436061860000e-002) (81, 4.47626769542694090000e-001) (82, 4.96785789728164670000e-001) (83, 8.01198184490203860000e-001) (84, 3.65363359451293950000e-001) (85, 3.98331834003329280000e-003) (86, -9.08513590693473820000e-002) (87, 1.53098315000534060000e-001) (88, 5.87670326232910160000e-001) (89, -2.18009218573570250000e-001) (90, -2.58677095174789430000e-001) (91, 1.65184187889099120000e+000) (92, 3.30902412533760070000e-002) (93, -1.57580822706222530000e-001) (94, 4.75935697555541990000e-001) (95, -2.51045674085617070000e-001) (96, -2.48351871967315670000e-001) (97, -7.09128975868225100000e-002) (98, -8.05905237793922420000e-002) (99, 6.79671838879585270000e-002) (100, 7.12093055248260500000e-001) (101, 3.47042655944824220000e+000) (102, 3.13589423894882200000e-001) (103, 8.15178826451301570000e-002) (104, -5.52034899592399600000e-002) (105, -7.09196925163269040000e-001) (106, 5.02720195800065990000e-003) (107, 3.20714674890041350000e-002) (108, 5.60390233993530270000e-001) (109, 3.39150965213775630000e-001) (110, 1.96469691582024100000e-003) (111, -5.11431060731410980000e-002) (112, 3.29228401184082030000e-001) (113, -1.10205523669719700000e-002) (114, 2.19535589218139650000e+000) (115, -5.38005113601684570000e-001) (116, -7.70033001899719240000e-002) (117, 1.58656895160675050000e+000) (118, 1.20612657070159910000e+000) (119, 6.47032856941223140000e-001) (120, 7.12572515010833740000e-001) (121, 4.45039160549640660000e-002) (122, 9.29528951644897460000e-001) (123, -1.29927590489387510000e-001) (124, 2.41782993078231810000e-001) (125, -1.51082828640937810000e-001) (126, 2.48494192957878110000e-001) (127, 6.05750203132629390000e-001) (128, 1.42157709598541260000e+000) (129, 7.04391440376639370000e-003) (130, 1.82718384265899660000e+000) (131, 1.63859677314758300000e+000) (132, 2.90868058800697330000e-002) (133, 1.00091278553009030000e+000) (134, -6.74783252179622650000e-004) (135, -2.45110440254211430000e+000) (136, 2.47424387931823730000e+000) (137, -1.25311863422393800000e+000) (138, 4.15200090408325200000e+000) (139, 3.11462855339050290000e+000) (140, 1.68250184506177900000e-002) (141, 1.83787703514099120000e+000) (142, 5.25832176208496090000e-004) (143, 1.54570055007934570000e+000) (144, 3.21060347557067870000e+000) (145, 1.25202357769012450000e+000) (146, -1.27489734441041950000e-002) (147, 1.73497152328491210000e+000) (148, 2.08654496818780900000e-002) (149, 1.71154570579528810000e+000) (150, 2.07782864570617680000e+000) (151, 1.13812136650085450000e+000) (152, 8.62305819988250730000e-001) 
