FANN_FLO_2.1
num_layers=4
learning_rate=0.300000
connection_rate=1.000000
network_type=0
learning_momentum=0.000000
training_algorithm=2
train_error_function=0
train_stop_function=0
cascade_output_change_fraction=0.010000
quickprop_decay=-0.000100
quickprop_mu=1.750000
rprop_increase_factor=1.200000
rprop_decrease_factor=0.500000
rprop_delta_min=0.000000
rprop_delta_max=50.000000
rprop_delta_zero=0.100000
cascade_output_stagnation_epochs=12
cascade_candidate_change_fraction=0.010000
cascade_candidate_stagnation_epochs=12
cascade_max_out_epochs=150
cascade_min_out_epochs=50
cascade_max_cand_epochs=150
cascade_min_cand_epochs=50
cascade_num_candidate_groups=2
bit_fail_limit=3.49999994039535520000e-001
cascade_candidate_limit=1.00000000000000000000e+003
cascade_weight_multiplier=4.00000005960464480000e-001
cascade_activation_functions_count=10
cascade_activation_functions=3 5 7 8 10 11 14 15 16 17 
cascade_activation_steepnesses_count=4
cascade_activation_steepnesses=2.50000000000000000000e-001 5.00000000000000000000e-001 7.50000000000000000000e-001 1.00000000000000000000e+000 
layer_sizes=76 10 10 2 
scale_included=0
neurons (num_inputs, activation_function, activation_steepness)=(0, 0, 0.00000000000000000000e+000) (0, 0, 0.00000000000000000000e+000) (0, 0, 0.00000000000000000000e+000) (0, 0, 0.00000000000000000000e+000) (0, 0, 0.00000000000000000000e+000) (0, 0, 0.00000000000000000000e+000) (0, 0, 0.00000000000000000000e+000) (0, 0, 0.00000000000000000000e+000) (0, 0, 0.00000000000000000000e+000) (0, 0, 0.00000000000000000000e+000) (0, 0, 0.00000000000000000000e+000) (0, 0, 0.00000000000000000000e+000) (0, 0, 0.00000000000000000000e+000) (0, 0, 0.00000000000000000000e+000) (0, 0, 0.00000000000000000000e+000) (0, 0, 0.00000000000000000000e+000) (0, 0, 0.00000000000000000000e+000) (0, 0, 0.00000000000000000000e+000) (0, 0, 0.00000000000000000000e+000) (0, 0, 0.00000000000000000000e+000) (0, 0, 0.00000000000000000000e+000) (0, 0, 0.00000000000000000000e+000) (0, 0, 0.00000000000000000000e+000) (0, 0, 0.00000000000000000000e+000) (0, 0, 0.00000000000000000000e+000) (0, 0, 0.00000000000000000000e+000) (0, 0, 0.00000000000000000000e+000) (0, 0, 0.00000000000000000000e+000) (0, 0, 0.00000000000000000000e+000) (0, 0, 0.00000000000000000000e+000) (0, 0, 0.00000000000000000000e+000) (0, 0, 0.00000000000000000000e+000) (0, 0, 0.00000000000000000000e+000) (0, 0, 0.00000000000000000000e+000) (0, 0, 0.00000000000000000000e+000) (0, 0, 0.00000000000000000000e+000) (0, 0, 0.00000000000000000000e+000) (0, 0, 0.00000000000000000000e+000) (0, 0, 0.00000000000000000000e+000) (0, 0, 0.00000000000000000000e+000) (0, 0, 0.00000000000000000000e+000) (0, 0, 0.00000000000000000000e+000) (0, 0, 0.00000000000000000000e+000) (0, 0, 0.00000000000000000000e+000) (0, 0, 0.00000000000000000000e+000) (0, 0, 0.00000000000000000000e+000) (0, 0, 0.00000000000000000000e+000) (0, 0, 0.00000000000000000000e+000) (0, 0, 0.00000000000000000000e+000) (0, 0, 0.00000000000000000000e+000) (0, 0, 0.00000000000000000000e+000) (0, 0, 0.00000000000000000000e+000) (0, 0, 0.00000000000000000000e+000) (0, 0, 0.00000000000000000000e+000) (0, 0, 0.00000000000000000000e+000) (0, 0, 0.00000000000000000000e+000) (0, 0, 0.00000000000000000000e+000) (0, 0, 0.00000000000000000000e+000) (0, 0, 0.00000000000000000000e+000) (0, 0, 0.00000000000000000000e+000) (0, 0, 0.00000000000000000000e+000) (0, 0, 0.00000000000000000000e+000) (0, 0, 0.00000000000000000000e+000) (0, 0, 0.00000000000000000000e+000) (0, 0, 0.00000000000000000000e+000) (0, 0, 0.00000000000000000000e+000) (0, 0, 0.00000000000000000000e+000) (0, 0, 0.00000000000000000000e+000) (0, 0, 0.00000000000000000000e+000) (0, 0, 0.00000000000000000000e+000) (0, 0, 0.00000000000000000000e+000) (0, 0, 0.00000000000000000000e+000) (0, 0, 0.00000000000000000000e+000) (0, 0, 0.00000000000000000000e+000) (0, 0, 0.00000000000000000000e+000) (0, 0, 0.00000000000000000000e+000) (76, 5, 5.00000000000000000000e-001) (76, 5, 5.00000000000000000000e-001) (76, 5, 5.00000000000000000000e-001) (76, 5, 5.00000000000000000000e-001) (76, 5, 5.00000000000000000000e-001) (76, 5, 5.00000000000000000000e-001) (76, 5, 5.00000000000000000000e-001) (76, 5, 5.00000000000000000000e-001) (76, 5, 5.00000000000000000000e-001) (0, 5, 0.00000000000000000000e+000) (10, 5, 5.00000000000000000000e-001) (10, 5, 5.00000000000000000000e-001) (10, 5, 5.00000000000000000000e-001) (10, 5, 5.00000000000000000000e-001) (10, 5, 5.00000000000000000000e-001) (10, 5, 5.00000000000000000000e-001) (10, 5, 5.00000000000000000000e-001) (10, 5, 5.00000000000000000000e-001) (10, 5, 5.00000000000000000000e-001) (0, 5, 0.00000000000000000000e+000) (10, 0, 5.00000000000000000000e-001) (0, 0, 0.00000000000000000000e+000) 
connections (connected_to_neuron, weight)=(0, 2.23957389593124390000e-001) (1, 9.14153903722763060000e-002) (2, -5.67147359251976010000e-002) (3, 1.92283272743225100000e-001) (4, 1.59073576331138610000e-001) (5, 5.10790050029754640000e-002) (6, 2.20339462161064150000e-001) (7, 1.17423914372920990000e-001) (8, 3.20640981197357180000e-001) (9, 1.48603022098541260000e-001) (10, 6.94200024008750920000e-002) (11, -1.25592872500419620000e-001) (12, 3.20457279682159420000e-001) (13, 1.05390675365924840000e-001) (14, 6.02483898401260380000e-002) (15, 1.10195852816104890000e-001) (16, 2.23706528544425960000e-001) (17, 1.42145812511444090000e-001) (18, 2.98108849674463270000e-002) (19, 2.97860175371170040000e-001) (20, 1.65731534361839290000e-001) (21, 1.71755850315093990000e-001) (22, 2.43046596646308900000e-001) (23, -9.13660526275634770000e-002) (24, 1.97704568505287170000e-001) (25, 2.91829884052276610000e-001) (26, 1.18319205939769740000e-001) (27, 8.55899229645729060000e-002) (28, 2.92928040027618410000e-001) (29, 2.41578742861747740000e-001) (30, 1.13680936396121980000e-001) (31, 4.07945632934570310000e-001) (32, -7.04188495874404910000e-002) (33, -1.75416335463523860000e-001) (34, 1.12719759345054630000e-001) (35, -3.52753251791000370000e-001) (36, 2.33177497982978820000e-001) (37, -3.33078414201736450000e-001) (38, 3.97378988564014430000e-002) (39, -1.47059366106987000000e-001) (40, 2.64136672019958500000e-001) (41, -1.57119572162628170000e-001) (42, -7.16182142496109010000e-002) (43, 2.30443686246871950000e-001) (44, -2.66876429319381710000e-001) (45, -3.59955102205276490000e-001) (46, 3.02292674779891970000e-001) (47, 6.93426653742790220000e-002) (48, -1.06445953249931340000e-001) (49, -7.82296061515808110000e-003) (50, -1.68094877153635030000e-002) (51, -2.54127025604248050000e-001) (52, 4.96659606695175170000e-001) (53, -1.59378722310066220000e-002) (54, -1.41630426049232480000e-001) (55, 1.26275554299354550000e-001) (56, -2.76884287595748900000e-001) (57, -1.72537371516227720000e-001) (58, 1.61439239978790280000e-001) (59, 3.12536478042602540000e-001) (60, -1.16805508732795720000e-001) (61, 6.29556551575660710000e-002) (62, -1.78749840706586840000e-002) (63, -7.44218230247497560000e-002) (64, -1.37428734451532360000e-002) (65, 5.71768656373023990000e-002) (66, -3.02112042903900150000e-001) (67, 1.75552725791931150000e-001) (68, -5.87051920592784880000e-002) (69, -2.50761985778808590000e-001) (70, 5.04026301205158230000e-002) (71, 4.18614558875560760000e-002) (72, -1.43030732870101930000e-002) (73, -8.82091931998729710000e-003) (74, -1.42759740352630620000e-001) (75, -1.58673688769340520000e-001) (0, 6.99878036975860600000e-002) (1, 4.28145155310630800000e-002) (2, 2.16989908367395400000e-002) (3, 1.23769761994481090000e-002) (4, -2.00439430773258210000e-002) (5, 4.09890059381723400000e-003) (6, -1.06953494250774380000e-001) (7, -4.86879013478755950000e-002) (8, 7.23115950822830200000e-002) (9, 7.32670724391937260000e-002) (10, 7.06752166152000430000e-002) (11, -6.49912608787417410000e-003) (12, -3.81508795544505120000e-003) (13, 1.93355418741703030000e-002) (14, -2.71414164453744890000e-002) (15, 6.62980899214744570000e-002) (16, 1.42270758748054500000e-001) (17, 1.87386684119701390000e-002) (18, 2.08766177296638490000e-001) (19, 8.09412151575088500000e-002) (20, -5.97093291580677030000e-002) (21, 1.73213556408882140000e-001) (22, -9.99261364340782170000e-002) (23, 1.44625902175903320000e-001) (24, 4.91945594549179080000e-002) (25, 1.10930316150188450000e-001) (26, 7.38583207130432130000e-002) (27, 5.79366169404238460000e-004) (28, 3.59934382140636440000e-002) (29, 1.47064812481403350000e-002) (30, -5.63347712159156800000e-002) (31, 1.67216002941131590000e-001) (32, -7.59584829211235050000e-002) (33, -1.08175687491893770000e-001) (34, 9.95887741446495060000e-002) (35, 6.42351284623146060000e-002) (36, -1.81469451636075970000e-002) (37, -4.24329340457916260000e-001) (38, -4.52319651842117310000e-001) (39, -1.25614240765571590000e-001) (40, 2.80018597841262820000e-002) (41, -2.11282327771186830000e-001) (42, 4.36745993793010710000e-002) (43, 6.19611628353595730000e-002) (44, 6.60993233323097230000e-002) (45, -1.70062586665153500000e-001) (46, 3.74710075557231900000e-002) (47, 5.03920130431652070000e-002) (48, -4.29593585431575780000e-002) (49, 4.40025813877582550000e-002) (50, -5.09703010320663450000e-002) (51, -9.64135602116584780000e-002) (52, 1.98237560689449310000e-002) (53, 9.78652983903884890000e-002) (54, 9.23416763544082640000e-003) (55, -1.62938740104436870000e-002) (56, 1.13386914134025570000e-001) (57, -6.69743493199348450000e-002) (58, 7.16202259063720700000e-002) (59, 1.21708915685303510000e-004) (60, 3.02533954381942750000e-002) (61, -2.18248609453439710000e-002) (62, -4.88863401114940640000e-002) (63, -3.87615934014320370000e-002) (64, 3.08245178312063220000e-002) (65, 1.07748158276081090000e-001) (66, -4.78623285889625550000e-002) (67, 3.87111976742744450000e-002) (68, 5.33015429973602290000e-002) (69, 2.17082593590021130000e-002) (70, -1.25479353591799740000e-002) (71, -1.99772473424673080000e-002) (72, -6.60438165068626400000e-002) (73, 1.56241692602634430000e-002) (74, -7.09184817969799040000e-003) (75, 2.69359767436981200000e-001) (0, 2.31040883064270020000e+000) (1, -1.17419185638427730000e+001) (2, -1.79014825820922850000e+000) (3, 2.37364864349365230000e+000) (4, 9.05440307617187500000e+002) (5, 2.33432067871093750000e+002) (6, -2.86111927032470700000e+000) (7, 9.02701782226562500000e+002) (8, 2.22351608276367190000e+002) (9, 1.77592957019805910000e+000) (10, 1.23209118843078610000e+000) (11, -1.15090799331665040000e+000) (12, 1.49071340560913090000e+001) (13, 2.02755340576171870000e+002) (14, -1.68378372192382810000e+001) (15, 2.51590967178344730000e+000) (16, 1.21670570373535160000e+002) (17, -1.01566705322265620000e+003) (18, 9.06647980213165280000e-001) (19, 1.69379287719726560000e+002) (20, -3.72499450683593750000e+002) (21, 3.09894013404846190000e+000) (22, -9.93907653808593750000e+002) (23, -1.29371536254882810000e+002) (24, 5.75592160224914550000e-001) (25, 7.80200988769531250000e+002) (26, -7.37790374755859370000e+001) (27, 1.34989514160156250000e+003) (28, -1.35507751464843750000e+003) (29, -1.49247985839843750000e+003) (30, 1.37180352210998540000e+000) (31, -7.80963562011718750000e+002) (32, -1.43365490722656250000e+003) (33, 2.06364955902099610000e+001) (34, 3.27280731201171870000e+002) (35, -1.50000000000000000000e+003) (36, -3.41751098632812500000e+002) (37, -1.47818334960937500000e+003) (38, -1.50000000000000000000e+003) (39, 1.72810401916503910000e+001) (40, 2.38755691528320310000e+002) (41, -1.49005456542968750000e+003) (42, 6.36654794216156010000e-001) (43, -1.15244812011718750000e+003) (44, -1.46655212402343750000e+003) (45, -6.15971148014068600000e-001) (46, -4.81347513198852540000e+000) (47, -1.85255165100097660000e+001) (48, 9.88177204132080080000e+000) (49, -4.45099212646484370000e+002) (50, -1.38542687988281250000e+003) (51, -3.89361190795898440000e+001) (52, 4.22651916503906250000e+002) (53, -1.40627575683593750000e+003) (54, -1.14084386825561520000e+001) (55, 3.76819854736328120000e+002) (56, -1.44311718750000000000e+003) (57, 1.57970161437988280000e+001) (58, 1.47668981933593750000e+003) (59, -1.49232580566406250000e+003) (60, 1.41753101348876950000e+000) (61, 7.80261962890625000000e+002) (62, 1.49804528808593750000e+003) (63, 1.48837649822235110000e+000) (64, -4.20315475463867190000e+001) (65, 1.31047534179687500000e+003) (66, -5.14901161193847660000e+001) (67, 1.31178735351562500000e+003) (68, -1.45494921875000000000e+003) (69, -6.18737426757812500000e+002) (70, 7.20331848144531250000e+002) (71, 1.48375305175781250000e+003) (72, -9.34455752372741700000e-001) (73, 1.68956771850585940000e+002) (74, 1.07621960449218750000e+003) (75, 9.30804443359375000000e+002) (0, -1.11018382012844090000e-001) (1, -3.53507213294506070000e-002) (2, -3.00387386232614520000e-002) (3, -1.43531516194343570000e-001) (4, -8.16186740994453430000e-002) (5, -5.81712462007999420000e-002) (6, 1.81461438536643980000e-001) (7, 1.16082005202770230000e-001) (8, -9.93633568286895750000e-002) (9, -2.99140632152557370000e-001) (10, -2.11075112223625180000e-001) (11, 2.51033622771501540000e-003) (12, -1.25599831342697140000e-001) (13, -7.61035904288291930000e-002) (14, 7.30619728565216060000e-002) (15, -2.83904939889907840000e-001) (16, -2.81221061944961550000e-001) (17, -3.07578351348638530000e-002) (18, -2.38441064953804020000e-001) (19, -2.34653249382972720000e-001) (20, -5.84296584129333500000e-002) (21, 1.19836494326591490000e-001) (22, 3.33177626132965090000e-001) (23, -8.84026139974594120000e-002) (24, -6.81927800178527830000e-002) (25, -3.75529736280441280000e-001) (26, -1.66458711028099060000e-001) (27, -6.88860192894935610000e-002) (28, -2.29776605963706970000e-001) (29, -1.67174652218818660000e-001) (30, 3.63347977399826050000e-002) (31, -4.36403900384902950000e-001) (32, 1.46837159991264340000e-001) (33, 1.07472516596317290000e-001) (34, -2.72368580102920530000e-001) (35, 3.26574519276618960000e-002) (36, 2.03559145331382750000e-001) (37, 1.16707122325897220000e+000) (38, 5.57080924510955810000e-001) (39, 9.22289565205574040000e-002) (40, -3.55412393808364870000e-001) (41, 3.64121615886688230000e-001) (42, 1.50170519948005680000e-001) (43, -1.09012737870216370000e-001) (44, 6.34774789214134220000e-002) (45, 3.33615124225616460000e-001) (46, -1.98069468140602110000e-001) (47, -7.69081786274909970000e-002) (48, 2.58505702018737790000e-001) (49, -1.04097492992877960000e-001) (50, -2.97831632196903230000e-002) (51, 5.04236638545989990000e-001) (52, -3.31753402948379520000e-001) (53, 4.05403319746255870000e-003) (54, 2.40518391132354740000e-001) (55, -1.73403725028038020000e-001) (56, -1.08408778905868530000e-001) (57, 9.47629511356353760000e-002) (58, -6.85789883136749270000e-002) (59, -3.65828908979892730000e-002) (60, 5.13691082596778870000e-002) (61, -2.62475516647100450000e-002) (62, 5.91807253658771510000e-002) (63, 6.21514320373535160000e-002) (64, -4.68094274401664730000e-002) (65, -1.61324635148048400000e-001) (66, 2.51009702682495120000e-001) (67, -1.50130629539489750000e-001) (68, -1.38029322028160100000e-001) (69, 9.15328860282897950000e-002) (70, -1.70481968671083450000e-002) (71, 1.00418608635663990000e-002) (72, 1.66137609630823140000e-002) (73, 1.79788712412118910000e-002) (74, -3.32320295274257660000e-002) (75, -2.63522553443908690000e+000) (0, -1.50000000000000000000e+003) (1, 1.50000000000000000000e+003) (2, -1.50000000000000000000e+003) (3, -1.50000000000000000000e+003) (4, 1.47119409179687500000e+003) (5, -1.50000000000000000000e+003) (6, -1.50000000000000000000e+003) (7, 1.50000000000000000000e+003) (8, -1.50000000000000000000e+003) (9, 4.76772308349609380000e+001) (10, 1.50000000000000000000e+003) (11, -1.50000000000000000000e+003) (12, -2.62340728759765620000e+002) (13, 1.50000000000000000000e+003) (14, 4.72685638427734370000e+002) (15, -4.11979255676269530000e+001) (16, 8.95721923828125000000e+002) (17, -1.50000000000000000000e+003) (18, -1.50000000000000000000e+003) (19, -1.31166137695312500000e+003) (20, -1.50000000000000000000e+003) (21, -1.50000000000000000000e+003) (22, -1.50000000000000000000e+003) (23, -1.50000000000000000000e+003) (24, -1.50000000000000000000e+003) (25, 1.50000000000000000000e+003) (26, 3.14302215576171870000e+002) (27, -1.50000000000000000000e+003) (28, 1.50000000000000000000e+003) (29, 1.50000000000000000000e+003) (30, 1.21795935058593750000e+003) (31, -1.50000000000000000000e+003) (32, -7.35582885742187500000e+002) (33, -1.50000000000000000000e+003) (34, 1.50000000000000000000e+003) (35, -1.50000000000000000000e+003) (36, -1.50000000000000000000e+003) (37, 1.50000000000000000000e+003) (38, 1.49324304199218750000e+003) (39, -1.50000000000000000000e+003) (40, 1.50000000000000000000e+003) (41, 1.50000000000000000000e+003) (42, -1.50000000000000000000e+003) (43, -1.50000000000000000000e+003) (44, 1.50000000000000000000e+003) (45, -1.50000000000000000000e+003) (46, 1.50000000000000000000e+003) (47, 1.50000000000000000000e+003) (48, -1.33376452636718750000e+003) (49, 1.07496105957031250000e+003) (50, 1.50000000000000000000e+003) (51, 1.25715527343750000000e+003) (52, -1.50000000000000000000e+003) (53, 1.50000000000000000000e+003) (54, -1.50000000000000000000e+003) (55, 1.50000000000000000000e+003) (56, 1.50000000000000000000e+003) (57, -1.50000000000000000000e+003) (58, -1.47684472656250000000e+003) (59, 1.50000000000000000000e+003) (60, -1.50000000000000000000e+003) (61, 1.42128271484375000000e+003) (62, 1.50000000000000000000e+003) (63, -1.50000000000000000000e+003) (64, -1.50000000000000000000e+003) (65, 1.50000000000000000000e+003) (66, 4.04499908447265620000e+002) (67, 9.98746765136718750000e+002) (68, 1.50000000000000000000e+003) (69, 1.49995971679687500000e+003) (70, -8.90697204589843750000e+002) (71, 1.50000000000000000000e+003) (72, -1.50000000000000000000e+003) (73, -4.47419090270996090000e+001) (74, 1.50000000000000000000e+003) (75, -1.49984460449218750000e+003) (0, 1.50000000000000000000e+003) (1, 1.50000000000000000000e+003) (2, -5.76397277832031250000e+002) (3, -1.48878637695312500000e+003) (4, -1.10263354492187500000e+003) (5, -1.50000000000000000000e+003) (6, -1.49999780273437500000e+003) (7, -1.07147204589843750000e+003) (8, 6.57107116699218750000e+002) (9, -1.49999353027343750000e+003) (10, 1.50000000000000000000e+003) (11, -1.50000000000000000000e+003) (12, -5.52937683105468750000e+002) (13, 1.50000000000000000000e+003) (14, -1.50000000000000000000e+003) (15, 1.50000000000000000000e+003) (16, -1.50000000000000000000e+003) (17, -1.23913024902343750000e+003) (18, 1.50000000000000000000e+003) (19, 1.50000000000000000000e+003) (20, -1.23373034667968750000e+003) (21, -8.83131042480468750000e+002) (22, -1.50000000000000000000e+003) (23, 1.50000000000000000000e+003) (24, 9.14528686523437500000e+002) (25, 1.50000000000000000000e+003) (26, 1.50000000000000000000e+003) (27, 1.50000000000000000000e+003) (28, 1.50000000000000000000e+003) (29, -5.17775207519531250000e+002) (30, 1.50000000000000000000e+003) (31, -1.15174865722656250000e+003) (32, 9.15656677246093750000e+002) (33, -2.34289428710937500000e+002) (34, -4.49518707275390620000e+002) (35, 1.50000000000000000000e+003) (36, 1.49735137939453120000e+002) (37, 1.50000000000000000000e+003) (38, 1.50000000000000000000e+003) (39, 1.50000000000000000000e+003) (40, 1.42821179199218750000e+003) (41, 1.50000000000000000000e+003) (42, 1.50000000000000000000e+003) (43, -1.50000000000000000000e+003) (44, 1.50000000000000000000e+003) (45, 1.50000000000000000000e+003) (46, 1.39551782226562500000e+003) (47, 2.68552322387695310000e+001) (48, 1.50000000000000000000e+003) (49, -9.74073852539062500000e+002) (50, 1.50000000000000000000e+003) (51, 1.50000000000000000000e+003) (52, -9.84892028808593750000e+002) (53, 9.08366271972656250000e+002) (54, 1.50000000000000000000e+003) (55, -1.50000000000000000000e+003) (56, -1.50000000000000000000e+003) (57, 1.50000000000000000000e+003) (58, -1.50000000000000000000e+003) (59, 1.50000000000000000000e+003) (60, 1.50000000000000000000e+003) (61, 1.50000000000000000000e+003) (62, -1.15987442016601560000e+002) (63, 1.50000000000000000000e+003) (64, 8.77952209472656250000e+002) (65, -1.50000000000000000000e+003) (66, 1.50000000000000000000e+003) (67, -1.50000000000000000000e+003) (68, -1.50000000000000000000e+003) (69, -1.45677624511718750000e+003) (70, -1.50000000000000000000e+003) (71, 3.42483642578125000000e+002) (72, 7.80971374511718750000e+002) (73, -7.96567626953125000000e+002) (74, -1.50000000000000000000e+003) (75, 1.50000000000000000000e+003) (0, 7.78611227869987490000e-002) (1, 6.42405962571501730000e-003) (2, -4.18564639985561370000e-002) (3, 1.08591198921203610000e-001) (4, 7.51769691705703740000e-002) (5, -1.91575847566127780000e-002) (6, 2.99231439828872680000e-001) (7, 7.54686892032623290000e-002) (8, 1.24590896070003510000e-001) (9, 1.22680447995662690000e-001) (10, 5.39290532469749450000e-002) (11, -5.35810030996799470000e-002) (12, 1.34441792964935300000e-001) (13, 6.25421330332756040000e-002) (14, 5.40311299264431000000e-002) (15, 2.91768640279769900000e-001) (16, 1.92584037780761720000e-001) (17, 5.55745186284184460000e-003) (18, -3.74769903719425200000e-002) (19, 6.37765228748321530000e-002) (20, -6.30341991782188420000e-002) (21, 1.29336214065551760000e+000) (22, 6.70719802379608150000e-001) (23, 3.37238729000091550000e-001) (24, 1.90460056066513060000e-001) (25, 1.96570247411727910000e-001) (26, 1.43199041485786440000e-001) (27, 1.24532505869865420000e-001) (28, 2.14758172631263730000e-001) (29, -6.51568025350570680000e-002) (30, 1.29521265625953670000e-001) (31, 4.31446522474288940000e-001) (32, 4.55971527844667430000e-003) (33, 3.14029268920421600000e-002) (34, -1.83003768324851990000e-002) (35, 2.39589028060436250000e-002) (36, -3.30093353986740110000e-002) (37, -2.22796335816383360000e-001) (38, -4.74398076534271240000e-001) (39, -2.88890302181243900000e-002) (40, 2.74392962455749510000e-001) (41, -1.32684841752052310000e-001) (42, -1.03545505553483960000e-002) (43, 2.58008003234863280000e-001) (44, -2.31790766119956970000e-002) (45, -3.50149303674697880000e-001) (46, 3.15754443407058720000e-001) (47, 1.74893215298652650000e-001) (48, 1.58698126673698430000e-001) (49, 6.41600266098976140000e-002) (50, -1.13666146993637080000e-001) (51, -1.12357109785079960000e-001) (52, -1.52458682656288150000e-001) (53, 1.04105621576309200000e-001) (54, -1.62353575229644780000e-001) (55, 1.23574741184711460000e-001) (56, 2.19317767769098280000e-002) (57, -1.92882325500249860000e-002) (58, 2.85536408424377440000e-001) (59, 4.17705737054347990000e-002) (60, -1.67659714818000790000e-001) (61, 3.23439650237560270000e-002) (62, -1.38768687844276430000e-001) (63, -4.74037602543830870000e-002) (64, 1.02016352117061610000e-001) (65, 1.44185587763786320000e-001) (66, 1.32038965821266170000e-001) (67, -1.18216380476951600000e-001) (68, 2.61270143091678620000e-002) (69, -1.56864318996667860000e-002) (70, 1.35867064818739890000e-002) (71, -1.17686465382575990000e-002) (72, -2.96423345804214480000e-001) (73, 1.34400889277458190000e-001) (74, -3.54733914136886600000e-002) (75, -1.56160032749176030000e+000) (0, 2.28729005903005600000e-002) (1, -4.08812351524829860000e-002) (2, -2.52856109291315080000e-002) (3, 6.37871101498603820000e-002) (4, 1.14738322794437410000e-001) (5, 4.31324206292629240000e-002) (6, 2.69178152084350590000e-001) (7, 4.22371104359626770000e-002) (8, -1.23967498540878300000e-001) (9, 1.23817026615142820000e-001) (10, -2.37688235938549040000e-002) (11, 9.95227918028831480000e-002) (12, 1.97968967258930210000e-002) (13, -2.00016889721155170000e-002) (14, -3.35603719577193260000e-004) (15, 2.10051760077476500000e-002) (16, -3.98298613727092740000e-002) (17, -1.28783687949180600000e-001) (18, -3.03610175848007200000e-001) (19, -4.62316349148750310000e-002) (20, 1.77623987197875980000e-001) (21, 3.63326907157897950000e-001) (22, 3.30236762762069700000e-001) (23, -3.82975600659847260000e-002) (24, 2.09297388792037960000e-001) (25, 1.90160304307937620000e-001) (26, -1.14023974165320400000e-002) (27, 1.00885748863220210000e-001) (28, 3.15163806080818180000e-002) (29, -1.05345979332923890000e-001) (30, 3.93975302577018740000e-002) (31, -7.98166766762733460000e-002) (32, 1.62898138165473940000e-001) (33, 1.64131402969360350000e-001) (34, -1.06343209743499760000e-001) (35, -2.63987749814987180000e-001) (36, -9.00737121701240540000e-002) (37, 1.98811218142509460000e-001) (38, -3.70420073159039020000e-003) (39, -2.33117237687110900000e-001) (40, 2.14513942599296570000e-001) (41, 2.04394504427909850000e-001) (42, 4.24191020429134370000e-002) (43, 7.17204660177230830000e-002) (44, -1.94058403372764590000e-001) (45, 2.11721107363700870000e-001) (46, 1.99109502136707310000e-002) (47, -7.84382876008749010000e-003) (48, -6.70417249202728270000e-002) (49, -3.89291420578956600000e-002) (50, 2.60104805231094360000e-001) (51, -8.13116669654846190000e-001) (52, 1.95437192916870120000e-001) (53, 2.89457645267248150000e-002) (54, -2.34232433140277860000e-002) (55, 8.76782611012458800000e-002) (56, -4.60355803370475770000e-002) (57, 1.38584479689598080000e-001) (58, 1.39095231890678410000e-001) (59, -6.39503598213195800000e-002) (60, -9.94366556406021120000e-002) (61, 4.05671447515487670000e-002) (62, -1.51503179222345350000e-002) (63, 1.31146192550659180000e-001) (64, -1.59027185291051860000e-002) (65, -5.23179024457931520000e-002) (66, -4.51502346550114450000e-005) (67, -1.24055147171020510000e-001) (68, 1.15517564117908480000e-001) (69, -8.47414806485176090000e-002) (70, 7.65833780169487000000e-002) (71, 9.50346291065216060000e-002) (72, -1.01752087473869320000e-001) (73, 7.94696733355522160000e-002) (74, 6.90027996897697450000e-002) (75, 3.42594057321548460000e-001) (0, -1.43821209669113160000e-001) (1, -6.85962960124015810000e-002) (2, -3.11354938894510270000e-002) (3, -6.00213333964347840000e-002) (4, -5.48764318227767940000e-002) (5, -2.63452902436256410000e-002) (6, 7.48240724205970760000e-002) (7, 4.06956560909748080000e-002) (8, -1.28167912364006040000e-001) (9, -1.86856374144554140000e-001) (10, -1.11610449850559230000e-001) (11, 1.04699041694402690000e-002) (12, -9.33140888810157780000e-002) (13, -5.82269467413425450000e-002) (14, 5.35822920501232150000e-002) (15, -1.21639661490917210000e-001) (16, -2.20150932669639590000e-001) (17, 7.31271645054221150000e-003) (18, -2.23614558577537540000e-001) (19, -2.13030949234962460000e-001) (20, -3.79995591938495640000e-002) (21, 1.97288841009140010000e-001) (22, 2.23085880279541020000e-001) (23, -4.47092279791831970000e-002) (24, -2.27271720767021180000e-001) (25, -3.29456299543380740000e-001) (26, -8.19305554032325740000e-002) (27, -2.61354949325323100000e-002) (28, -1.30659952759742740000e-001) (29, -8.69358181953430180000e-002) (30, 5.54138869047164920000e-002) (31, -2.46024787425994870000e-001) (32, 8.90745222568511960000e-002) (33, 3.17451119422912600000e-001) (34, -1.53471291065216060000e-001) (35, 9.67344865202903750000e-002) (36, 7.74841681122779850000e-002) (37, 7.60040163993835450000e-001) (38, 6.40824079513549800000e-001) (39, 4.36657339334487920000e-001) (40, -1.70555531978607180000e-001) (41, 2.25284785032272340000e-001) (42, -3.21841277182102200000e-002) (43, -1.12386628985404970000e-001) (44, 7.43346065282821660000e-002) (45, 2.02630758285522460000e-001) (46, -8.91042128205299380000e-002) (47, -3.47519144415855410000e-002) (48, 2.73111283779144290000e-001) (49, 7.42321908473968510000e-002) (50, -1.07333004474639890000e-001) (51, 6.93749785423278810000e-001) (52, -4.04110938310623170000e-001) (53, -1.66914805769920350000e-001) (54, 2.39658299833536150000e-002) (55, 1.39109855517745020000e-002) (56, -8.95911306142807010000e-002) (57, 6.98470100760459900000e-002) (58, -1.27582967281341550000e-001) (59, -7.65747949481010440000e-002) (60, 1.73249002546072010000e-002) (61, -6.03893864899873730000e-003) (62, 3.52046005427837370000e-002) (63, -1.16328254342079160000e-001) (64, 5.76217509806156160000e-002) (65, -1.29038661718368530000e-001) (66, 2.96118021011352540000e-001) (67, -1.32600307464599610000e-001) (68, -9.59076061844825740000e-002) (69, 4.27922606468200680000e-002) (70, -8.29930789768695830000e-003) (71, -7.11948573589324950000e-002) (72, 7.60741606354713440000e-002) (73, -1.77006423473358150000e-002) (74, 4.36115860939025880000e-002) (75, -7.82749652862548830000e-002) (76, 2.48432651162147520000e-001) (77, 6.79287016391754150000e-001) (78, 3.07963252067565920000e-001) (79, 2.49861031770706180000e-001) (80, 1.36576704680919650000e-002) (81, 7.12678283452987670000e-002) (82, -4.87306416034698490000e-001) (83, 3.65568161010742190000e-001) (84, 7.19129204750061040000e-001) (85, -4.01866473257541660000e-002) (76, 4.93540477752685550000e+000) (77, 1.14023113250732420000e+001) (78, 7.15939283370971680000e+000) (79, 4.95556688308715820000e+000) (80, 2.20753978937864300000e-002) (81, 4.69179958105087280000e-001) (82, -3.77974438667297360000e+000) (83, 3.22064614295959470000e+000) (84, 2.54330563545227050000e+000) (85, 2.76258349418640140000e-001) (76, -4.54678654670715330000e-001) (77, -1.11572432518005370000e+000) (78, 2.60717403143644330000e-002) (79, -1.39843985438346860000e-001) (80, 5.85739672183990480000e-001) (81, 3.62998336553573610000e-001) (82, 3.30931633710861210000e-001) (83, 6.14843368530273440000e-001) (84, -2.41017147898674010000e-001) (85, 2.24749490618705750000e-001) (76, -4.41464394330978390000e-001) (77, -6.02254569530487060000e-001) (78, 2.41540908813476560000e-001) (79, 1.25116869807243350000e-001) (80, 8.41370165348052980000e-001) (81, 4.04879510402679440000e-001) (82, 3.75225216150283810000e-001) (83, 1.04952014982700350000e-001) (84, -3.17664206027984620000e-001) (85, 2.57128864526748660000e-001) (76, -2.57460884749889370000e-002) (77, 6.24300777912139890000e-001) (78, 7.52822220325469970000e-001) (79, 2.51804366707801820000e-002) (80, -5.53345903754234310000e-002) (81, 3.69159579277038570000e-001) (82, 2.59177163243293760000e-002) (83, 1.83833375573158260000e-001) (84, 7.30203911662101750000e-002) (85, -4.78413522243499760000e-001) (76, -1.13779999315738680000e-001) (77, -1.09122562408447270000e+000) (78, 1.56372576951980590000e-001) (79, -2.95652002096176150000e-001) (80, 2.89858102798461910000e-001) (81, 3.48955661058425900000e-001) (82, 3.79164010286331180000e-001) (83, 8.85854288935661320000e-002) (84, -2.30824023485183720000e-001) (85, 8.62996354699134830000e-002) (76, 5.91100096702575680000e-001) (77, 6.55762076377868650000e-001) (78, -2.31809299439191820000e-002) (79, 6.97615921497344970000e-001) (80, 3.85854363441467290000e-001) (81, -2.10818976163864140000e-001) (82, -5.12129545211791990000e-001) (83, 5.50101995468139650000e-001) (84, 7.00595080852508540000e-001) (85, 1.98757067322731020000e-001) (76, 4.64507997035980220000e-001) (77, -1.09848570823669430000e+000) (78, 1.05897136032581330000e-001) (79, 3.34051027894020080000e-002) (80, -2.81938910484313960000e-001) (81, 1.17065347731113430000e-001) (82, 1.80561110377311710000e-001) (83, -2.70682066679000850000e-001) (84, -3.49236391484737400000e-002) (85, -3.10551106929779050000e-001) (76, -3.67508149147033690000e+000) (77, -1.03033695220947270000e+001) (78, 8.19096183776855470000e+000) (79, -3.15819907188415530000e+000) (80, 1.02175466716289520000e-001) (81, 1.23765639960765840000e-001) (82, 2.13863205909729000000e+000) (83, -2.68386840820312500000e+000) (84, -2.02766537666320800000e+000) (85, -2.27829858660697940000e-001) (86, 2.43717169761657710000e+000) (87, 5.28898954391479490000e+000) (88, -8.98609936237335210000e-001) (89, -7.12851464748382570000e-001) (90, 6.55147075653076170000e+000) (91, -1.96446490287780760000e+000) (92, 3.78171634674072270000e+000) (93, -2.35232734680175780000e+000) (94, -7.58544588088989260000e+000) (95, 3.45161706209182740000e-002) 
