FANN_FLO_2.1
num_layers=3
learning_rate=0.300000
connection_rate=1.000000
network_type=0
learning_momentum=0.000000
training_algorithm=2
train_error_function=0
train_stop_function=0
cascade_output_change_fraction=0.010000
quickprop_decay=-0.000100
quickprop_mu=1.750000
rprop_increase_factor=1.200000
rprop_decrease_factor=0.500000
rprop_delta_min=0.000000
rprop_delta_max=50.000000
rprop_delta_zero=0.100000
cascade_output_stagnation_epochs=12
cascade_candidate_change_fraction=0.010000
cascade_candidate_stagnation_epochs=12
cascade_max_out_epochs=150
cascade_min_out_epochs=50
cascade_max_cand_epochs=150
cascade_min_cand_epochs=50
cascade_num_candidate_groups=2
bit_fail_limit=3.49999994039535520000e-001
cascade_candidate_limit=1.00000000000000000000e+003
cascade_weight_multiplier=4.00000005960464480000e-001
cascade_activation_functions_count=10
cascade_activation_functions=3 5 7 8 10 11 14 15 16 17 
cascade_activation_steepnesses_count=4
cascade_activation_steepnesses=2.50000000000000000000e-001 5.00000000000000000000e-001 7.50000000000000000000e-001 1.00000000000000000000e+000 
layer_sizes=28 19 2 
scale_included=0
neurons (num_inputs, activation_function, activation_steepness)=(0, 0, 0.00000000000000000000e+000) (0, 0, 0.00000000000000000000e+000) (0, 0, 0.00000000000000000000e+000) (0, 0, 0.00000000000000000000e+000) (0, 0, 0.00000000000000000000e+000) (0, 0, 0.00000000000000000000e+000) (0, 0, 0.00000000000000000000e+000) (0, 0, 0.00000000000000000000e+000) (0, 0, 0.00000000000000000000e+000) (0, 0, 0.00000000000000000000e+000) (0, 0, 0.00000000000000000000e+000) (0, 0, 0.00000000000000000000e+000) (0, 0, 0.00000000000000000000e+000) (0, 0, 0.00000000000000000000e+000) (0, 0, 0.00000000000000000000e+000) (0, 0, 0.00000000000000000000e+000) (0, 0, 0.00000000000000000000e+000) (0, 0, 0.00000000000000000000e+000) (0, 0, 0.00000000000000000000e+000) (0, 0, 0.00000000000000000000e+000) (0, 0, 0.00000000000000000000e+000) (0, 0, 0.00000000000000000000e+000) (0, 0, 0.00000000000000000000e+000) (0, 0, 0.00000000000000000000e+000) (0, 0, 0.00000000000000000000e+000) (0, 0, 0.00000000000000000000e+000) (0, 0, 0.00000000000000000000e+000) (0, 0, 0.00000000000000000000e+000) (28, 5, 5.00000000000000000000e-001) (28, 5, 5.00000000000000000000e-001) (28, 5, 5.00000000000000000000e-001) (28, 5, 5.00000000000000000000e-001) (28, 5, 5.00000000000000000000e-001) (28, 5, 5.00000000000000000000e-001) (28, 5, 5.00000000000000000000e-001) (28, 5, 5.00000000000000000000e-001) (28, 5, 5.00000000000000000000e-001) (28, 5, 5.00000000000000000000e-001) (28, 5, 5.00000000000000000000e-001) (28, 5, 5.00000000000000000000e-001) (28, 5, 5.00000000000000000000e-001) (28, 5, 5.00000000000000000000e-001) (28, 5, 5.00000000000000000000e-001) (28, 5, 5.00000000000000000000e-001) (28, 5, 5.00000000000000000000e-001) (28, 5, 5.00000000000000000000e-001) (0, 5, 0.00000000000000000000e+000) (19, 0, 5.00000000000000000000e-001) (0, 0, 0.00000000000000000000e+000) 
connections (connected_to_neuron, weight)=(0, 1.73810452222824100000e-001) (1, 1.44186928868293760000e-001) (2, -6.81975558400154110000e-002) (3, -3.01347315311431880000e-001) (4, 5.94483539462089540000e-002) (5, -3.66783179342746730000e-002) (6, -2.32695475220680240000e-001) (7, -8.64496454596519470000e-002) (8, -1.49431496858596800000e-001) (9, 1.19477309286594390000e-001) (10, -2.10787914693355560000e-002) (11, -1.06876961886882780000e-001) (12, -2.32286915183067320000e-001) (13, 2.78371781110763550000e-001) (14, 2.40971967577934270000e-002) (15, 2.15264514088630680000e-001) (16, -7.25027471780776980000e-002) (17, 7.81834125518798830000e-002) (18, -4.79864366352558140000e-002) (19, 2.86645274609327320000e-002) (20, 2.62884683907032010000e-002) (21, -7.67148807644844060000e-002) (22, 1.61402240395545960000e-001) (23, 2.30171188712120060000e-001) (24, 7.27152973413467410000e-002) (25, 4.45001050829887390000e-002) (26, 8.70964825153350830000e-002) (27, -4.29902747273445130000e-002) (0, 2.58301142603158950000e-002) (1, 1.31592094898223880000e-001) (2, 7.65908434987068180000e-002) (3, -4.91197496652603150000e-001) (4, 4.87588703632354740000e-001) (5, -1.61774024367332460000e-001) (6, -1.38550862669944760000e-001) (7, 1.02591522037982940000e-001) (8, -2.06743031740188600000e-001) (9, 4.31142235174775120000e-003) (10, 2.75431126356124880000e-001) (11, 1.24787554144859310000e-001) (12, 2.77341585606336590000e-002) (13, 9.37575042247772220000e-001) (14, 2.27994546294212340000e-001) (15, -5.29315024614334110000e-002) (16, 3.22883903980255130000e-001) (17, 3.00613254308700560000e-001) (18, 9.07625444233417510000e-003) (19, 1.09173886477947240000e-001) (20, 9.60955172777175900000e-002) (21, -2.15189874172210690000e-001) (22, 3.31496715545654300000e-001) (23, 1.15975245833396910000e-001) (24, -4.77943159639835360000e-002) (25, 1.05007663369178770000e-001) (26, -5.92466950416564940000e-001) (27, 6.33424162864685060000e-001) (0, 2.53170907497406010000e-001) (1, 1.47145688533782960000e-001) (2, 1.69261276721954350000e-001) (3, 2.53770023584365840000e-001) (4, 4.88918274641036990000e-001) (5, 1.25128078460693360000e+000) (6, 2.44991093873977660000e-001) (7, 1.15488566458225250000e-001) (8, 5.97297370433807370000e-001) (9, 3.90133827924728390000e-001) (10, 6.91109240055084230000e-001) (11, 1.94250285625457760000e-001) (12, 4.29021120071411130000e-001) (13, 3.00333827733993530000e-001) (14, -8.92205059528350830000e-001) (15, 3.05541604757308960000e-001) (16, 3.22388231754302980000e-001) (17, -3.14641028642654420000e-001) (18, 6.55757308006286620000e-001) (19, 2.37885527312755580000e-002) (20, -3.83073747158050540000e-001) (21, 5.19785165786743160000e-001) (22, 1.20488449931144710000e-001) (23, -1.38418614864349370000e-001) (24, 1.86669349670410160000e-001) (25, -7.55727738142013550000e-002) (26, -3.83965730667114260000e-001) (27, 3.09450447559356690000e-001) (0, -7.27896252647042270000e-003) (1, -1.59449428319931030000e-002) (2, 2.65113562345504760000e-001) (3, 1.45002752542495730000e-002) (4, -6.95894509553909300000e-002) (5, 8.39275270700454710000e-002) (6, 2.61718422174453740000e-001) (7, 1.67297869920730590000e-001) (8, 1.67998120188713070000e-001) (9, -4.76106032729148860000e-002) (10, -1.01217038929462430000e-001) (11, -1.24555356800556180000e-001) (12, 1.75503432750701900000e-001) (13, -4.08566474914550780000e-001) (14, -6.21699273586273190000e-001) (15, -1.02653607726097110000e-001) (16, 2.22313687205314640000e-001) (17, -1.27337817102670670000e-002) (18, 1.73326507210731510000e-001) (19, -2.38655833527445790000e-003) (20, 1.79678946733474730000e-001) (21, -1.66121304035186770000e-001) (22, -8.45925733447074890000e-002) (23, -1.85075998306274410000e-002) (24, -8.09270888566970830000e-002) (25, 1.37461856007575990000e-001) (26, 1.72737538814544680000e-001) (27, -3.26199024915695190000e-001) (0, 1.13733738660812380000e-001) (1, 1.27200841903686520000e-001) (2, 1.84268355369567870000e-002) (3, -1.30031540989875790000e-001) (4, 1.92352578043937680000e-001) (5, -3.05254817008972170000e-001) (6, 9.15896054357290270000e-003) (7, 1.62486597895622250000e-001) (8, 9.14982557296752930000e-002) (9, 2.20330819487571720000e-001) (10, 1.89269170165061950000e-001) (11, 3.13377082347869870000e-001) (12, 6.12626550719141960000e-003) (13, 3.61902892589569090000e-001) (14, -1.08658060431480410000e-001) (15, -4.18921373784542080000e-002) (16, 1.17030605673789980000e-001) (17, 3.03281635046005250000e-001) (18, 1.22052960097789760000e-001) (19, 2.56030619144439700000e-001) (20, 5.61681762337684630000e-002) (21, -9.21728014945983890000e-002) (22, 2.37064480781555180000e-001) (23, 3.25256437063217160000e-002) (24, 1.14869743585586550000e-001) (25, 1.60272806882858280000e-001) (26, -3.02133560180664060000e-001) (27, -5.46693243086338040000e-002) (0, -4.85098883509635930000e-002) (1, -7.22753629088401790000e-002) (2, 4.49859276413917540000e-002) (3, 4.42211359739303590000e-001) (4, -2.52616591751575470000e-002) (5, 4.35488186776638030000e-002) (6, -1.57963648438453670000e-001) (7, 1.17765665054321290000e-001) (8, 3.34610104560852050000e-001) (9, 1.14447027444839480000e-002) (10, -3.35004270076751710000e-001) (11, -3.67244780063629150000e-001) (12, 3.41472178697586060000e-002) (13, 8.94680738449096680000e-001) (14, -1.12835025787353520000e+000) (15, 2.51213554292917250000e-002) (16, 9.16829854249954220000e-002) (17, 6.37990713119506840000e-001) (18, -9.56092923879623410000e-002) (19, 7.59063288569450380000e-002) (20, 4.28765654563903810000e-001) (21, 2.21890598535537720000e-001) (22, 6.15847229957580570000e-001) (23, 5.61025142669677730000e-001) (24, 3.66399258375167850000e-001) (25, 4.11330074071884160000e-001) (26, -3.32001090049743650000e-001) (27, 5.75006380677223210000e-002) (0, 1.94999381899833680000e-001) (1, 1.22348226606845860000e-001) (2, -1.22546458244323730000e+000) (3, 3.30868631601333620000e-001) (4, 4.45455223321914670000e-001) (5, 8.20192456245422360000e-001) (6, 6.87606871128082280000e-001) (7, 3.66191536188125610000e-001) (8, 7.56233990192413330000e-001) (9, -2.13438019156455990000e-001) (10, -4.48178559541702270000e-001) (11, 1.18570780754089360000e+000) (12, 7.15581700205802920000e-002) (13, 1.24447429180145260000e+000) (14, -8.12990069389343260000e-002) (15, 6.51578128337860110000e-001) (16, -9.95071291923522950000e-001) (17, 3.99845391511917110000e-002) (18, 1.80466994643211360000e-001) (19, -2.88299411535263060000e-001) (20, 1.56058818101882930000e-001) (21, -5.38877189159393310000e-001) (22, 3.09167176485061650000e-001) (23, -8.69730353355407710000e-001) (24, -7.89569467306137080000e-002) (25, -2.81736999750137330000e-001) (26, -6.83337569236755370000e-001) (27, -6.21324419975280760000e-001) (0, -8.33167321979999540000e-003) (1, -4.12013977766036990000e-002) (2, -3.90143513679504390000e-001) (3, 3.94611269235610960000e-001) (4, 5.98257720470428470000e-001) (5, 3.99111509323120120000e-001) (6, -8.23549687862396240000e-001) (7, -3.42453688383102420000e-001) (8, -1.05149722099304200000e+000) (9, 1.06309682130813600000e-001) (10, -1.09382778406143190000e-001) (11, 9.93737578392028810000e-001) (12, 3.56639236211776730000e-001) (13, 1.27120125293731690000e+000) (14, -2.03681439161300660000e-001) (15, -1.49081036448478700000e-001) (16, -1.49342155456542970000e+000) (17, 3.68234068155288700000e-001) (18, 1.33306443691253660000e-001) (19, -1.09563671052455900000e-001) (20, -4.22989159822463990000e-001) (21, 9.30561721324920650000e-001) (22, 3.46848070621490480000e-001) (23, -2.68976092338562010000e-001) (24, -2.00363155454397200000e-002) (25, -4.79596644639968870000e-001) (26, 5.16965508460998540000e-001) (27, -8.59738513827323910000e-002) (0, -5.60178533196449280000e-002) (1, -7.08185911178588870000e-001) (2, -6.64657428860664370000e-002) (3, 2.89457917213439940000e-001) (4, 1.30680367350578310000e-001) (5, -2.27774351835250850000e-001) (6, 5.33710777759552000000e-001) (7, -3.35138052701950070000e-001) (8, 2.43113547563552860000e-001) (9, 3.90274412930011750000e-002) (10, -1.20724630355834960000e+000) (11, -1.15063324570655820000e-001) (12, 3.43631058931350710000e-001) (13, -3.40782047715038060000e-004) (14, -4.42065531387925150000e-003) (15, 5.08713722229003910000e-001) (16, -2.24981755018234250000e-001) (17, -2.58516609668731690000e-001) (18, -3.74877363443374630000e-001) (19, -1.53646826744079590000e-001) (20, 1.34464576840400700000e-001) (21, 2.54462927579879760000e-001) (22, -1.83776199817657470000e-001) (23, 3.15276324748992920000e-001) (24, 5.52957236766815190000e-001) (25, -1.70323893427848820000e-001) (26, -9.41636934876441960000e-002) (27, 3.60928356647491460000e-001) (0, -7.30583131313323970000e-001) (1, 1.32944315671920780000e-001) (2, -3.92752933502197270000e+000) (3, -3.68508338928222660000e+000) (4, 1.70620024204254150000e-001) (5, -3.10925436019897460000e+000) (6, -7.34041988849639890000e-001) (7, -2.50806897878646850000e-001) (8, -4.65273618698120120000e-001) (9, 7.48826920986175540000e-001) (10, 5.63396632671356200000e-001) (11, 3.06241989135742190000e+000) (12, 1.25846958160400390000e+000) (13, 2.55314660072326660000e+000) (14, 4.20682239532470700000e+000) (15, 7.00745463371276860000e-001) (16, -1.69440269470214840000e-001) (17, -6.35149836540222170000e-001) (18, 4.24233913421630860000e-001) (19, -6.24607801437377930000e-001) (20, -1.26951730251312260000e+000) (21, -2.64741510152816770000e-001) (22, 3.20341676473617550000e-001) (23, -1.01752325892448430000e-001) (24, -3.98595929145812990000e-002) (25, -1.17975795269012450000e+000) (26, 2.67817616462707520000e+000) (27, 1.64461803436279300000e+001) (0, -4.90430593490600590000e-002) (1, 1.82310000061988830000e-001) (2, 9.34341922402381900000e-002) (3, -1.41512393951416020000e-001) (4, 2.59640693664550780000e-001) (5, 4.88450266420841220000e-002) (6, -9.05853882431983950000e-002) (7, 6.70932978391647340000e-002) (8, -1.69365793466567990000e-001) (9, -9.96140316128730770000e-002) (10, 3.37116390466690060000e-001) (11, -1.50767967104911800000e-001) (12, -5.67083768546581270000e-002) (13, 3.51327031850814820000e-001) (14, 2.38240078091621400000e-001) (15, -6.96338936686515810000e-002) (16, 1.87169268727302550000e-001) (17, -2.04255059361457820000e-003) (18, -1.27536244690418240000e-002) (19, 7.83922597765922550000e-002) (20, -5.74154257774353030000e-002) (21, 2.74057388305664060000e-002) (22, 2.12123453617095950000e-001) (23, 3.75843942165374760000e-002) (24, 1.73312127590179440000e-001) (25, 6.70673772692680360000e-002) (26, -6.57032476738095280000e-003) (27, -1.27453118562698360000e-001) (0, 4.87318895757198330000e-002) (1, 5.93721941113471980000e-002) (2, 7.18586817383766170000e-002) (3, 1.26872956752777100000e-001) (4, 3.13073247671127320000e-001) (5, 2.01478302478790280000e-001) (6, 1.76823928952217100000e-001) (7, 8.44230428338050840000e-002) (8, -2.50602904707193370000e-002) (9, -6.33200034499168400000e-002) (10, 2.49246954917907710000e-001) (11, 3.94937068223953250000e-001) (12, 2.05072134733200070000e-001) (13, 6.04070305824279790000e-001) (14, 7.03061163425445560000e-001) (15, 8.98137614130973820000e-002) (16, 2.79083877801895140000e-001) (17, 1.06819331645965580000e-001) (18, 4.63273376226425170000e-002) (19, 1.18735291063785550000e-001) (20, -5.04561781883239750000e-001) (21, 3.31063330173492430000e-001) (22, 1.21407523751258850000e-001) (23, -4.55844849348068240000e-001) (24, 1.21337160468101500000e-001) (25, 6.22632130980491640000e-002) (26, -3.82055670022964480000e-001) (27, -7.80959308147430420000e-001) (0, 1.58617809414863590000e-001) (1, 1.48687604814767840000e-002) (2, 2.08232505246996880000e-003) (3, -2.08802863955497740000e-001) (4, 9.43357124924659730000e-002) (5, 4.71294596791267400000e-002) (6, -5.88853918015956880000e-002) (7, 1.15635860711336140000e-002) (8, -8.57332814484834670000e-003) (9, -7.57980942726135250000e-002) (10, 6.00045099854469300000e-002) (11, 3.02971214056015010000e-001) (12, 2.18187600374221800000e-001) (13, 4.68624651432037350000e-001) (14, -3.79807025194168090000e-001) (15, 2.09522098302841190000e-001) (16, 8.72489064931869510000e-002) (17, 1.26887395977973940000e-001) (18, 2.50814817845821380000e-002) (19, 9.41705852746963500000e-002) (20, 9.22418292611837390000e-003) (21, -2.99876388162374500000e-002) (22, 2.21874758601188660000e-001) (23, -7.20858722925186160000e-002) (24, 1.26888394355773930000e-001) (25, 1.68002560734748840000e-001) (26, 1.83195859193801880000e-001) (27, 8.73845722526311870000e-003) (0, 5.81751286983489990000e-001) (1, -1.23850476741790770000e+000) (2, 8.76445248723030090000e-002) (3, 2.70939469337463380000e-001) (4, -3.43863874673843380000e-001) (5, -3.56737077236175540000e-001) (6, 1.73634707927703860000e+000) (7, -1.31144654750823970000e+000) (8, 1.41813206672668460000e+000) (9, 4.52976137399673460000e-001) (10, -1.57449376583099370000e+000) (11, -1.45160555839538570000e-001) (12, 6.43087387084960940000e-001) (13, -4.68621738255023960000e-002) (14, -1.01870700716972350000e-001) (15, 7.59236752986907960000e-001) (16, -5.62165737152099610000e-001) (17, -7.65635430812835690000e-001) (18, 6.27258419990539550000e-002) (19, -3.52861881256103520000e-001) (20, -2.00029388070106510000e-002) (21, 1.40748834237456320000e-002) (22, -1.73678368330001830000e-001) (23, -2.66572594642639160000e-001) (24, 4.02687162160873410000e-001) (25, -1.80936291813850400000e-001) (26, 1.04589968919754030000e-001) (27, 4.19412106275558470000e-001) (0, -2.01135128736495970000e-001) (1, 8.94751176238060000000e-002) (2, -1.15865431725978850000e-001) (3, -1.47509098052978520000e-001) (4, 6.87886476516723630000e-002) (5, 3.64030636847019200000e-002) (6, 6.94303633645176890000e-003) (7, -1.15190126001834870000e-001) (8, -9.39580425620079040000e-002) (9, -1.13784238696098330000e-001) (10, 4.23809140920639040000e-001) (11, -2.28319212794303890000e-001) (12, -1.93348124623298650000e-001) (13, 1.97575509548187260000e-001) (14, -2.12615951895713810000e-002) (15, 1.03539787232875820000e-001) (16, -2.25483328104019170000e-001) (17, -3.93613278865814210000e-002) (18, -1.56506210565567020000e-001) (19, 1.70551881194114690000e-001) (20, 6.75782337784767150000e-002) (21, 8.44522789120674130000e-002) (22, 8.40255320072174070000e-002) (23, 1.56824752688407900000e-001) (24, 2.10446625947952270000e-001) (25, -7.74498432874679570000e-002) (26, 1.97567313909530640000e-001) (27, -1.30585744976997380000e-001) (0, -1.54687598347663880000e-001) (1, 1.49091556668281560000e-001) (2, 2.12511569261550900000e-001) (3, -1.21241770684719090000e-001) (4, 2.18566790223121640000e-001) (5, 1.32043659687042240000e-001) (6, 5.36974109709262850000e-002) (7, 1.10483638942241670000e-001) (8, -1.02205827832221980000e-001) (9, -6.75506666302680970000e-002) (10, 2.02022984623909000000e-001) (11, -3.26701968908309940000e-001) (12, 1.35164931416511540000e-001) (13, 4.52288150787353520000e-001) (14, -4.30178701877593990000e-001) (15, -5.60325831174850460000e-002) (16, 2.86874353885650630000e-001) (17, 5.32545268535614010000e-001) (18, 6.81931897997856140000e-002) (19, 1.55617386102676390000e-001) (20, 6.06903210282325740000e-002) (21, 6.68171839788556100000e-003) (22, 2.35445708036422730000e-001) (23, 2.78574168682098390000e-001) (24, -4.91365045309066770000e-002) (25, 1.74471899867057800000e-001) (26, -2.68223673105239870000e-001) (27, 6.54787644743919370000e-002) (0, 2.64610424637794490000e-002) (1, 3.58312547206878660000e-001) (2, -1.58842027187347410000e-001) (3, -1.83841109275817870000e-001) (4, 4.68212626874446870000e-002) (5, 7.91856423020362850000e-002) (6, -4.84016656875610350000e-001) (7, 8.41216444969177250000e-002) (8, -2.18608230352401730000e-001) (9, -1.50931887328624730000e-002) (10, 6.18689298629760740000e-001) (11, 7.73595571517944340000e-002) (12, -2.64545679092407230000e-001) (13, 1.15476988255977630000e-001) (14, -7.86276608705520630000e-002) (15, -1.48674398660659790000e-001) (16, 4.50964905321598050000e-002) (17, 5.04108145833015440000e-002) (18, -6.38671591877937320000e-002) (19, 1.11261472105979920000e-001) (20, 4.52345423400402070000e-002) (21, -2.32488196343183520000e-002) (22, 9.97091084718704220000e-002) (23, 1.91121980547904970000e-001) (24, -9.02479812502861020000e-002) (25, -2.46828682720661160000e-002) (26, 3.05740796029567720000e-002) (27, -1.10480636358261110000e-001) (0, -3.74528676271438600000e-001) (1, 1.63113498687744140000e+000) (2, -4.32444930076599120000e-001) (3, 7.16272294521331790000e-001) (4, 1.21823883056640630000e+000) (5, 2.91584777832031250000e+000) (6, 9.79106187820434570000e-001) (7, -3.52783948183059690000e-001) (8, -4.85729312896728520000e+000) (9, 4.61135178804397580000e-001) (10, 2.99243569374084470000e+000) (11, 1.41520631313323970000e+000) (12, 1.04591989517211910000e+000) (13, 1.83047354221343990000e-001) (14, 5.93449831008911130000e+000) (15, 7.95992374420166020000e-001) (16, -1.16353690624237060000e+000) (17, -9.75494801998138430000e-001) (18, 2.76864707469940190000e-001) (19, -7.07493573427200320000e-002) (20, 8.01384568214416500000e-001) (21, 7.02046692371368410000e-001) (22, -5.93673348426818850000e-001) (23, 7.65988290309906010000e-001) (24, 9.33471262454986570000e-001) (25, -5.35028636455535890000e-001) (26, -4.78295993804931640000e+000) (27, 1.44613790512084960000e+000) (28, 6.49142920970916750000e-001) (29, 5.47659635543823240000e-001) (30, 3.50237071514129640000e-001) (31, 1.23979544639587400000e+000) (32, -3.34753453731536870000e-001) (33, 2.92320758104324340000e-001) (34, -1.17862947285175320000e-001) (35, 1.23716428875923160000e-001) (36, 3.28427106142044070000e-001) (37, -1.21530309319496150000e-001) (38, -9.43844258785247800000e-001) (39, 6.73452019691467290000e-001) (40, -6.48835420608520510000e-001) (41, -1.37200877070426940000e-001) (42, 6.93317770957946780000e-001) (43, -5.35088419914245610000e-001) (44, 6.67490124702453610000e-001) (45, -1.20655305683612820000e-001) (46, 3.11720162630081180000e-001) 
