FANN_FLO_2.1
num_layers=3
learning_rate=0.300000
connection_rate=1.000000
network_type=0
learning_momentum=0.000000
training_algorithm=2
train_error_function=0
train_stop_function=0
cascade_output_change_fraction=0.010000
quickprop_decay=-0.000100
quickprop_mu=1.750000
rprop_increase_factor=1.200000
rprop_decrease_factor=0.500000
rprop_delta_min=0.000000
rprop_delta_max=50.000000
rprop_delta_zero=0.100000
cascade_output_stagnation_epochs=12
cascade_candidate_change_fraction=0.010000
cascade_candidate_stagnation_epochs=12
cascade_max_out_epochs=150
cascade_min_out_epochs=50
cascade_max_cand_epochs=150
cascade_min_cand_epochs=50
cascade_num_candidate_groups=2
bit_fail_limit=3.49999994039535520000e-001
cascade_candidate_limit=1.00000000000000000000e+003
cascade_weight_multiplier=4.00000005960464480000e-001
cascade_activation_functions_count=10
cascade_activation_functions=3 5 7 8 10 11 14 15 16 17 
cascade_activation_steepnesses_count=4
cascade_activation_steepnesses=2.50000000000000000000e-001 5.00000000000000000000e-001 7.50000000000000000000e-001 1.00000000000000000000e+000 
layer_sizes=28 19 2 
scale_included=0
neurons (num_inputs, activation_function, activation_steepness)=(0, 0, 0.00000000000000000000e+000) (0, 0, 0.00000000000000000000e+000) (0, 0, 0.00000000000000000000e+000) (0, 0, 0.00000000000000000000e+000) (0, 0, 0.00000000000000000000e+000) (0, 0, 0.00000000000000000000e+000) (0, 0, 0.00000000000000000000e+000) (0, 0, 0.00000000000000000000e+000) (0, 0, 0.00000000000000000000e+000) (0, 0, 0.00000000000000000000e+000) (0, 0, 0.00000000000000000000e+000) (0, 0, 0.00000000000000000000e+000) (0, 0, 0.00000000000000000000e+000) (0, 0, 0.00000000000000000000e+000) (0, 0, 0.00000000000000000000e+000) (0, 0, 0.00000000000000000000e+000) (0, 0, 0.00000000000000000000e+000) (0, 0, 0.00000000000000000000e+000) (0, 0, 0.00000000000000000000e+000) (0, 0, 0.00000000000000000000e+000) (0, 0, 0.00000000000000000000e+000) (0, 0, 0.00000000000000000000e+000) (0, 0, 0.00000000000000000000e+000) (0, 0, 0.00000000000000000000e+000) (0, 0, 0.00000000000000000000e+000) (0, 0, 0.00000000000000000000e+000) (0, 0, 0.00000000000000000000e+000) (0, 0, 0.00000000000000000000e+000) (28, 5, 5.00000000000000000000e-001) (28, 5, 5.00000000000000000000e-001) (28, 5, 5.00000000000000000000e-001) (28, 5, 5.00000000000000000000e-001) (28, 5, 5.00000000000000000000e-001) (28, 5, 5.00000000000000000000e-001) (28, 5, 5.00000000000000000000e-001) (28, 5, 5.00000000000000000000e-001) (28, 5, 5.00000000000000000000e-001) (28, 5, 5.00000000000000000000e-001) (28, 5, 5.00000000000000000000e-001) (28, 5, 5.00000000000000000000e-001) (28, 5, 5.00000000000000000000e-001) (28, 5, 5.00000000000000000000e-001) (28, 5, 5.00000000000000000000e-001) (28, 5, 5.00000000000000000000e-001) (28, 5, 5.00000000000000000000e-001) (28, 5, 5.00000000000000000000e-001) (0, 5, 0.00000000000000000000e+000) (19, 0, 5.00000000000000000000e-001) (0, 0, 0.00000000000000000000e+000) 
connections (connected_to_neuron, weight)=(0, 6.31524503231048580000e-001) (1, -7.07459151744842530000e-002) (2, -4.51130062341690060000e-001) (3, -4.24374580383300780000e-001) (4, -5.90230584144592290000e-001) (5, -2.77434259653091430000e-001) (6, -3.66663068532943730000e-001) (7, -7.04185143113136290000e-002) (8, 3.86001676321029660000e-001) (9, -2.14945405721664430000e-001) (10, -8.35902988910675050000e-002) (11, 7.64010893180966380000e-003) (12, -4.22007679939270020000e-001) (13, -1.93079674243927000000e+000) (14, -1.01421964168548580000e+000) (15, -2.89144873619079590000e-001) (16, -3.14190328121185300000e-001) (17, 7.72856771945953370000e-001) (18, -3.55603665113449100000e-001) (19, -1.05286076664924620000e-001) (20, 2.20874343067407610000e-002) (21, 4.08928632736206050000e-001) (22, -9.59627866744995120000e-001) (23, 6.26758337020874020000e-001) (24, -3.69698256254196170000e-001) (25, -8.47675576806068420000e-002) (26, 1.93121179938316350000e-001) (27, 2.34427309036254880000e+000) (0, 2.77658671140670780000e-001) (1, 4.14149686694145200000e-002) (2, 2.86420464515686040000e-001) (3, 6.56222879886627200000e-001) (4, 1.65602490305900570000e-001) (5, -1.17368459701538090000e-001) (6, -2.21251472830772400000e-001) (7, 3.53823341429233550000e-002) (8, -2.78362128883600230000e-002) (9, 4.37649220228195190000e-001) (10, 1.57770216464996340000e-001) (11, -3.00902295857667920000e-002) (12, -3.33640873432159420000e-001) (13, -2.07705423235893250000e-002) (14, -1.51727214455604550000e-001) (15, -1.91128447651863100000e-001) (16, -1.51737898588180540000e-001) (17, -9.10915154963731770000e-003) (18, -3.18146646022796630000e-001) (19, 2.12149962782859800000e-001) (20, 1.00983284413814540000e-001) (21, 2.88631796836853030000e-001) (22, -1.45948886871337890000e-001) (23, -1.15411974489688870000e-001) (24, -2.11512699723243710000e-001) (25, -6.78960159420967100000e-002) (26, 1.12373735755681990000e-002) (27, -2.50235229730606080000e-001) (0, -5.34594714641571040000e-001) (1, -5.05898773670196530000e-001) (2, 1.94696441292762760000e-001) (3, 5.43809711933135990000e-001) (4, -8.05367827415466310000e-002) (5, -4.12507802248001100000e-001) (6, 2.33478564769029620000e-002) (7, 6.66086018085479740000e-001) (8, -1.07939392328262330000e-001) (9, 1.00045567378401760000e-002) (10, -1.47550702095031740000e+000) (11, -4.54641170799732210000e-002) (12, 5.51929414272308350000e-001) (13, -7.29116320610046390000e-001) (14, -1.34212529659271240000e+000) (15, 4.50497865676879880000e-001) (16, 1.63367366790771480000e+000) (17, 5.47032177448272710000e-001) (18, -3.35806719958782200000e-002) (19, -2.81648039817810060000e-001) (20, 1.19536042213439940000e+000) (21, -4.69139963388442990000e-002) (22, -2.34775066375732420000e-001) (23, 4.35781329870224000000e-001) (24, 2.43924394249916080000e-001) (25, 2.39887624979019170000e-001) (26, -7.67006218433380130000e-001) (27, 3.70089143514633180000e-001) (0, 3.74169975519180300000e-001) (1, 1.69668897986412050000e-001) (2, 3.50590914487838750000e-001) (3, 1.07242369651794430000e+000) (4, 2.53172188997268680000e-001) (5, 3.92442911863327030000e-001) (6, 1.39312878251075740000e-001) (7, 2.10012391209602360000e-001) (8, -3.01560331135988240000e-002) (9, -1.85182839632034300000e-001) (10, 6.40403926372528080000e-002) (11, -2.71824691444635390000e-002) (12, -3.55713963508605960000e-001) (13, -2.69444882869720460000e-001) (14, -7.26072669029235840000e-001) (15, -1.60168051719665530000e-001) (16, 1.79230079054832460000e-001) (17, -1.07163354754447940000e-001) (18, -5.82608804106712340000e-002) (19, -2.62835863977670670000e-002) (20, 4.19435054063797000000e-001) (21, 5.83298027515411380000e-001) (22, -2.45940864086151120000e-001) (23, -2.82866507768630980000e-001) (24, -2.66351193189620970000e-001) (25, 8.41526612639427190000e-002) (26, -1.35981263592839240000e-002) (27, -1.38712716102600100000e+000) (0, -2.09703817963600160000e-001) (1, -4.01271134614944460000e-002) (2, -3.82832169532775880000e-001) (3, -1.18112087249755860000e-001) (4, -2.32905186712741850000e-002) (5, 3.70750308036804200000e-001) (6, 2.77334041893482210000e-002) (7, 1.87126547098159790000e-001) (8, -3.19024920463562010000e-001) (9, 3.42330753803253170000e-001) (10, 1.48016242310404780000e-002) (11, 6.48705840110778810000e-001) (12, 8.59455585479736330000e-001) (13, 4.31398838758468630000e-001) (14, 3.45441281795501710000e-001) (15, -5.85058212280273440000e-001) (16, -3.54006260633468630000e-001) (17, -3.41317772865295410000e-001) (18, 5.56826174259185790000e-001) (19, 8.86163711547851560000e-002) (20, -5.11029303073883060000e-001) (21, -2.79213279485702510000e-001) (22, 9.44908857345581050000e-002) (23, -2.27238878607749940000e-001) (24, 8.80041241645812990000e-001) (25, 4.24643866717815400000e-002) (26, 2.57150143384933470000e-001) (27, 9.24755215644836430000e-001) (0, -3.07197749614715580000e-001) (1, -1.48699745535850520000e-001) (2, 9.37772542238235470000e-002) (3, 3.87692689895629880000e-001) (4, 2.81027227640151980000e-001) (5, 7.28912279009819030000e-002) (6, 4.89980340003967290000e-001) (7, 1.31883814930915830000e-001) (8, 4.45867404341697690000e-002) (9, -1.07906393706798550000e-001) (10, -6.26710280776023860000e-002) (11, -6.64091333746910100000e-002) (12, -3.50027889013290410000e-001) (13, 7.78811931610107420000e-001) (14, 2.00687628239393230000e-002) (15, -3.02655875682830810000e-001) (16, 2.17783316969871520000e-001) (17, 9.01895537972450260000e-002) (18, -2.67379075288772580000e-001) (19, 1.35728508234024050000e-001) (20, -1.24535530805587770000e-001) (21, -1.86502650380134580000e-001) (22, 5.03408133983612060000e-001) (23, 1.25214472413063050000e-001) (24, -1.37551888823509220000e-001) (25, 1.66971519589424130000e-001) (26, -8.26541408896446230000e-002) (27, -2.81321793794631960000e-001) (0, 1.30407083034515380000e+000) (1, 2.90928423404693600000e-001) (2, 3.01243036985397340000e-001) (3, -4.29332911968231200000e-001) (4, -1.18219994008541110000e-001) (5, -2.09748193621635440000e-001) (6, 2.05686777830123900000e-001) (7, 9.92246046662330630000e-002) (8, -5.93343853950500490000e-001) (9, 1.73332020640373230000e-001) (10, -7.12763190269470210000e-001) (11, -5.32101571559906010000e-001) (12, 2.49804049730300900000e-001) (13, -3.20336192846298220000e-001) (14, -1.29118755459785460000e-001) (15, -1.57606422901153560000e-001) (16, -2.57671549916267400000e-002) (17, 8.20770025253295900000e-001) (18, 4.50368195772171020000e-001) (19, -3.76826703548431400000e-001) (20, 1.25150531530380250000e-001) (21, -1.25001892447471620000e-001) (22, -1.17986202239990230000e-001) (23, 2.63403743505477910000e-001) (24, -4.14275318384170530000e-001) (25, -1.02514088153839110000e-001) (26, -1.76516473293304440000e-001) (27, -1.03381502628326420000e+000) (0, -3.28619688749313350000e-001) (1, 1.54051423072814940000e-001) (2, 4.14184518158435820000e-002) (3, 1.80964305996894840000e-001) (4, 5.21316051483154300000e-001) (5, 1.28181502223014830000e-001) (6, -7.09514692425727840000e-002) (7, -7.67111405730247500000e-002) (8, 2.26529806852340700000e-001) (9, -3.14346283674240110000e-001) (10, 2.50246077775955200000e-001) (11, 1.81220114231109620000e-001) (12, -6.53561064973473550000e-003) (13, 1.16588640213012700000e+000) (14, -3.55792164802551270000e-001) (15, 1.38722071424126630000e-002) (16, -1.23316548764705660000e-001) (17, -4.72141832113265990000e-001) (18, -1.69003948569297790000e-001) (19, -6.11338578164577480000e-002) (20, -6.10010586678981780000e-002) (21, -1.52000278234481810000e-001) (22, 6.26590609550476070000e-001) (23, 2.22930699586868290000e-001) (24, -2.22223289310932160000e-002) (25, -9.07300412654876710000e-002) (26, 3.53833585977554320000e-001) (27, 8.70225369930267330000e-001) (0, -2.54677921533584590000e-001) (1, -1.80288180708885190000e-001) (2, 2.00677793473005290000e-002) (3, -1.84451952576637270000e-001) (4, -1.64244115352630620000e-001) (5, 1.85899376869201660000e-001) (6, 7.86175847053527830000e-001) (7, 8.44598338007926940000e-002) (8, 1.26891046762466430000e-001) (9, -1.92259609699249270000e-001) (10, -1.41854912042617800000e-001) (11, -1.46032109856605530000e-001) (12, -3.12346816062927250000e-001) (13, -5.01807689666748050000e-001) (14, -3.38178247213363650000e-001) (15, -3.03771167993545530000e-001) (16, 3.06867390871047970000e-001) (17, 4.20188754796981810000e-002) (18, -7.81111791729927060000e-002) (19, -3.91231887042522430000e-002) (20, -1.21393725275993350000e-001) (21, 3.98529499769210820000e-001) (22, -8.36626440286636350000e-002) (23, 1.52094721794128420000e-001) (24, -2.19127357006073000000e-001) (25, 1.06024444103240970000e-001) (26, 1.88680127263069150000e-001) (27, -1.45827129483222960000e-001) (0, -1.51503175497055050000e-001) (1, 8.59192945063114170000e-003) (2, -3.72603863477706910000e-001) (3, -2.29066714644432070000e-001) (4, 1.70177131891250610000e-001) (5, 2.86571234464645390000e-002) (6, 6.24466955661773680000e-001) (7, 2.84217923879623410000e-001) (8, 8.99931564927101140000e-002) (9, -3.10443192720413210000e-001) (10, 1.54718518257141110000e-001) (11, -1.97566941380500790000e-001) (12, -2.87157058715820310000e-001) (13, 5.08523881435394290000e-001) (14, 2.35945269465446470000e-001) (15, -2.73078322410583500000e-001) (16, 1.88560754060745240000e-001) (17, -2.05440312623977660000e-001) (18, -1.55087396502494810000e-001) (19, 4.85092364251613620000e-002) (20, 3.52186232805252080000e-001) (21, -1.90793916583061220000e-001) (22, 3.19927245378494260000e-001) (23, 2.95265708118677140000e-002) (24, -2.93472260236740110000e-001) (25, 1.74273788928985600000e-001) (26, 2.29183599352836610000e-001) (27, -2.56739258766174320000e-001) (0, 2.05733120441436770000e-001) (1, 6.88888370990753170000e-001) (2, -8.31090748310089110000e-001) (3, 1.45117908716201780000e-001) (4, 3.52348995208740230000e+000) (5, -8.41812229156494140000e+000) (6, -1.00855863094329830000e+000) (7, 1.31575495004653930000e-001) (8, 1.25380182266235350000e+000) (9, 6.16293132305145260000e-001) (10, 4.42608803510665890000e-001) (11, 6.27143621444702150000e+000) (12, 1.39147186279296870000e+000) (13, 3.90461492538452150000e+000) (14, 7.92174291610717770000e+000) (15, 1.29696595668792720000e+000) (16, 8.62859070301055910000e-001) (17, 3.50519680976867680000e+000) (18, 1.50233387947082520000e-001) (19, 7.18704521656036380000e-001) (20, 1.01105678081512450000e+000) (21, 1.34656417369842530000e+000) (22, -5.30741274356842040000e-001) (23, -4.00810384750366210000e+000) (24, 2.92752623558044430000e-001) (25, -3.08101624250411990000e-001) (26, -6.90327024459838870000e+000) (27, 8.42187213897705080000e+000) (0, 1.35860055685043330000e-001) (1, 1.43881872296333310000e-001) (2, 1.47770762443542480000e-001) (3, 2.16850906610488890000e-001) (4, -6.38484656810760500000e-002) (5, -1.20742410421371460000e-001) (6, 5.82825064659118650000e-001) (7, 1.37759938836097720000e-001) (8, 6.04373753070831300000e-001) (9, 1.86297029256820680000e-001) (10, 2.25611597299575810000e-001) (11, -6.56463801860809330000e-002) (12, 2.11820334196090700000e-001) (13, -1.46126270294189450000e-001) (14, 9.46458220481872560000e-001) (15, -1.65354415774345400000e-001) (16, -5.93666374683380130000e-001) (17, -9.36642765998840330000e-001) (18, -1.96537598967552190000e-001) (19, 1.55749246478080750000e-001) (20, 1.24330401420593260000e-001) (21, 2.30923637747764590000e-001) (22, -3.08006137609481810000e-001) (23, -9.14445579051971440000e-001) (24, 4.88435745239257810000e-001) (25, -2.26061016321182250000e-001) (26, 1.58095553517341610000e-001) (27, -6.61221385002136230000e-001) (0, 1.38565422967076300000e-002) (1, 1.20086036622524260000e-001) (2, 9.61574434768408540000e-004) (3, 6.50174260139465330000e-001) (4, 3.70023787021636960000e-001) (5, -1.46309682168066500000e-003) (6, -2.28366613388061520000e-001) (7, -1.00555405020713810000e-001) (8, 1.03718057274818420000e-001) (9, -9.33354869484901430000e-002) (10, -3.09985922649502750000e-003) (11, 2.75088608264923100000e-001) (12, 1.36735722422599790000e-001) (13, 5.38122594356536870000e-001) (14, 1.59920342266559600000e-002) (15, 5.43932318687438960000e-001) (16, 1.39606092125177380000e-002) (17, 1.95386111736297610000e-001) (18, 8.31543728709220890000e-002) (19, -4.89148311316967010000e-002) (20, -1.17476098239421840000e-001) (21, 6.00749790668487550000e-001) (22, 1.61233972758054730000e-002) (23, -1.29137381911277770000e-001) (24, -6.09870553016662600000e-002) (25, 1.45341619849205020000e-001) (26, -3.74108910560607910000e-001) (27, -1.65528267621994020000e-001) (0, 1.09551405906677250000e+000) (1, 5.31601607799530030000e-001) (2, 3.19686830043792720000e-001) (3, -3.27225387096405030000e-001) (4, 3.54230940341949460000e-001) (5, -1.37444213032722470000e-001) (6, 1.00665867328643800000e+000) (7, 4.77000415325164790000e-001) (8, -2.89761781692504880000e-001) (9, 1.10421501100063320000e-001) (10, 1.68985211849212650000e+000) (11, 6.69831782579422000000e-002) (12, 1.00678965449333190000e-001) (13, 8.18128287792205810000e-002) (14, 3.32802981138229370000e-001) (15, -5.40522206574678420000e-003) (16, 1.51234972476959230000e+000) (17, 3.21624636650085450000e-001) (18, 1.30775380134582520000e+000) (19, 4.31964248418807980000e-001) (20, -3.72824430465698240000e-001) (21, 7.43120023980736730000e-003) (22, 8.81526052951812740000e-001) (23, 7.51344338059425350000e-002) (24, 1.02483189105987550000e+000) (25, 7.09115505218505860000e-001) (26, -2.85579442977905270000e-001) (27, 1.09867465496063230000e+000) (0, -3.79156291484832760000e-001) (1, -1.13322474062442780000e-001) (2, -3.64681601524353030000e-001) (3, 3.66288125514984130000e-001) (4, 1.89433231949806210000e-001) (5, -1.98590606451034550000e-001) (6, -1.17799490690231320000e-001) (7, -6.51043653488159180000e-002) (8, -2.82369136810302730000e-001) (9, -4.66273486614227290000e-001) (10, -5.11829972267150880000e-001) (11, 7.53358229994773860000e-002) (12, -3.79017770290374760000e-001) (13, 4.12574820220470430000e-002) (14, -6.53204739093780520000e-001) (15, -1.86374425888061520000e-001) (16, -4.80420470237731930000e-001) (17, 6.59620901569724080000e-003) (18, -2.07388699054718020000e-001) (19, -3.06953817605972290000e-001) (20, -1.34740397334098820000e-001) (21, 2.59134650230407710000e-001) (22, 3.50925028324127200000e-002) (23, 1.14319407939910890000e+000) (24, -3.25436890125274660000e-001) (25, 1.14979363977909090000e-001) (26, 4.78377878665924070000e-001) (27, -4.16508883237838750000e-001) (0, -3.15770924091339110000e-001) (1, 1.52676224708557130000e-001) (2, 4.21184957027435300000e-001) (3, -2.40835130214691160000e-001) (4, 3.82510215044021610000e-001) (5, -9.90939065814018250000e-002) (6, 7.95195877552032470000e-001) (7, 1.02379657328128810000e-001) (8, 3.75105105340480800000e-002) (9, 5.15461564064025880000e-001) (10, 4.93480741977691650000e-001) (11, 1.27008184790611270000e-002) (12, -2.00656712055206300000e-001) (13, 1.12796223163604740000e+000) (14, 1.23020850121974950000e-001) (15, 4.09012556076049800000e-001) (16, 6.20519697666168210000e-001) (17, -1.30829334259033200000e-001) (18, -1.84614419937133790000e-001) (19, 4.04309719800949100000e-001) (20, -1.06705561280250550000e-001) (21, -1.34136259555816650000e-001) (22, 4.10086840391159060000e-001) (23, -1.39701589941978450000e-001) (24, -1.71211719512939450000e-001) (25, 3.68116259574890140000e-001) (26, -3.05304884910583500000e-001) (27, -2.59515106678009030000e-001) (0, -2.02987879514694210000e-001) (1, -5.50060607492923740000e-002) (2, -8.85084196925163270000e-002) (3, 1.78347274661064150000e-001) (4, 2.59962081909179690000e-001) (5, -2.30717167258262630000e-001) (6, -2.12878733873367310000e-001) (7, 4.89430408924818040000e-003) (8, -9.19210165739059450000e-002) (9, 3.74973922967910770000e-001) (10, 2.25552096962928770000e-001) (11, 2.17862099409103390000e-001) (12, -1.40029773116111760000e-001) (13, 4.93863254785537720000e-001) (14, 4.48401153087615970000e-001) (15, -1.54488667845726010000e-001) (16, 4.91272145882248880000e-003) (17, 4.23929542303085330000e-002) (18, -2.47026085853576660000e-001) (19, 1.94253876805305480000e-001) (20, -2.14309290051460270000e-001) (21, 5.10763168334960940000e-001) (22, 1.92354068160057070000e-001) (23, -1.21781267225742340000e-001) (24, -1.64779603481292720000e-001) (25, -6.13751560449600220000e-002) (26, 1.04502141475677490000e-001) (27, -1.89629331231117250000e-001) (0, 3.27760219573974610000e-001) (1, 3.33925276994705200000e-001) (2, 1.25605855137109760000e-002) (3, 7.02099442481994630000e-001) (4, 2.22180962562561040000e-001) (5, -1.11273336410522460000e+000) (6, 2.66219973564147950000e-001) (7, 2.40042179822921750000e-001) (8, -1.56681522727012630000e-001) (9, 3.31050157546997070000e-001) (10, 9.04410839080810550000e-001) (11, 9.06420826911926270000e-001) (12, 1.25659096240997310000e+000) (13, 1.57000315189361570000e+000) (14, 9.17289555072784420000e-001) (15, 1.67775869369506840000e-001) (16, 5.09163975715637210000e-001) (17, 5.25562465190887450000e-001) (18, 4.70241069793701170000e+000) (19, -7.78033077716827390000e-001) (20, -1.09318292140960690000e+000) (21, 1.67116451263427730000e+000) (22, 1.64781987667083740000e+000) (23, 2.86821186542510990000e-001) (24, 3.27826857566833500000e-001) (25, 8.45947802066802980000e-001) (26, -1.13666363060474400000e-001) (27, 1.67567086219787600000e+000) (28, -2.47298061847686770000e-001) (29, 1.35362219810485840000e+000) (30, 9.71927866339683530000e-002) (31, -6.40779018402099610000e-001) (32, 4.49041694402694700000e-001) (33, -7.67953336238861080000e-001) (34, -8.38496759533882140000e-002) (35, 3.18395525217056270000e-001) (36, 7.68049657344818120000e-001) (37, 8.77728879451751710000e-001) (38, -3.71304273605346680000e-001) (39, -3.99373501539230350000e-001) (40, 1.18485713005065920000e+000) (41, 7.68482759594917300000e-002) (42, -2.89442479610443120000e-001) (43, -2.77235001325607300000e-001) (44, -8.75518262386322020000e-001) (45, -3.89338999986648560000e-001) (46, -2.88219422101974490000e-001) 
