FANN_FLO_2.1
num_layers=4
learning_rate=0.300000
connection_rate=1.000000
network_type=0
learning_momentum=0.500000
training_algorithm=2
train_error_function=0
train_stop_function=0
cascade_output_change_fraction=0.010000
quickprop_decay=-0.000100
quickprop_mu=1.750000
rprop_increase_factor=1.200000
rprop_decrease_factor=0.500000
rprop_delta_min=0.000000
rprop_delta_max=50.000000
rprop_delta_zero=0.100000
cascade_output_stagnation_epochs=12
cascade_candidate_change_fraction=0.010000
cascade_candidate_stagnation_epochs=12
cascade_max_out_epochs=150
cascade_min_out_epochs=50
cascade_max_cand_epochs=150
cascade_min_cand_epochs=50
cascade_num_candidate_groups=2
bit_fail_limit=3.49999994039535520000e-001
cascade_candidate_limit=1.00000000000000000000e+003
cascade_weight_multiplier=4.00000005960464480000e-001
cascade_activation_functions_count=10
cascade_activation_functions=3 5 7 8 10 11 14 15 16 17 
cascade_activation_steepnesses_count=4
cascade_activation_steepnesses=2.50000000000000000000e-001 5.00000000000000000000e-001 7.50000000000000000000e-001 1.00000000000000000000e+000 
layer_sizes=76 51 26 2 
scale_included=0
neurons (num_inputs, activation_function, activation_steepness)=(0, 0, 0.00000000000000000000e+000) (0, 0, 0.00000000000000000000e+000) (0, 0, 0.00000000000000000000e+000) (0, 0, 0.00000000000000000000e+000) (0, 0, 0.00000000000000000000e+000) (0, 0, 0.00000000000000000000e+000) (0, 0, 0.00000000000000000000e+000) (0, 0, 0.00000000000000000000e+000) (0, 0, 0.00000000000000000000e+000) (0, 0, 0.00000000000000000000e+000) (0, 0, 0.00000000000000000000e+000) (0, 0, 0.00000000000000000000e+000) (0, 0, 0.00000000000000000000e+000) (0, 0, 0.00000000000000000000e+000) (0, 0, 0.00000000000000000000e+000) (0, 0, 0.00000000000000000000e+000) (0, 0, 0.00000000000000000000e+000) (0, 0, 0.00000000000000000000e+000) (0, 0, 0.00000000000000000000e+000) (0, 0, 0.00000000000000000000e+000) (0, 0, 0.00000000000000000000e+000) (0, 0, 0.00000000000000000000e+000) (0, 0, 0.00000000000000000000e+000) (0, 0, 0.00000000000000000000e+000) (0, 0, 0.00000000000000000000e+000) (0, 0, 0.00000000000000000000e+000) (0, 0, 0.00000000000000000000e+000) (0, 0, 0.00000000000000000000e+000) (0, 0, 0.00000000000000000000e+000) (0, 0, 0.00000000000000000000e+000) (0, 0, 0.00000000000000000000e+000) (0, 0, 0.00000000000000000000e+000) (0, 0, 0.00000000000000000000e+000) (0, 0, 0.00000000000000000000e+000) (0, 0, 0.00000000000000000000e+000) (0, 0, 0.00000000000000000000e+000) (0, 0, 0.00000000000000000000e+000) (0, 0, 0.00000000000000000000e+000) (0, 0, 0.00000000000000000000e+000) (0, 0, 0.00000000000000000000e+000) (0, 0, 0.00000000000000000000e+000) (0, 0, 0.00000000000000000000e+000) (0, 0, 0.00000000000000000000e+000) (0, 0, 0.00000000000000000000e+000) (0, 0, 0.00000000000000000000e+000) (0, 0, 0.00000000000000000000e+000) (0, 0, 0.00000000000000000000e+000) (0, 0, 0.00000000000000000000e+000) (0, 0, 0.00000000000000000000e+000) (0, 0, 0.00000000000000000000e+000) (0, 0, 0.00000000000000000000e+000) (0, 0, 0.00000000000000000000e+000) (0, 0, 0.00000000000000000000e+000) (0, 0, 0.00000000000000000000e+000) (0, 0, 0.00000000000000000000e+000) (0, 0, 0.00000000000000000000e+000) (0, 0, 0.00000000000000000000e+000) (0, 0, 0.00000000000000000000e+000) (0, 0, 0.00000000000000000000e+000) (0, 0, 0.00000000000000000000e+000) (0, 0, 0.00000000000000000000e+000) (0, 0, 0.00000000000000000000e+000) (0, 0, 0.00000000000000000000e+000) (0, 0, 0.00000000000000000000e+000) (0, 0, 0.00000000000000000000e+000) (0, 0, 0.00000000000000000000e+000) (0, 0, 0.00000000000000000000e+000) (0, 0, 0.00000000000000000000e+000) (0, 0, 0.00000000000000000000e+000) (0, 0, 0.00000000000000000000e+000) (0, 0, 0.00000000000000000000e+000) (0, 0, 0.00000000000000000000e+000) (0, 0, 0.00000000000000000000e+000) (0, 0, 0.00000000000000000000e+000) (0, 0, 0.00000000000000000000e+000) (0, 0, 0.00000000000000000000e+000) (76, 5, 5.00000000000000000000e-001) (76, 5, 5.00000000000000000000e-001) (76, 5, 5.00000000000000000000e-001) (76, 5, 5.00000000000000000000e-001) (76, 5, 5.00000000000000000000e-001) (76, 5, 5.00000000000000000000e-001) (76, 5, 5.00000000000000000000e-001) (76, 5, 5.00000000000000000000e-001) (76, 5, 5.00000000000000000000e-001) (76, 5, 5.00000000000000000000e-001) (76, 5, 5.00000000000000000000e-001) (76, 5, 5.00000000000000000000e-001) (76, 5, 5.00000000000000000000e-001) (76, 5, 5.00000000000000000000e-001) (76, 5, 5.00000000000000000000e-001) (76, 5, 5.00000000000000000000e-001) (76, 5, 5.00000000000000000000e-001) (76, 5, 5.00000000000000000000e-001) (76, 5, 5.00000000000000000000e-001) (76, 5, 5.00000000000000000000e-001) (76, 5, 5.00000000000000000000e-001) (76, 5, 5.00000000000000000000e-001) (76, 5, 5.00000000000000000000e-001) (76, 5, 5.00000000000000000000e-001) (76, 5, 5.00000000000000000000e-001) (76, 5, 5.00000000000000000000e-001) (76, 5, 5.00000000000000000000e-001) (76, 5, 5.00000000000000000000e-001) (76, 5, 5.00000000000000000000e-001) (76, 5, 5.00000000000000000000e-001) (76, 5, 5.00000000000000000000e-001) (76, 5, 5.00000000000000000000e-001) (76, 5, 5.00000000000000000000e-001) (76, 5, 5.00000000000000000000e-001) (76, 5, 5.00000000000000000000e-001) (76, 5, 5.00000000000000000000e-001) (76, 5, 5.00000000000000000000e-001) (76, 5, 5.00000000000000000000e-001) (76, 5, 5.00000000000000000000e-001) (76, 5, 5.00000000000000000000e-001) (76, 5, 5.00000000000000000000e-001) (76, 5, 5.00000000000000000000e-001) (76, 5, 5.00000000000000000000e-001) (76, 5, 5.00000000000000000000e-001) (76, 5, 5.00000000000000000000e-001) (76, 5, 5.00000000000000000000e-001) (76, 5, 5.00000000000000000000e-001) (76, 5, 5.00000000000000000000e-001) (76, 5, 5.00000000000000000000e-001) (76, 5, 5.00000000000000000000e-001) (0, 5, 0.00000000000000000000e+000) (51, 5, 5.00000000000000000000e-001) (51, 5, 5.00000000000000000000e-001) (51, 5, 5.00000000000000000000e-001) (51, 5, 5.00000000000000000000e-001) (51, 5, 5.00000000000000000000e-001) (51, 5, 5.00000000000000000000e-001) (51, 5, 5.00000000000000000000e-001) (51, 5, 5.00000000000000000000e-001) (51, 5, 5.00000000000000000000e-001) (51, 5, 5.00000000000000000000e-001) (51, 5, 5.00000000000000000000e-001) (51, 5, 5.00000000000000000000e-001) (51, 5, 5.00000000000000000000e-001) (51, 5, 5.00000000000000000000e-001) (51, 5, 5.00000000000000000000e-001) (51, 5, 5.00000000000000000000e-001) (51, 5, 5.00000000000000000000e-001) (51, 5, 5.00000000000000000000e-001) (51, 5, 5.00000000000000000000e-001) (51, 5, 5.00000000000000000000e-001) (51, 5, 5.00000000000000000000e-001) (51, 5, 5.00000000000000000000e-001) (51, 5, 5.00000000000000000000e-001) (51, 5, 5.00000000000000000000e-001) (51, 5, 5.00000000000000000000e-001) (0, 5, 0.00000000000000000000e+000) (26, 0, 5.00000000000000000000e-001) (0, 0, 0.00000000000000000000e+000) 
connections (connected_to_neuron, weight)=(0, 1.35985229492187500000e+003) (1, 1.50000000000000000000e+003) (2, 1.49989624023437500000e+003) (3, 1.48701354980468750000e+003) (4, -1.50000000000000000000e+003) (5, 1.49995336914062500000e+003) (6, 1.45588732910156250000e+003) (7, -1.36555749511718750000e+003) (8, -7.94541320800781250000e+002) (9, 1.47201953125000000000e+003) (10, 1.47608215332031250000e+003) (11, 1.36841882324218750000e+003) (12, 1.47320446777343750000e+003) (13, -1.50000000000000000000e+003) (14, -1.50000000000000000000e+003) (15, 1.45710180664062500000e+003) (16, 1.50000000000000000000e+003) (17, -1.39845373535156250000e+003) (18, 1.50000000000000000000e+003) (19, -1.50000000000000000000e+003) (20, -8.83773559570312500000e+002) (21, 1.41988635253906250000e+003) (22, -1.50000000000000000000e+003) (23, -1.50000000000000000000e+003) (24, 1.37233032226562500000e+003) (25, 1.50000000000000000000e+003) (26, -1.49998974609375000000e+003) (27, -1.49982897949218750000e+003) (28, 1.50000000000000000000e+003) (29, 1.33286425781250000000e+003) (30, 1.50000000000000000000e+003) (31, 1.50000000000000000000e+003) (32, -1.44703881835937500000e+003) (33, 1.49994848632812500000e+003) (34, 1.50000000000000000000e+003) (35, 7.15387207031250000000e+002) (36, 1.41852050781250000000e+003) (37, -1.50000000000000000000e+003) (38, 1.49918469238281250000e+003) (39, 1.49012268066406250000e+003) (40, 1.50000000000000000000e+003) (41, -1.06674572753906250000e+003) (42, 1.45845056152343750000e+003) (43, -1.48865832519531250000e+003) (44, -6.70655578613281250000e+002) (45, 1.49703674316406250000e+003) (46, 1.50000000000000000000e+003) (47, -1.50000000000000000000e+003) (48, 1.49804833984375000000e+003) (49, -1.50000000000000000000e+003) (50, -1.50000000000000000000e+003) (51, 1.42381054687500000000e+003) (52, -1.50000000000000000000e+003) (53, 1.49631445312500000000e+003) (54, 1.46946594238281250000e+003) (55, 1.50000000000000000000e+003) (56, -1.12181176757812500000e+003) (57, 1.45914624023437500000e+003) (58, -1.50000000000000000000e+003) (59, 1.01143762207031250000e+003) (60, 1.48399401855468750000e+003) (61, 1.50000000000000000000e+003) (62, -1.50000000000000000000e+003) (63, 1.45470031738281250000e+003) (64, -1.50000000000000000000e+003) (65, -1.50000000000000000000e+003) (66, 1.46406738281250000000e+003) (67, 2.80492187500000000000e+002) (68, 3.71123931884765620000e+002) (69, 1.47911865234375000000e+003) (70, -1.45139562988281250000e+003) (71, 1.49986389160156250000e+003) (72, 1.48097241210937500000e+003) (73, 1.49740405273437500000e+003) (74, 1.49814550781250000000e+003) (75, 1.50000000000000000000e+003) (0, 3.27324390411376950000e-001) (1, 2.26592406630516050000e-001) (2, -1.65414839982986450000e-001) (3, 1.95647537708282470000e-001) (4, 4.70378518104553220000e-001) (5, 9.75478067994117740000e-002) (6, 1.46239966154098510000e-001) (7, 7.89965152740478520000e-001) (8, -1.49692445993423460000e-001) (9, -7.35487580299377440000e-001) (10, 4.10414218902587890000e-001) (11, 8.58645234256982800000e-003) (12, -2.37915679812431340000e-001) (13, -4.06323820352554320000e-002) (14, -1.54196724295616150000e-001) (15, 2.38531544804573060000e-001) (16, 3.30388993024826050000e-002) (17, 5.34228198230266570000e-002) (18, 4.32267695665359500000e-001) (19, 2.59823590517044070000e-001) (20, -2.36671343445777890000e-002) (21, 1.46452426910400390000e-001) (22, 3.18158179521560670000e-001) (23, -5.05343414843082430000e-002) (24, 3.68596285581588750000e-001) (25, 6.81089818477630620000e-001) (26, 5.66986761987209320000e-002) (27, -6.18580222129821780000e-001) (28, 5.30994117259979250000e-001) (29, 1.54437115415930750000e-002) (30, 2.15707480907440190000e-001) (31, 2.81814392656087880000e-002) (32, 1.61413192749023440000e-001) (33, 4.42287713289260860000e-001) (34, 4.27490592002868650000e-001) (35, 3.38354855775833130000e-001) (36, 1.54930755496025090000e-001) (37, 9.81544494628906250000e-001) (38, 4.97482448816299440000e-001) (39, 2.36958360671997070000e+000) (40, 2.60577201843261720000e-001) (41, -1.24718025326728820000e-001) (42, -8.50345730781555180000e-001) (43, 2.38042622804641720000e-001) (44, -5.25249660015106200000e-001) (45, 6.17870017886161800000e-002) (46, 5.98244294524192810000e-002) (47, 7.64797925949096680000e-002) (48, 2.97568887472152710000e-001) (49, 2.36892491579055790000e-001) (50, -7.84564539790153500000e-002) (51, 3.78929793834686280000e-001) (52, 5.48745691776275630000e-001) (53, 8.36913064122200010000e-002) (54, 6.03447079658508300000e-001) (55, 6.52574360370635990000e-001) (56, -1.09017677605152130000e-001) (57, -5.42849361896514890000e-001) (58, 4.00656729936599730000e-001) (59, -5.45218065381050110000e-002) (60, 2.48039737343788150000e-001) (61, 9.62953418493270870000e-002) (62, -1.54877543449401860000e-001) (63, 1.15076951682567600000e-001) (64, 2.02100783586502080000e-001) (65, 1.00912027060985570000e-001) (66, 3.58630061149597170000e-001) (67, 5.60175359249114990000e-001) (68, -2.12267190217971800000e-002) (69, -5.81160783767700200000e-001) (70, 4.15743291378021240000e-001) (71, 3.78383696079254150000e-002) (72, -1.57160639762878420000e-001) (73, -7.71986506879329680000e-003) (74, -1.73307031393051150000e-001) (75, -9.96443748474121090000e-001) (0, 1.28049463033676150000e-001) (1, -3.32789629697799680000e-001) (2, -8.13222117722034450000e-003) (3, 1.84669151902198790000e-001) (4, -3.18998068571090700000e-001) (5, 1.03410196304321290000e+000) (6, 8.68584960699081420000e-002) (7, 2.42339193820953370000e-001) (8, -1.85047656297683720000e-001) (9, -1.69514924287796020000e-001) (10, 2.02449172735214230000e-001) (11, 3.47970515489578250000e-001) (12, -2.74720579385757450000e-001) (13, -1.41777798533439640000e-001) (14, -5.53942695260047910000e-002) (15, 1.77933737635612490000e-001) (16, -3.91476117074489590000e-002) (17, 3.61693620681762700000e-001) (18, 4.18099790811538700000e-001) (19, 1.08847782015800480000e-001) (20, 1.33008539676666260000e+000) (21, 2.83773154020309450000e-001) (22, -4.03535276651382450000e-001) (23, -2.51617598533630370000e+000) (24, -1.90901890397071840000e-001) (25, 1.51412680745124820000e-001) (26, -1.97576284408569340000e-002) (27, -2.40118891000747680000e-001) (28, 3.39706003665924070000e-001) (29, 3.95660102367401120000e-001) (30, -2.93665006756782530000e-003) (31, -3.18467170000076290000e-001) (32, 5.77426195144653320000e-001) (33, 7.16630399227142330000e-001) (34, 5.28675541281700130000e-002) (35, 1.18575394153594970000e+000) (36, 2.71365314722061160000e-001) (37, -8.56524482369422910000e-002) (38, -3.10962104797363280000e+000) (39, -3.45911502838134770000e-001) (40, 1.78912806510925290000e+000) (41, 8.31250473856925960000e-003) (42, -4.84070599079132080000e-001) (43, 4.84794974327087400000e-001) (44, 4.63111959397792820000e-002) (45, 2.67999202013015750000e-001) (46, -1.33496478199958800000e-001) (47, -4.80204135179519650000e-001) (48, 2.26514980196952820000e-001) (49, -9.86572355031967160000e-003) (50, 1.29419231414794920000e+000) (51, 7.18253031373023990000e-002) (52, -1.06738813221454620000e-001) (53, -2.26527547836303710000e+000) (54, -2.54210829734802250000e-001) (55, -2.38293096423149110000e-001) (56, 2.61887967586517330000e-001) (57, -1.64252862334251400000e-001) (58, 3.95620428025722500000e-002) (59, 4.43275541067123410000e-001) (60, 1.93391963839530940000e-001) (61, -2.46782779693603520000e-001) (62, 3.25503766536712650000e-001) (63, 3.38061422109603880000e-001) (64, -9.59528386592864990000e-002) (65, -1.58436924219131470000e-001) (66, 1.99535727500915530000e-001) (67, 2.21535954624414440000e-002) (68, -4.46624219417572020000e-001) (69, -1.33620694279670720000e-001) (70, 3.51248115301132200000e-001) (71, 5.47905504703521730000e-001) (72, -2.86552816629409790000e-001) (73, 8.89613851904869080000e-002) (74, -1.70296177268028260000e-001) (75, 1.23369202017784120000e-001) (0, -1.50000000000000000000e+003) (1, -1.44265051269531250000e+003) (2, -1.50000000000000000000e+003) (3, -1.50000000000000000000e+003) (4, 1.47761657714843750000e+003) (5, -1.50000000000000000000e+003) (6, -1.50000000000000000000e+003) (7, 1.49757031250000000000e+003) (8, -1.50000000000000000000e+003) (9, -1.50000000000000000000e+003) (10, 1.46942407226562500000e+003) (11, -1.50000000000000000000e+003) (12, -1.50000000000000000000e+003) (13, -1.12910803222656250000e+003) (14, -1.50000000000000000000e+003) (15, -1.50000000000000000000e+003) (16, 4.88888122558593750000e+002) (17, -1.50000000000000000000e+003) (18, -1.50000000000000000000e+003) (19, -1.50000000000000000000e+003) (20, -1.50000000000000000000e+003) (21, -1.50000000000000000000e+003) (22, 1.50000000000000000000e+003) (23, -3.99210510253906250000e+002) (24, -1.50000000000000000000e+003) (25, 1.48630505371093750000e+003) (26, -1.50000000000000000000e+003) (27, -1.50000000000000000000e+003) (28, -1.26127099609375000000e+003) (29, -1.49998547363281250000e+003) (30, -1.50000000000000000000e+003) (31, -1.50000000000000000000e+003) (32, -1.50000000000000000000e+003) (33, -1.50000000000000000000e+003) (34, -1.20887097167968750000e+003) (35, -1.50000000000000000000e+003) (36, -1.50000000000000000000e+003) (37, 1.50000000000000000000e+003) (38, 1.49985412597656250000e+003) (39, -1.50000000000000000000e+003) (40, -1.50000000000000000000e+003) (41, 1.49994836425781250000e+003) (42, -1.50000000000000000000e+003) (43, 1.50000000000000000000e+003) (44, 1.50000000000000000000e+003) (45, -1.50000000000000000000e+003) (46, -1.50000000000000000000e+003) (47, -1.50000000000000000000e+003) (48, -1.50000000000000000000e+003) (49, -1.50000000000000000000e+003) (50, 4.01117614746093750000e+002) (51, -1.50000000000000000000e+003) (52, 1.50000000000000000000e+003) (53, -1.43362524414062500000e+003) (54, -1.50000000000000000000e+003) (55, -1.50000000000000000000e+003) (56, -1.25983789062500000000e+003) (57, -1.50000000000000000000e+003) (58, 1.50000000000000000000e+003) (59, 1.50000000000000000000e+003) (60, -1.50000000000000000000e+003) (61, -1.50000000000000000000e+003) (62, -1.50000000000000000000e+003) (63, -1.50000000000000000000e+003) (64, -1.50000000000000000000e+003) (65, 1.50000000000000000000e+003) (66, -1.50000000000000000000e+003) (67, 1.44782031250000000000e+003) (68, -1.49419873046875000000e+003) (69, -1.50000000000000000000e+003) (70, 1.50000000000000000000e+003) (71, -1.49979443359375000000e+003) (72, -1.50000000000000000000e+003) (73, -1.50000000000000000000e+003) (74, 1.50000000000000000000e+003) (75, -5.38120937347412110000e+000) (0, -1.36250500488281250000e+003) (1, 1.50000000000000000000e+003) (2, 1.50000000000000000000e+003) (3, -1.46258630371093750000e+003) (4, -1.50000000000000000000e+003) (5, 1.32238879394531250000e+003) (6, -8.01010681152343750000e+002) (7, 1.50000000000000000000e+003) (8, 1.50000000000000000000e+003) (9, -1.50000000000000000000e+003) (10, -1.50000000000000000000e+003) (11, 1.50000000000000000000e+003) (12, -1.50000000000000000000e+003) (13, -1.50000000000000000000e+003) (14, 1.50000000000000000000e+003) (15, -1.50000000000000000000e+003) (16, 1.50000000000000000000e+003) (17, 1.50000000000000000000e+003) (18, -1.50000000000000000000e+003) (19, -1.50000000000000000000e+003) (20, 1.50000000000000000000e+003) (21, -1.50000000000000000000e+003) (22, 1.50000000000000000000e+003) (23, 1.50000000000000000000e+003) (24, 1.49998693847656250000e+003) (25, -9.56516052246093750000e+002) (26, -1.46692065429687500000e+003) (27, -1.50000000000000000000e+003) (28, -1.50000000000000000000e+003) (29, 1.38899914550781250000e+003) (30, -1.50000000000000000000e+003) (31, -1.50000000000000000000e+003) (32, 1.50000000000000000000e+003) (33, -1.50000000000000000000e+003) (34, 1.35996429443359370000e+002) (35, 1.50000000000000000000e+003) (36, -1.50000000000000000000e+003) (37, 1.50000000000000000000e+003) (38, 1.50000000000000000000e+003) (39, 2.62963226318359370000e+002) (40, 9.95171081542968750000e+002) (41, -1.50000000000000000000e+003) (42, -1.50000000000000000000e+003) (43, -1.50000000000000000000e+003) (44, -1.50000000000000000000e+003) (45, -1.50000000000000000000e+003) (46, -1.50000000000000000000e+003) (47, 1.50000000000000000000e+003) (48, -1.50000000000000000000e+003) (49, -1.50000000000000000000e+003) (50, 1.50000000000000000000e+003) (51, -1.50000000000000000000e+003) (52, 1.50000000000000000000e+003) (53, 1.50000000000000000000e+003) (54, 1.41998840332031250000e+003) (55, 1.43299194335937500000e+003) (56, 2.53666259765625000000e+002) (57, -1.50000000000000000000e+003) (58, -1.50000000000000000000e+003) (59, -1.50000000000000000000e+003) (60, -1.50000000000000000000e+003) (61, 1.06727294921875000000e+002) (62, 1.44833081054687500000e+003) (63, -1.50000000000000000000e+003) (64, -1.50000000000000000000e+003) (65, 1.50000000000000000000e+003) (66, -1.50000000000000000000e+003) (67, 1.50000000000000000000e+003) (68, 1.50000000000000000000e+003) (69, -1.48526367187500000000e+003) (70, -1.50000000000000000000e+003) (71, 1.50000000000000000000e+003) (72, -1.50000000000000000000e+003) (73, -1.50000000000000000000e+003) (74, -1.22515234375000000000e+003) (75, 1.50000000000000000000e+003) (0, -1.53518855571746830000e-001) (1, -2.66159772872924800000e-001) (2, 6.57062113285064700000e-001) (3, -1.27698779106140140000e-001) (4, 5.22637307643890380000e-001) (5, -2.90292382240295410000e-001) (6, 1.25886231660842900000e-001) (7, 4.00205194950103760000e-001) (8, -1.35170482099056240000e-002) (9, 1.16128332912921910000e-001) (10, -1.14295519888401030000e-001) (11, -6.51209175586700440000e-001) (12, -2.20427095890045170000e-001) (13, -1.10075032711029050000e+000) (14, 4.63599622249603270000e-001) (15, 6.42099976539611820000e-002) (16, 6.76019847393035890000e-001) (17, -3.05234402418136600000e-001) (18, 2.95732557773590090000e-001) (19, 9.66152608394622800000e-001) (20, 5.81716179847717290000e-001) (21, -4.62570190429687500000e-001) (22, -2.18662476539611820000e+000) (23, -1.38460171222686770000e+000) (24, -1.39412775635719300000e-001) (25, 1.02119123935699460000e+000) (26, 4.37370449304580690000e-001) (27, -8.81284415721893310000e-001) (28, 8.65168571472167970000e-001) (29, 1.10249733924865720000e+000) (30, -6.78465366363525390000e-002) (31, -1.71447694301605220000e+000) (32, 7.16100096702575680000e-001) (33, 3.20036977529525760000e-001) (34, 3.54297041893005370000e+000) (35, 9.67333734035491940000e-001) (36, -1.29813802242279050000e+000) (37, 5.66457271575927730000e-001) (38, 3.26644718647003170000e-001) (39, -6.03238821029663090000e-001) (40, 2.67836356163024900000e+000) (41, 1.69499135017395020000e+000) (42, -2.51068323850631710000e-001) (43, 9.21309411525726320000e-001) (44, 1.32885825634002690000e+000) (45, 7.90307372808456420000e-002) (46, 1.09100162982940670000e+000) (47, 4.72604215145111080000e-001) (48, -7.91606679558753970000e-002) (49, 1.14710211753845210000e+000) (50, 4.59937423467636110000e-001) (51, -7.89755821228027340000e-001) (52, -2.52583408355712890000e+000) (53, 1.92854011058807370000e+000) (54, -2.90375530719757080000e-001) (55, -4.60196614265441890000e-001) (56, 2.82992422580718990000e-001) (57, -1.86822265386581420000e-001) (58, 1.62048235535621640000e-001) (59, 1.59504604339599610000e+000) (60, -1.94340690970420840000e-001) (61, 3.25249321758747100000e-002) (62, 4.86543625593185420000e-001) (63, -1.38857990503311160000e-001) (64, 9.93904411792755130000e-001) (65, 3.13317209482192990000e-001) (66, -3.12633365392684940000e-001) (67, -1.81025296449661250000e-001) (68, -1.16304290294647220000e+000) (69, 3.10254096984863280000e-001) (70, -1.29549980163574220000e+000) (71, 1.25713527202606200000e+000) (72, -9.73717272281646730000e-002) (73, 3.75046253204345700000e-001) (74, 1.89760804176330570000e+000) (75, -8.83701503276824950000e-001) (0, -2.89137268066406250000e+002) (1, 1.49741027832031250000e+003) (2, -1.49535290527343750000e+003) (3, 8.86547088623046880000e+001) (4, 1.34964526367187500000e+003) (5, 3.61667144775390620000e+002) (6, 1.49998779296875000000e+003) (7, -1.22624230957031250000e+003) (8, 1.49661645507812500000e+003) (9, 1.49998596191406250000e+003) (10, 1.48479577636718750000e+003) (11, 1.08066882324218750000e+003) (12, 1.49999035644531250000e+003) (13, -3.22925476074218750000e+002) (14, -5.07677886962890620000e+002) (15, 3.99335266113281250000e+002) (16, 1.50000000000000000000e+003) (17, 1.32516857910156250000e+003) (18, 1.74542942047119140000e+001) (19, 9.93211791992187500000e+002) (20, 1.49999816894531250000e+003) (21, 1.49999670410156250000e+003) (22, 1.48563439941406250000e+003) (23, 6.20477539062500000000e+002) (24, 3.61273620605468750000e+002) (25, -1.41300805664062500000e+003) (26, -1.48954077148437500000e+003) (27, 1.43340661621093750000e+003) (28, 1.02617138671875000000e+003) (29, 1.50000000000000000000e+003) (30, 1.82179565429687500000e+002) (31, 1.49999682617187500000e+003) (32, 1.49755871582031250000e+003) (33, -1.50000000000000000000e+003) (34, -1.49316613769531250000e+003) (35, 1.49909521484375000000e+003) (36, 1.20667993164062500000e+003) (37, 1.47246813964843750000e+003) (38, 1.49996936035156250000e+003) (39, 7.12327957153320310000e+001) (40, -1.50000000000000000000e+003) (41, -1.50000000000000000000e+003) (42, -1.16274279785156250000e+003) (43, 1.50000000000000000000e+003) (44, 5.89095947265625000000e+002) (45, 1.01270538330078120000e+003) (46, -8.87808227539062500000e+002) (47, 1.50000000000000000000e+003) (48, 8.27160522460937500000e+002) (49, 1.50000000000000000000e+003) (50, 1.32684020996093750000e+003) (51, 1.47517858886718750000e+003) (52, 1.46381286621093750000e+003) (53, 7.26899902343750000000e+002) (54, 1.09522521972656250000e+002) (55, -1.50000000000000000000e+003) (56, -1.50000000000000000000e+003) (57, 2.43007781982421870000e+002) (58, 1.49999804687500000000e+003) (59, -1.33670776367187500000e+003) (60, -1.49997949218750000000e+003) (61, 1.03361669921875000000e+003) (62, 1.49957177734375000000e+003) (63, 1.37670745849609370000e+002) (64, -1.34917236328125000000e+003) (65, 1.31436730957031250000e+003) (66, 6.10400867462158200000e+000) (67, 5.75629211425781250000e+002) (68, 1.50000000000000000000e+003) (69, 8.45766830444335940000e+000) (70, 1.18842907714843750000e+003) (71, 1.50000000000000000000e+003) (72, 1.70925045013427730000e+001) (73, 1.50000000000000000000e+003) (74, 1.42875122070312500000e+003) (75, 1.50000000000000000000e+003) (0, 2.24778652191162110000e-001) (1, 3.07097101211547850000e+000) (2, 1.46372139453887940000e+000) (3, 1.40424534678459170000e-001) (4, 3.14715790748596190000e+000) (5, -4.04792934656143190000e-001) (6, 3.54119241237640380000e-001) (7, 1.94197690486907960000e+000) (8, -4.58611816167831420000e-001) (9, 8.63014936447143550000e-001) (10, 1.51358973979949950000e+000) (11, 2.41151976585388180000e+000) (12, 1.29639840126037600000e+000) (13, 3.41966557502746580000e+000) (14, -2.38595509529113770000e+000) (15, 2.80947145074605940000e-002) (16, 1.99337291717529300000e+000) (17, -1.38860476016998290000e+000) (18, -6.66218325495719910000e-002) (19, -4.53971296548843380000e-001) (20, -1.80192959308624270000e+000) (21, 1.75490066409111020000e-001) (22, 6.54852008819580080000e+000) (23, 2.74558275938034060000e-001) (24, 8.93970012664794920000e-001) (25, 1.81264722347259520000e+000) (26, 2.66045361757278440000e-001) (27, 1.44670331478118900000e+000) (28, -5.73118388652801510000e-001) (29, 2.16046881675720210000e+000) (30, 2.65899039804935460000e-002) (31, -3.19140136241912840000e-001) (32, -4.49792623519897460000e+000) (33, -2.47023391723632810000e+000) (34, 8.15989315509796140000e-001) (35, 2.16274356842041020000e+000) (36, 1.33992099761962890000e+000) (37, 1.27834386825561520000e+001) (38, 3.51279497146606450000e+000) (39, 6.54788875579833980000e+000) (40, -8.93200874328613280000e+000) (41, 2.27280092239379880000e+000) (42, 1.59793972969055180000e+000) (43, -1.34047305583953860000e+000) (44, -2.20804262161254880000e+000) (45, 1.26327350735664370000e-001) (46, 1.40708887577056880000e+000) (47, 1.48214742541313170000e-001) (48, 3.55952322483062740000e-001) (49, 5.95766544342041020000e+000) (50, 3.07106137275695800000e+000) (51, 5.71566581726074220000e-001) (52, 6.59435367584228520000e+000) (53, 2.53520280122756960000e-001) (54, 1.35372376441955570000e+000) (55, -4.94971990585327150000e-001) (56, -1.86682462692260740000e-001) (57, 1.37581980228424070000e+000) (58, -1.90471827983856200000e+000) (59, 2.28292441368103030000e+000) (60, 2.56784826517105100000e-001) (61, -5.74901103973388670000e-001) (62, 3.69051623344421390000e+000) (63, 3.62486213445663450000e-001) (64, -4.20234709978103640000e-001) (65, -1.08551943302154540000e+000) (66, 2.51828193664550780000e-001) (67, 4.48662996292114260000e+000) (68, -2.25558638572692870000e+000) (69, 8.92573893070220950000e-001) (70, 4.08484029769897460000e+000) (71, -5.55885612964630130000e-001) (72, 1.18982338905334470000e+000) (73, 5.92362117767333980000e+000) (74, -3.39551401138305660000e+000) (75, 4.87594871520996090000e+001) (0, -1.50000000000000000000e+003) (1, -1.50000000000000000000e+003) (2, -1.50000000000000000000e+003) (3, -1.50000000000000000000e+003) (4, 1.50000000000000000000e+003) (5, -1.50000000000000000000e+003) (6, -1.50000000000000000000e+003) (7, 1.42946850585937500000e+003) (8, 5.33024047851562500000e+002) (9, -1.50000000000000000000e+003) (10, -1.50000000000000000000e+003) (11, -1.50000000000000000000e+003) (12, -1.50000000000000000000e+003) (13, -1.50000000000000000000e+003) (14, 1.50000000000000000000e+003) (15, -1.50000000000000000000e+003) (16, 1.50000000000000000000e+003) (17, -1.03045361328125000000e+003) (18, -1.50000000000000000000e+003) (19, -1.50000000000000000000e+003) (20, 4.78390380859375000000e+002) (21, -1.50000000000000000000e+003) (22, 1.50000000000000000000e+003) (23, 1.50000000000000000000e+003) (24, -1.50000000000000000000e+003) (25, -3.54837890625000000000e+002) (26, 1.34499011230468750000e+003) (27, -1.50000000000000000000e+003) (28, -1.50000000000000000000e+003) (29, 1.50000000000000000000e+003) (30, -1.50000000000000000000e+003) (31, -1.50000000000000000000e+003) (32, -1.50000000000000000000e+003) (33, -1.50000000000000000000e+003) (34, -1.49024975585937500000e+003) (35, -4.81364974975585940000e+001) (36, -1.50000000000000000000e+003) (37, 1.50000000000000000000e+003) (38, 1.50000000000000000000e+003) (39, -1.50000000000000000000e+003) (40, -1.50000000000000000000e+003) (41, -1.50000000000000000000e+003) (42, -1.50000000000000000000e+003) (43, 1.50000000000000000000e+003) (44, 1.50000000000000000000e+003) (45, -1.50000000000000000000e+003) (46, -1.50000000000000000000e+003) (47, 1.50000000000000000000e+003) (48, -1.50000000000000000000e+003) (49, 1.50000000000000000000e+003) (50, 1.15353649902343750000e+003) (51, -1.50000000000000000000e+003) (52, 1.50000000000000000000e+003) (53, -1.50000000000000000000e+003) (54, -1.50000000000000000000e+003) (55, -1.50000000000000000000e+003) (56, -1.50000000000000000000e+003) (57, -1.50000000000000000000e+003) (58, 7.68441772460937500000e+002) (59, -1.16648645019531250000e+003) (60, -1.50000000000000000000e+003) (61, -1.50000000000000000000e+003) (62, 1.50000000000000000000e+003) (63, -1.50000000000000000000e+003) (64, 1.29602307128906250000e+003) (65, 1.50000000000000000000e+003) (66, -1.50000000000000000000e+003) (67, -1.36951574707031250000e+003) (68, 4.48319854736328120000e+002) (69, -1.50000000000000000000e+003) (70, 6.29787414550781250000e+002) (71, 4.11312408447265620000e+002) (72, -1.50000000000000000000e+003) (73, -1.50000000000000000000e+003) (74, 1.28180004882812500000e+003) (75, -1.49999255371093750000e+003) (0, 9.41343083977699280000e-002) (1, 2.25603148341178890000e-001) (2, -1.57998770475387570000e-001) (3, 1.82612821459770200000e-001) (4, 3.71899604797363280000e-001) (5, -3.30628976225852970000e-002) (6, 6.24231174588203430000e-002) (7, 9.63085412979125980000e-001) (8, -7.53956139087677000000e-001) (9, -2.96064376831054690000e-001) (10, 6.50066912174224850000e-001) (11, -2.38516882061958310000e-001) (12, -3.17536890506744380000e-001) (13, 2.21167132258415220000e-001) (14, -8.34977746009826660000e-001) (15, 2.31703802943229680000e-001) (16, 1.08448892831802370000e-001) (17, -1.90227538347244260000e-001) (18, 4.18698132038116460000e-001) (19, -2.42181438952684400000e-002) (20, 5.76766952872276310000e-002) (21, 3.23716312646865840000e-001) (22, -4.60893779993057250000e-001) (23, -9.25899982452392580000e-001) (24, -1.42001926898956300000e-001) (25, 6.28924608230590820000e-001) (26, 3.34694832563400270000e-001) (27, -2.52422094345092770000e-001) (28, 2.91994929313659670000e-001) (29, 3.31162735819816590000e-002) (30, -7.23278969526290890000e-002) (31, -5.38250729441642760000e-002) (32, 5.23590624332427980000e-001) (33, 1.44791483879089360000e+000) (34, -2.11499854922294620000e-002) (35, 5.94172239303588870000e-001) (36, 3.40235561132431030000e-001) (37, -2.77233672142028810000e+000) (38, 5.22357285022735600000e-001) (39, -2.70021796226501460000e-001) (40, 2.71006345748901370000e-001) (41, 2.51215875148773190000e-001) (42, -4.73474204540252690000e-001) (43, 2.08586499094963070000e-001) (44, -2.28411376476287840000e-001) (45, 2.06225007772445680000e-001) (46, 2.50622611492872240000e-002) (47, 5.02225339412689210000e-001) (48, 3.90816688537597660000e-001) (49, -5.67592419683933260000e-002) (50, 3.15009146928787230000e-001) (51, 7.84186571836471560000e-002) (52, -2.89102882146835330000e-001) (53, 2.37026020884513850000e-001) (54, -2.66689091920852660000e-001) (55, 2.86235958337783810000e-001) (56, 8.15911352634429930000e-001) (57, -2.89121896028518680000e-001) (58, -8.07224512100219730000e-002) (59, 6.77772939205169680000e-001) (60, 1.43520653247833250000e-001) (61, 3.40294808149337770000e-001) (62, 1.62967786192893980000e-001) (63, 2.94645845890045170000e-001) (64, 6.39247715473175050000e-001) (65, -2.27028250694274900000e-001) (66, 1.55457481741905210000e-001) (67, 9.30139362812042240000e-001) (68, 1.09641058370471000000e-002) (69, -4.19786900281906130000e-001) (70, 4.67862784862518310000e-001) (71, -1.81834213435649870000e-002) (72, -3.38762670755386350000e-001) (73, 2.60942041873931880000e-001) (74, -3.92324656248092650000e-001) (75, 2.56089985370635990000e-001) (0, -1.50000000000000000000e+003) (1, 1.49815283203125000000e+003) (2, -1.50000000000000000000e+003) (3, -1.50000000000000000000e+003) (4, -1.49938427734375000000e+003) (5, -1.49999462890625000000e+003) (6, -1.50000000000000000000e+003) (7, 1.50000000000000000000e+003) (8, -1.49996179199218750000e+003) (9, -1.50000000000000000000e+003) (10, 1.50000000000000000000e+003) (11, -1.50000000000000000000e+003) (12, -1.50000000000000000000e+003) (13, 1.50000000000000000000e+003) (14, -1.50000000000000000000e+003) (15, -1.50000000000000000000e+003) (16, -1.50000000000000000000e+003) (17, -1.50000000000000000000e+003) (18, -1.50000000000000000000e+003) (19, -3.12697052001953120000e+002) (20, 1.26229626464843750000e+003) (21, -1.50000000000000000000e+003) (22, 1.50000000000000000000e+003) (23, -1.49994958496093750000e+003) (24, -1.50000000000000000000e+003) (25, -1.19812854003906250000e+003) (26, -1.50000000000000000000e+003) (27, -1.45062109375000000000e+003) (28, -1.42676000976562500000e+003) (29, -1.50000000000000000000e+003) (30, -1.50000000000000000000e+003) (31, -1.50000000000000000000e+003) (32, 1.49788537597656250000e+003) (33, -1.50000000000000000000e+003) (34, -1.50000000000000000000e+003) (35, -1.43096875000000000000e+003) (36, -1.50000000000000000000e+003) (37, 1.50000000000000000000e+003) (38, -8.60091186523437500000e+002) (39, -1.50000000000000000000e+003) (40, -1.50000000000000000000e+003) (41, -1.50000000000000000000e+003) (42, -1.50000000000000000000e+003) (43, 1.50000000000000000000e+003) (44, -1.50000000000000000000e+003) (45, -1.50000000000000000000e+003) (46, -1.50000000000000000000e+003) (47, 3.33261474609375000000e+002) (48, -1.50000000000000000000e+003) (49, -1.50000000000000000000e+003) (50, -1.42928356933593750000e+003) (51, -1.50000000000000000000e+003) (52, 1.50000000000000000000e+003) (53, -1.50000000000000000000e+003) (54, -1.49998181152343750000e+003) (55, 1.05617211914062500000e+003) (56, -1.50000000000000000000e+003) (57, -1.50000000000000000000e+003) (58, 1.50000000000000000000e+003) (59, -1.50000000000000000000e+003) (60, -1.50000000000000000000e+003) (61, -1.50000000000000000000e+003) (62, -1.50000000000000000000e+003) (63, -1.50000000000000000000e+003) (64, 1.50000000000000000000e+003) (65, -1.30798571777343750000e+003) (66, -1.50000000000000000000e+003) (67, 1.50000000000000000000e+003) (68, 1.50000000000000000000e+003) (69, -1.50000000000000000000e+003) (70, 1.50000000000000000000e+003) (71, -1.50000000000000000000e+003) (72, -1.50000000000000000000e+003) (73, -1.24644665527343750000e+003) (74, 6.22038330078125000000e+002) (75, 1.50000000000000000000e+003) (0, 1.12746393680572510000e+000) (1, -1.49999414062500000000e+003) (2, -1.50000000000000000000e+003) (3, 2.75077271461486820000e+000) (4, 1.50000000000000000000e+003) (5, -1.50000000000000000000e+003) (6, -3.60618209838867190000e+001) (7, -1.50000000000000000000e+003) (8, -1.50000000000000000000e+003) (9, 4.66290146112442020000e-001) (10, -4.83685211181640620000e+002) (11, -2.06254935264587400000e+000) (12, -4.88753259181976320000e-001) (13, -1.50000000000000000000e+003) (14, -6.42334518432617190000e+001) (15, 7.33549714088439940000e-001) (16, 1.50000000000000000000e+003) (17, -1.50000000000000000000e+003) (18, 1.50000000000000000000e+003) (19, 1.50000000000000000000e+003) (20, -1.50000000000000000000e+003) (21, -9.92260426282882690000e-002) (22, -1.50000000000000000000e+003) (23, -1.50000000000000000000e+003) (24, -1.50000000000000000000e+003) (25, 1.50000000000000000000e+003) (26, -1.49431896972656250000e+003) (27, -9.62620620727539060000e+001) (28, 1.50000000000000000000e+003) (29, 1.44930541992187500000e+003) (30, 4.07833290100097660000e+001) (31, 1.50000000000000000000e+003) (32, -1.50000000000000000000e+003) (33, 1.50000000000000000000e+003) (34, 1.50000000000000000000e+003) (35, -1.50000000000000000000e+003) (36, 3.12292623519897460000e+000) (37, -1.50000000000000000000e+003) (38, -1.50000000000000000000e+003) (39, -1.50000000000000000000e+003) (40, 1.50000000000000000000e+003) (41, -1.26912719726562500000e+003) (42, -3.97474273681640620000e+002) (43, 1.50000000000000000000e+003) (44, 1.50000000000000000000e+003) (45, 1.27419984340667720000e+000) (46, 1.50000000000000000000e+003) (47, -1.50000000000000000000e+003) (48, 4.11476898193359370000e+002) (49, 1.50000000000000000000e+003) (50, -1.50000000000000000000e+003) (51, -1.43313086032867430000e+000) (52, -1.50000000000000000000e+003) (53, -1.50000000000000000000e+003) (54, -2.78311553955078120000e+002) (55, 1.50000000000000000000e+003) (56, -1.48905090332031250000e+003) (57, -1.67560272216796880000e+001) (58, 1.50000000000000000000e+003) (59, 1.50000000000000000000e+003) (60, 3.40882802009582520000e+000) (61, 1.50000000000000000000e+003) (62, -1.50000000000000000000e+003) (63, 1.50000000000000000000e+003) (64, 1.00294970703125000000e+003) (65, -1.50000000000000000000e+003) (66, -8.41173458099365230000e+000) (67, -1.50000000000000000000e+003) (68, -1.98866943359375000000e+002) (69, 6.20396137237548830000e-001) (70, -1.50000000000000000000e+003) (71, 1.50000000000000000000e+003) (72, -3.83871612548828120000e+002) (73, 1.50000000000000000000e+003) (74, 1.50000000000000000000e+003) (75, 1.50000000000000000000e+003) (0, -4.79085117578506470000e-001) (1, -4.36100840568542480000e-001) (2, 1.09387412667274480000e-001) (3, 6.14436827600002290000e-002) (4, -2.30895608663558960000e-001) (5, 5.13330623507499690000e-002) (6, 3.09468269348144530000e-001) (7, 1.35340154170989990000e-001) (8, -1.98088847100734710000e-002) (9, 3.35323363542556760000e-002) (10, 4.27886277437210080000e-001) (11, 2.98367083072662350000e-001) (12, -4.30368632078170780000e-001) (13, 1.98625117540359500000e-001) (14, -4.78209257125854490000e-001) (15, 1.24116204679012300000e-001) (16, 3.05071827024221420000e-002) (17, -7.88866728544235230000e-002) (18, 3.40928345918655400000e-001) (19, 5.89470386505126950000e-001) (20, 1.11324474215507510000e-001) (21, 6.42628848552703860000e-001) (22, 6.26855611801147460000e-001) (23, 3.22260499000549320000e-001) (24, 2.89891809225082400000e-001) (25, 3.25470715761184690000e-001) (26, -1.04837465286254880000e+000) (27, 7.91894793510437010000e-002) (28, 3.88617634773254390000e-001) (29, 4.62410002946853640000e-002) (30, 7.11331516504287720000e-002) (31, 2.81676113605499270000e-001) (32, 3.60354155302047730000e-001) (33, 6.14633202552795410000e-001) (34, 1.07692465186119080000e-001) (35, 3.23363170027732850000e-002) (36, 7.89760828018188480000e-001) (37, 2.70781493186950680000e+000) (38, 1.14234697818756100000e+000) (39, 1.05676078796386720000e+000) (40, -8.96066367626190190000e-001) (41, -1.46778774261474610000e+000) (42, 2.00889334082603450000e-001) (43, -4.92813766002655030000e-001) (44, 1.42621889710426330000e-001) (45, -2.01321467757225040000e-002) (46, 2.52359546720981600000e-002) (47, -2.33040198683738710000e-001) (48, 2.80845940113067630000e-001) (49, 4.83184099197387700000e-001) (50, 4.67208236455917360000e-001) (51, 3.33126246929168700000e-001) (52, 8.13260495662689210000e-001) (53, 1.13215398788452150000e+000) (54, 2.21696436405181880000e-001) (55, 3.20098906755447390000e-001) (56, -1.32344520092010500000e+000) (57, -4.05213832855224610000e-002) (58, 5.85284009575843810000e-002) (59, 2.21718832850456240000e-001) (60, -1.40399113297462460000e-001) (61, 3.93546745181083680000e-002) (62, -3.08288961648941040000e-001) (63, -1.14283733069896700000e-001) (64, -1.26932829618453980000e-001) (65, -4.10675555467605590000e-001) (66, 1.95723757147789000000e-001) (67, 2.16519415378570560000e-001) (68, 1.03795744478702550000e-001) (69, -8.33631977438926700000e-002) (70, 1.10402822494506840000e-001) (71, 1.04245893657207490000e-001) (72, -2.02555865049362180000e-001) (73, -5.88180124759674070000e-002) (74, -8.84180068969726560000e-002) (75, -1.78309535980224610000e+001) (0, -2.81168117523193360000e+001) (1, -1.44702197265625000000e+003) (2, -2.34605383872985840000e+000) (3, 2.65453130006790160000e-001) (4, 1.50000000000000000000e+003) (5, 1.47508361816406250000e+003) (6, -7.06480255126953120000e+001) (7, -1.50000000000000000000e+003) (8, -1.50000000000000000000e+003) (9, 1.98752415180206300000e+000) (10, -3.36709976196289060000e+001) (11, 3.88468360900878910000e+000) (12, 5.25418400764465330000e-001) (13, -1.50000000000000000000e+003) (14, 1.44595520019531250000e+003) (15, -3.88714385032653810000e+000) (16, 1.50000000000000000000e+003) (17, -8.38806629180908200000e+000) (18, 1.50000000000000000000e+003) (19, 1.50000000000000000000e+003) (20, -1.50000000000000000000e+003) (21, -1.81973133087158200000e+001) (22, -1.50000000000000000000e+003) (23, -1.50000000000000000000e+003) (24, -8.07981872558593750000e+000) (25, 1.50000000000000000000e+003) (26, -3.81046384572982790000e-002) (27, -1.41733203125000000000e+003) (28, 1.50000000000000000000e+003) (29, 6.86700582504272460000e+000) (30, 1.31015181541442870000e+000) (31, 1.50000000000000000000e+003) (32, -3.77507995605468750000e+002) (33, 1.12615631103515620000e+002) (34, 1.50000000000000000000e+003) (35, -1.50000000000000000000e+003) (36, -7.45308593750000000000e+002) (37, -1.50000000000000000000e+003) (38, -1.50000000000000000000e+003) (39, 1.40363657474517820000e+000) (40, 1.50000000000000000000e+003) (41, -1.99304412841796870000e+002) (42, -3.91542029380798340000e+000) (43, -1.09344934082031250000e+003) (44, 5.23006856441497800000e-001) (45, 9.83519375324249270000e-001) (46, 1.50000000000000000000e+003) (47, -1.50000000000000000000e+003) (48, 8.22146534919738770000e-001) (49, 1.50000000000000000000e+003) (50, -1.50000000000000000000e+003) (51, -5.16125854492187500000e+002) (52, -1.50000000000000000000e+003) (53, 1.70879020690917970000e+001) (54, 1.02016758918762210000e+000) (55, 1.50000000000000000000e+003) (56, -1.49263183593750000000e+003) (57, -4.72731170654296870000e+001) (58, 1.50000000000000000000e+003) (59, -1.27373390197753910000e+002) (60, 2.99876004457473750000e-001) (61, 1.50000000000000000000e+003) (62, -2.44384841918945310000e+001) (63, -1.41050779819488530000e+000) (64, 1.50000000000000000000e+003) (65, -1.50000000000000000000e+003) (66, 4.31105732917785640000e-001) (67, -1.50000000000000000000e+003) (68, -5.11453568935394290000e-001) (69, 1.01675271987915040000e+000) (70, -1.50000000000000000000e+003) (71, 1.50000000000000000000e+003) (72, -2.85614222288131710000e-001) (73, 1.50000000000000000000e+003) (74, 1.50000000000000000000e+003) (75, 1.50000000000000000000e+003) (0, -2.07572847604751590000e-001) (1, 1.24361433088779450000e-001) (2, -4.26699705421924590000e-002) (3, -9.97813344001770020000e-002) (4, 1.50921151041984560000e-001) (5, 2.34616219997406010000e-001) (6, 1.87220588326454160000e-001) (7, 4.22112345695495610000e-001) (8, -7.76350945234298710000e-002) (9, 3.46225857734680180000e-001) (10, -8.61483573913574220000e-001) (11, -5.70162907242774960000e-002) (12, 7.60793566703796390000e-001) (13, -1.85396954417228700000e-001) (14, 7.28401541709899900000e-002) (15, 1.99494853615760800000e-001) (16, 1.56515892595052720000e-002) (17, 3.94996136426925660000e-001) (18, 4.61002081632614140000e-001) (19, -1.78492799401283260000e-001) (20, 5.19673824310302730000e-001) (21, 3.94729256629943850000e-001) (22, -9.16222095489501950000e-001) (23, -1.83381021022796630000e-001) (24, 2.04765462875366210000e+000) (25, 1.67825855314731600000e-002) (26, -1.65489077568054200000e+000) (27, 4.10582512617111210000e-001) (28, -7.07658901810646060000e-002) (29, 9.73052918910980220000e-001) (30, 2.14672669768333440000e-001) (31, 3.29809159040451050000e-001) (32, 4.67819981276988980000e-002) (33, 1.13181197643280030000e+000) (34, 7.19625234603881840000e-001) (35, -1.20586492121219640000e-001) (36, 2.57029533386230470000e-001) (37, 2.03281307220458980000e+000) (38, 1.05513834953308110000e+000) (39, 1.56546723842620850000e+000) (40, 5.30303083360195160000e-002) (41, 5.28283655643463130000e-001) (42, 5.80350935459136960000e-001) (43, 4.68958914279937740000e-001) (44, -8.04008603096008300000e-001) (45, 2.96606898307800290000e-001) (46, 1.43677428364753720000e-001) (47, -7.10162818431854250000e-001) (48, 1.06267757713794710000e-001) (49, -8.19633994251489640000e-003) (50, 5.56275784969329830000e-001) (51, 4.46608901023864750000e-001) (52, -2.17322155833244320000e-001) (53, 4.53200668096542360000e-001) (54, 4.52431976795196530000e-001) (55, -1.45606696605682370000e-001) (56, -1.65078252553939820000e-001) (57, 4.12863224744796750000e-001) (58, -1.86554998159408570000e-001) (59, -4.94496226310729980000e-001) (60, -3.16768646240234380000e-001) (61, 2.11899474263191220000e-001) (62, 9.32385385036468510000e-001) (63, -3.77965062856674190000e-001) (64, 1.42835602164268490000e-001) (65, -8.50777506828308110000e-001) (66, -4.21450398862361910000e-002) (67, 7.42465406656265260000e-002) (68, 3.27582836151123050000e-001) (69, 3.00189822912216190000e-001) (70, 1.55062586069107060000e-001) (71, -1.92082777619361880000e-001) (72, 1.13792456686496730000e-001) (73, 1.28211438655853270000e-001) (74, -2.36535862088203430000e-001) (75, 1.33048892021179200000e+000) (0, 5.97504004836082460000e-002) (1, 2.26673502475023270000e-002) (2, -1.11430222168564800000e-002) (3, 7.17975944280624390000e-002) (4, 9.16909649968147280000e-002) (5, -4.65393885970115660000e-002) (6, 5.15727400779724120000e-002) (7, 3.40453177690505980000e-001) (8, 1.93039894104003910000e-001) (9, -1.75861716270446780000e-001) (10, 3.36869359016418460000e-001) (11, -1.28165960311889650000e-001) (12, -1.92654132843017580000e-001) (13, 1.19877502322196960000e-001) (14, 1.81321024894714360000e-001) (15, 1.14273063838481900000e-001) (16, 9.39915627241134640000e-002) (17, 1.86540380120277400000e-001) (18, 2.42538854479789730000e-001) (19, 1.72479495406150820000e-001) (20, 1.06474518775939940000e-001) (21, 1.65455684065818790000e-001) (22, -1.36702269315719600000e-001) (23, -4.13402915000915530000e-001) (24, -2.46521756052970890000e-001) (25, -1.04451365768909450000e-001) (26, -2.03887134790420530000e-001) (27, 1.36735113337635990000e-002) (28, -6.76892399787902830000e-002) (29, 1.69717699289321900000e-001) (30, 2.04354286193847660000e-001) (31, 9.35170575976371770000e-002) (32, 2.39743039011955260000e-001) (33, 5.96084773540496830000e-001) (34, 2.30557531118392940000e-001) (35, 8.70623886585235600000e-001) (36, 2.58125625550746920000e-002) (37, -1.77605748176574710000e+000) (38, -1.37067902088165280000e+000) (39, -8.03485661745071410000e-002) (40, -1.95883110165596010000e-001) (41, 1.23651646077632900000e-001) (42, 7.76848942041397090000e-002) (43, -9.46326851844787600000e-002) (44, 2.63576414436101910000e-002) (45, 1.62356078624725340000e-001) (46, 9.81525108218193050000e-002) (47, 2.00554952025413510000e-001) (48, 1.73963591456413270000e-001) (49, 2.77713537216186520000e-001) (50, 2.56689101457595830000e-001) (51, 1.19090221822261810000e-001) (52, 2.55425184965133670000e-001) (53, -5.98423540592193600000e-001) (54, -2.60842055082321170000e-001) (55, 2.83836960792541500000e-001) (56, 2.38775499165058140000e-002) (57, -2.34445244073867800000e-001) (58, 1.09013222157955170000e-001) (59, 1.61086902022361760000e-001) (60, -1.67440306395292280000e-002) (61, 3.15296836197376250000e-002) (62, -5.72204217314720150000e-002) (63, 9.35463458299636840000e-002) (64, 7.38038197159767150000e-002) (65, 4.66585196554660800000e-002) (66, 1.76897644996643070000e-001) (67, 3.83681178092956540000e-001) (68, -1.43707394599914550000e-001) (69, -2.70252794027328490000e-001) (70, 2.93862760066986080000e-001) (71, 1.70379519462585450000e-001) (72, -1.20563574135303500000e-001) (73, 2.11634337902069090000e-002) (74, -1.88551414757967000000e-002) (75, -3.57973551750183110000e+000) (0, 1.99662223458290100000e-002) (1, -2.58613424375653270000e-003) (2, -2.38670304417610170000e-001) (3, 1.15868739783763890000e-001) (4, 1.17010295391082760000e-001) (5, -2.49948829412460330000e-001) (6, 1.38404592871665950000e-001) (7, 1.77886188030242920000e-001) (8, 3.57778817415237430000e-001) (9, 3.03109008818864820000e-002) (10, 2.10212707519531250000e-001) (11, -6.62827253341674800000e-001) (12, -1.06486968696117400000e-001) (13, 1.80006355047225950000e-001) (14, 3.03643941879272460000e-001) (15, 1.94766685366630550000e-001) (16, 4.60008271038532260000e-002) (17, 1.04406706988811490000e-001) (18, 1.81628555059432980000e-001) (19, 2.69220471382141110000e-001) (20, 5.23187890648841860000e-002) (21, 1.92089527845382690000e-001) (22, 4.79048162698745730000e-001) (23, -4.80405762791633610000e-002) (24, -1.14082477986812590000e-001) (25, 2.52662330865859990000e-001) (26, 3.39096873998641970000e-001) (27, -6.50422871112823490000e-002) (28, 1.10920064151287080000e-001) (29, -2.46855779550969600000e-003) (30, 6.56530499458312990000e-001) (31, 3.80624741315841670000e-001) (32, -6.09352961182594300000e-002) (33, 5.33960640430450440000e-001) (34, 5.88076412677764890000e-001) (35, -9.84714478254318240000e-002) (36, 1.89861908555030820000e-001) (37, 3.06081831455230710000e-001) (38, -2.41557270288467410000e-001) (39, -2.90232896804809570000e+000) (40, 8.72731089591979980000e-001) (41, 4.85033355653285980000e-002) (42, -3.99004667997360230000e-001) (43, 4.74310033023357390000e-002) (44, 7.11348885670304300000e-003) (45, 5.82419633865356450000e-002) (46, -1.15664288401603700000e-001) (47, -1.93355113267898560000e-001) (48, 1.76533386111259460000e-001) (49, 1.77482590079307560000e-001) (50, 5.76063036918640140000e-001) (51, -2.23623476922512050000e-002) (52, 1.55510231852531430000e-001) (53, -1.09650716185569760000e-001) (54, 9.64054316282272340000e-002) (55, 3.00307542085647580000e-001) (56, 9.41241011023521420000e-002) (57, -2.32535615563392640000e-001) (58, 1.54356747865676880000e-001) (59, 1.14897310733795170000e-001) (60, 1.12245261669158940000e-001) (61, 1.99927672743797300000e-001) (62, -8.60473066568374630000e-002) (63, 3.84707778692245480000e-001) (64, 4.14833992719650270000e-001) (65, -2.07246825098991390000e-001) (66, -8.78441482782363890000e-002) (67, 4.13189888000488280000e-001) (68, 5.09041845798492430000e-001) (69, -3.51382195949554440000e-001) (70, 1.04557409882545470000e-001) (71, -9.25128683447837830000e-002) (72, -1.10936157405376430000e-001) (73, -1.59940123558044430000e-002) (74, -1.84536799788475040000e-001) (75, 1.13886909484863280000e+001) (0, -9.55936014652252200000e-002) (1, -9.12671163678169250000e-003) (2, -1.23413316905498500000e-001) (3, -8.80971550941467290000e-002) (4, 2.31749266386032100000e-002) (5, -2.04516470432281490000e-001) (6, -1.23100921511650090000e-001) (7, -9.40394699573516850000e-002) (8, 1.51016265153884890000e-001) (9, 1.74879759550094600000e-001) (10, 5.93690946698188780000e-002) (11, 1.44277602434158330000e-001) (12, 4.76914420723915100000e-002) (13, -8.05869791656732560000e-003) (14, -1.98470726609230040000e-001) (15, 2.03586881980299950000e-003) (16, 1.23714178800582890000e-001) (17, 3.84515114128589630000e-002) (18, 1.80486664175987240000e-001) (19, 1.93371430039405820000e-001) (20, 2.73661494255065920000e-001) (21, 5.89836612343788150000e-002) (22, 1.07850991189479830000e-001) (23, -3.97727876901626590000e-001) (24, -4.02002874761819840000e-003) (25, 3.18842120468616490000e-002) (26, -7.11425691843032840000e-002) (27, -3.20394933223724370000e-002) (28, 1.20400153100490570000e-002) (29, -3.54815751314163210000e-001) (30, 2.82253503799438480000e-001) (31, 1.12953521311283110000e-002) (32, 3.71719211339950560000e-001) (33, 1.09766983985900880000e+000) (34, 4.66127097606658940000e-001) (35, 1.91078782081604000000e-001) (36, 8.80446508526802060000e-002) (37, -1.13711762428283690000e+000) (38, -4.49312984943389890000e-001) (39, 1.23408019542694090000e-001) (40, -1.08078867197036740000e-001) (41, -5.22820800542831420000e-002) (42, -4.35488112270832060000e-002) (43, -3.20300497114658360000e-002) (44, 3.29030789434909820000e-002) (45, -1.99219688773155210000e-001) (46, -1.27528682351112370000e-001) (47, -3.87661978602409360000e-002) (48, 5.73475241661071780000e-001) (49, 5.75390383601188660000e-002) (50, 1.09151005744934080000e-001) (51, 2.29270104318857190000e-002) (52, 2.06197395920753480000e-001) (53, -1.19322106242179870000e-001) (54, -1.04364298284053800000e-001) (55, 2.10016191005706790000e-001) (56, -1.48443818092346190000e-001) (57, -8.57664085924625400000e-003) (58, 1.37986734509468080000e-001) (59, -4.06116731464862820000e-002) (60, -3.03240492939949040000e-002) (61, 5.31630069017410280000e-002) (62, 3.62368524074554440000e-002) (63, -3.87098267674446110000e-002) (64, -1.05320028960704800000e-002) (65, -5.11083751916885380000e-002) (66, 9.41877886652946470000e-002) (67, 6.09167180955410000000e-002) (68, 2.01399251818656920000e-001) (69, -7.57954791188240050000e-002) (70, 1.20913192629814150000e-001) (71, -5.11913001537323000000e-002) (72, -2.58853048086166380000e-001) (73, -6.91747665405273440000e-002) (74, 4.56362515687942500000e-002) (75, -1.61392574310302730000e+001) (0, -1.50000000000000000000e+003) (1, -1.50000000000000000000e+003) (2, -1.50000000000000000000e+003) (3, -1.50000000000000000000e+003) (4, 1.50000000000000000000e+003) (5, -7.69587463378906250000e+002) (6, -1.03231103515625000000e+003) (7, -1.49459997558593750000e+003) (8, -1.19622998046875000000e+003) (9, -6.06372009277343750000e+002) (10, 1.50000000000000000000e+003) (11, -1.41548620605468750000e+003) (12, -4.33703689575195310000e+001) (13, 1.16991406250000000000e+003) (14, -1.50000000000000000000e+003) (15, -1.50000000000000000000e+003) (16, 2.46300842285156250000e+002) (17, -1.49982678222656250000e+003) (18, -1.50000000000000000000e+003) (19, -1.24537744140625000000e+003) (20, 1.50000000000000000000e+003) (21, -1.08062548828125000000e+003) (22, 1.49480285644531250000e+003) (23, 7.03637390136718750000e+002) (24, -1.50000000000000000000e+003) (25, 1.34792633056640620000e+002) (26, 1.50000000000000000000e+003) (27, -1.50000000000000000000e+003) (28, 9.52067031860351560000e+001) (29, 1.49809680175781250000e+003) (30, -1.50000000000000000000e+003) (31, -1.50000000000000000000e+003) (32, -1.50000000000000000000e+003) (33, -1.50000000000000000000e+003) (34, -1.41905776977539060000e+002) (35, 1.49997607421875000000e+003) (36, -3.35953891277313230000e-001) (37, 1.50000000000000000000e+003) (38, 1.49625231933593750000e+003) (39, -1.50000000000000000000e+003) (40, -1.50000000000000000000e+003) (41, 1.49620886230468750000e+003) (42, -1.50000000000000000000e+003) (43, 1.50000000000000000000e+003) (44, 1.50000000000000000000e+003) (45, -2.27818618774414060000e+002) (46, -1.50000000000000000000e+003) (47, 1.50000000000000000000e+003) (48, -1.41258514404296870000e+002) (49, 1.50000000000000000000e+003) (50, -4.75307464599609380000e+002) (51, -1.01650256347656250000e+003) (52, 2.75725677490234370000e+002) (53, -1.50000000000000000000e+003) (54, -1.11752246093750000000e+003) (55, -1.50000000000000000000e+003) (56, 1.36718273925781250000e+003) (57, -1.31636755371093750000e+003) (58, 1.50000000000000000000e+003) (59, 9.11354980468750000000e+002) (60, -1.50000000000000000000e+003) (61, -1.50000000000000000000e+003) (62, -5.35236267089843750000e+002) (63, -1.45761218261718750000e+003) (64, -1.49884936523437500000e+003) (65, -1.46057006835937500000e+003) (66, -1.50000000000000000000e+003) (67, -1.50000000000000000000e+003) (68, -7.97933227539062500000e+002) (69, -2.91082885742187500000e+002) (70, 1.50000000000000000000e+003) (71, 1.09016577148437500000e+003) (72, 3.64276245117187500000e+002) (73, -1.50000000000000000000e+003) (74, -1.50000000000000000000e+003) (75, 1.50000000000000000000e+003) (0, 2.23628982901573180000e-001) (1, 1.48134142160415650000e-001) (2, 2.00139865279197690000e-001) (3, 2.03437477350234990000e-001) (4, 4.09142166376113890000e-001) (5, -2.83301591873168950000e-001) (6, 1.85650601983070370000e-001) (7, 6.81516706943511960000e-001) (8, -6.02212786674499510000e-001) (9, -2.78074771165847780000e-001) (10, 5.12619972229003910000e-001) (11, 7.45076119899749760000e-001) (12, -3.35253298282623290000e-001) (13, 1.93175539374351500000e-001) (14, 3.00183206796646120000e-001) (15, 8.56778770685195920000e-002) (16, 9.90007817745208740000e-002) (17, -6.76517069339752200000e-001) (18, 4.84627068042755130000e-001) (19, 4.65664982795715330000e-001) (20, 3.42990420758724210000e-002) (21, 3.62411677837371830000e-001) (22, 6.75678789615631100000e-001) (23, 1.88114568591117860000e-001) (24, -2.45792448520660400000e-001) (25, -1.88872590661048890000e-001) (26, 1.13854360580444340000e+000) (27, -1.31456375122070310000e-001) (28, 1.18822909891605380000e-001) (29, -7.59702742099761960000e-001) (30, 3.15138846635818480000e-001) (31, 4.00973170995712280000e-001) (32, -6.39253079891204830000e-001) (33, 5.06773412227630620000e-001) (34, 3.11086535453796390000e-001) (35, 1.20870780944824220000e+000) (36, -1.85311049222946170000e-001) (37, -4.50631618499755860000e-001) (38, -5.35067081451416020000e+000) (39, -3.04254144430160520000e-001) (40, 1.50630891323089600000e+000) (41, 3.96961450576782230000e+000) (42, -6.93825364112854000000e-001) (43, -8.88090021908283230000e-003) (44, 1.23951590061187740000e+000) (45, 5.84191596135497090000e-003) (46, 1.72565251588821410000e-001) (47, -3.92745360732078550000e-002) (48, 3.27613979578018190000e-001) (49, 3.24213951826095580000e-001) (50, 1.14673338830471040000e-001) (51, 1.45503386855125430000e-001) (52, 4.21016395092010500000e-001) (53, -9.66306149959564210000e-001) (54, -1.94748610258102420000e-001) (55, 1.02870905399322510000e+000) (56, 1.03277266025543210000e+000) (57, -3.20652753114700320000e-001) (58, 5.01241624355316160000e-001) (59, 2.18879058957099910000e-001) (60, 3.33403766155242920000e-001) (61, 1.06350839138031010000e-001) (62, -7.12097704410552980000e-001) (63, 2.91860878467559810000e-001) (64, 1.67871981859207150000e-001) (65, -2.58535176515579220000e-001) (66, 2.72746272385120390000e-002) (67, 8.01106333732604980000e-001) (68, -9.99413669109344480000e-001) (69, -8.44313874840736390000e-002) (70, 5.55482149124145510000e-001) (71, -4.54171448945999150000e-002) (72, -1.88391909003257750000e-001) (73, 5.87645053863525390000e-001) (74, -8.87090027332305910000e-001) (75, 2.99130487442016600000e+000) (0, 4.09882634878158570000e-001) (1, 7.31178710937500000000e+002) (2, -1.50000000000000000000e+003) (3, 4.11863893270492550000e-001) (4, 1.50000000000000000000e+003) (5, 9.54570495605468750000e+002) (6, 4.01291698217391970000e-001) (7, -1.50000000000000000000e+003) (8, -1.50000000000000000000e+003) (9, 3.86574983596801760000e-001) (10, 1.46519750976562500000e+003) (11, -1.49420361328125000000e+003) (12, -9.77722555398941040000e-002) (13, -1.50000000000000000000e+003) (14, -1.45803869628906250000e+003) (15, 4.10392254590988160000e-001) (16, 1.50000000000000000000e+003) (17, -1.50000000000000000000e+003) (18, 1.50000000000000000000e+003) (19, 1.50000000000000000000e+003) (20, -1.50000000000000000000e+003) (21, 4.02379781007766720000e-001) (22, -1.50000000000000000000e+003) (23, -1.50000000000000000000e+003) (24, -5.78486323356628420000e-001) (25, 1.50000000000000000000e+003) (26, -1.46444409179687500000e+003) (27, -5.80501377582550050000e-001) (28, 1.50000000000000000000e+003) (29, -1.62164554595947270000e+001) (30, 1.50000000000000000000e+003) (31, 1.50000000000000000000e+003) (32, -1.50000000000000000000e+003) (33, 1.50000000000000000000e+003) (34, 1.50000000000000000000e+003) (35, -1.50000000000000000000e+003) (36, 4.37871009111404420000e-001) (37, -1.50000000000000000000e+003) (38, -1.50000000000000000000e+003) (39, -2.06955766677856450000e+000) (40, 1.50000000000000000000e+003) (41, -1.41873425292968750000e+003) (42, -3.16079527139663700000e-001) (43, 1.50000000000000000000e+003) (44, -1.47621716308593750000e+003) (45, 5.14557003974914550000e-001) (46, 1.50000000000000000000e+003) (47, -1.50000000000000000000e+003) (48, 4.11485176086425780000e+001) (49, 1.50000000000000000000e+003) (50, -1.50000000000000000000e+003) (51, 5.33507317304611210000e-002) (52, -1.50000000000000000000e+003) (53, -1.50000000000000000000e+003) (54, -8.53339374065399170000e-001) (55, 1.50000000000000000000e+003) (56, -8.44914001464843750000e+002) (57, -9.46445390582084660000e-002) (58, 1.50000000000000000000e+003) (59, -1.12610253906250000000e+003) (60, 6.66469752788543700000e-001) (61, 1.50000000000000000000e+003) (62, -1.50000000000000000000e+003) (63, 7.73102462291717530000e-001) (64, 1.45058776855468750000e+003) (65, -1.50000000000000000000e+003) (66, 4.89892452955245970000e-001) (67, -1.50000000000000000000e+003) (68, -6.27438293457031250000e+002) (69, 3.17425847053527830000e-001) (70, -1.50000000000000000000e+003) (71, 1.50000000000000000000e+003) (72, 9.71097722649574280000e-002) (73, 1.50000000000000000000e+003) (74, 1.50000000000000000000e+003) (75, 2.59062337875366210000e+000) (0, -8.19666194915771480000e+000) (1, 1.21684783935546870000e+002) (2, -1.50000000000000000000e+003) (3, -3.71762108802795410000e+000) (4, 1.50000000000000000000e+003) (5, -1.50000000000000000000e+003) (6, -1.87320327758789060000e+001) (7, -1.50000000000000000000e+003) (8, -1.50000000000000000000e+003) (9, -7.13913965225219730000e+000) (10, -5.20256225585937500000e+002) (11, -5.91142225265502930000e+000) (12, -7.21451473236083980000e+000) (13, -1.50000000000000000000e+003) (14, -1.49998852539062500000e+003) (15, 1.50000000000000000000e+003) (16, 1.50000000000000000000e+003) (17, -9.00087463378906250000e+002) (18, 1.50000000000000000000e+003) (19, 1.50000000000000000000e+003) (20, -1.50000000000000000000e+003) (21, -4.19636878967285160000e+001) (22, -1.50000000000000000000e+003) (23, -1.50000000000000000000e+003) (24, -7.54621658325195310000e+001) (25, 1.50000000000000000000e+003) (26, 7.37379333496093750000e+002) (27, -4.20223846435546870000e+001) (28, 1.50000000000000000000e+003) (29, -1.49994604492187500000e+003) (30, 1.50000000000000000000e+003) (31, 1.50000000000000000000e+003) (32, -1.50000000000000000000e+003) (33, 1.50000000000000000000e+003) (34, 1.50000000000000000000e+003) (35, -1.50000000000000000000e+003) (36, -3.75235366821289060000e+001) (37, -1.50000000000000000000e+003) (38, -1.50000000000000000000e+003) (39, -1.49975903320312500000e+003) (40, 1.50000000000000000000e+003) (41, -1.44878381347656250000e+003) (42, -3.78567932128906250000e+002) (43, 1.50000000000000000000e+003) (44, -1.49656555175781250000e+003) (45, 1.12303991699218750000e+003) (46, -1.47406311035156250000e+003) (47, -1.50000000000000000000e+003) (48, 7.58425048828125000000e+002) (49, 1.50000000000000000000e+003) (50, -1.50000000000000000000e+003) (51, -2.31167587280273440000e+002) (52, -1.50000000000000000000e+003) (53, -1.50000000000000000000e+003) (54, -3.03434295654296880000e+001) (55, 1.50000000000000000000e+003) (56, -2.28540908813476560000e+002) (57, -3.40838851928710940000e+001) (58, 1.50000000000000000000e+003) (59, -1.49816027832031250000e+003) (60, 1.79590150713920590000e-001) (61, 1.50000000000000000000e+003) (62, -1.50000000000000000000e+003) (63, 1.50000000000000000000e+003) (64, -1.49992456054687500000e+003) (65, -1.50000000000000000000e+003) (66, -1.44699268341064450000e+001) (67, -1.50000000000000000000e+003) (68, -1.50000000000000000000e+003) (69, -1.03471164703369140000e+001) (70, -1.50000000000000000000e+003) (71, 1.50000000000000000000e+003) (72, -8.97456836700439450000e+000) (73, 1.50000000000000000000e+003) (74, 1.50000000000000000000e+003) (75, 6.41413807868957520000e-001) (0, 1.50000000000000000000e+003) (1, 1.50000000000000000000e+003) (2, 1.50000000000000000000e+003) (3, 1.50000000000000000000e+003) (4, -1.50000000000000000000e+003) (5, 1.50000000000000000000e+003) (6, 1.50000000000000000000e+003) (7, -1.48841308593750000000e+003) (8, 1.50000000000000000000e+003) (9, 1.50000000000000000000e+003) (10, -1.50000000000000000000e+003) (11, 1.50000000000000000000e+003) (12, 1.50000000000000000000e+003) (13, -1.50000000000000000000e+003) (14, 2.99338928222656250000e+002) (15, 1.50000000000000000000e+003) (16, -1.49926965332031250000e+003) (17, 1.50000000000000000000e+003) (18, 1.50000000000000000000e+003) (19, 1.50000000000000000000e+003) (20, 1.50000000000000000000e+003) (21, 1.50000000000000000000e+003) (22, -1.50000000000000000000e+003) (23, 1.50000000000000000000e+003) (24, 1.49995727539062500000e+003) (25, -1.50000000000000000000e+003) (26, 1.50000000000000000000e+003) (27, 1.49995104980468750000e+003) (28, -2.39416198730468750000e+001) (29, 1.50000000000000000000e+003) (30, 1.50000000000000000000e+003) (31, -1.49884692382812500000e+003) (32, 1.50000000000000000000e+003) (33, 1.50000000000000000000e+003) (34, 1.50000000000000000000e+003) (35, -1.49978894042968750000e+003) (36, 1.50000000000000000000e+003) (37, -1.50000000000000000000e+003) (38, -1.49999609375000000000e+003) (39, 1.50000000000000000000e+003) (40, 1.50000000000000000000e+003) (41, 1.50000000000000000000e+003) (42, 1.49995239257812500000e+003) (43, -1.50000000000000000000e+003) (44, -1.49978674316406250000e+003) (45, 1.50000000000000000000e+003) (46, -1.50000000000000000000e+003) (47, -1.49998510742187500000e+003) (48, 1.50000000000000000000e+003) (49, 1.50000000000000000000e+003) (50, -1.49998559570312500000e+003) (51, 1.50000000000000000000e+003) (52, -1.50000000000000000000e+003) (53, 1.88128280639648440000e+002) (54, 1.50000000000000000000e+003) (55, 1.50000000000000000000e+003) (56, 1.50000000000000000000e+003) (57, 1.50000000000000000000e+003) (58, -1.50000000000000000000e+003) (59, 1.42728540039062500000e+003) (60, 1.50000000000000000000e+003) (61, 1.49999829101562500000e+003) (62, -1.25958961486816410000e+002) (63, 1.50000000000000000000e+003) (64, -1.50000000000000000000e+003) (65, -1.35820907592773440000e+002) (66, 1.50000000000000000000e+003) (67, 1.50000000000000000000e+003) (68, 1.50000000000000000000e+003) (69, 1.50000000000000000000e+003) (70, -1.50000000000000000000e+003) (71, -3.94824615478515620000e+002) (72, 1.49995288085937500000e+003) (73, -1.50000000000000000000e+003) (74, -1.49999304199218750000e+003) (75, 1.49997277832031250000e+003) (0, 2.49056410789489750000e+000) (1, -1.29753344726562500000e+003) (2, -1.42556872558593750000e+003) (3, 1.02622807025909420000e+000) (4, 1.50000000000000000000e+003) (5, -1.13785400390625000000e+001) (6, -3.38255286216735840000e-001) (7, -1.50000000000000000000e+003) (8, -1.50000000000000000000e+003) (9, -7.74579286575317380000e-001) (10, 1.50000000000000000000e+003) (11, 7.64542102813720700000e-001) (12, -1.32660400867462160000e+000) (13, -1.50000000000000000000e+003) (14, 2.94412803649902340000e+000) (15, 1.95959162712097170000e+000) (16, 1.50000000000000000000e+003) (17, 4.64149322509765630000e+001) (18, 1.50000000000000000000e+003) (19, 1.50000000000000000000e+003) (20, -1.50000000000000000000e+003) (21, 7.49838113784790040000e-001) (22, -1.50000000000000000000e+003) (23, -1.50000000000000000000e+003) (24, -2.56458759307861330000e+001) (25, 1.50000000000000000000e+003) (26, 3.08257371187210080000e-001) (27, -1.11355428695678710000e+001) (28, 1.50000000000000000000e+003) (29, 2.77739953994750980000e+000) (30, 2.20362734794616700000e+000) (31, 1.50000000000000000000e+003) (32, -9.48741626739501950000e+000) (33, 1.33670935058593750000e+003) (34, 1.50000000000000000000e+003) (35, -1.50000000000000000000e+003) (36, 7.84967064857482910000e-001) (37, -1.50000000000000000000e+003) (38, -1.50000000000000000000e+003) (39, -1.50000000000000000000e+003) (40, 1.50000000000000000000e+003) (41, -3.86254158020019530000e+001) (42, -6.68249130249023440000e+001) (43, 1.50000000000000000000e+003) (44, -3.08508872985839840000e-001) (45, 2.18266248703002930000e+000) (46, 1.50000000000000000000e+003) (47, -7.21541687011718750000e+002) (48, 2.35365247726440430000e+000) (49, 1.50000000000000000000e+003) (50, -1.50000000000000000000e+003) (51, -9.95959937572479250000e-001) (52, -1.50000000000000000000e+003) (53, -9.09601593017578120000e+000) (54, -1.90002632141113280000e+001) (55, 1.50000000000000000000e+003) (56, -1.43862243652343750000e+003) (57, -4.47365474700927730000e+000) (58, 1.50000000000000000000e+003) (59, 7.51022644042968750000e+001) (60, 2.75612187385559080000e+000) (61, 1.50000000000000000000e+003) (62, -1.50000000000000000000e+003) (63, 1.18619012832641600000e+000) (64, 1.31925744628906250000e+003) (65, -1.50000000000000000000e+003) (66, -4.08297681808471680000e+000) (67, -1.50000000000000000000e+003) (68, -1.49897058105468750000e+003) (69, -1.41261383891105650000e-001) (70, -1.50000000000000000000e+003) (71, 1.50000000000000000000e+003) (72, -6.58955287933349610000e+000) (73, 1.50000000000000000000e+003) (74, 2.97313568115234370000e+002) (75, 1.49950231933593750000e+003) (0, -7.01790153980255130000e-002) (1, -3.17969620227813720000e-002) (2, 4.17341142892837520000e-002) (3, 1.38733565807342530000e-001) (4, -5.90134877711534500000e-003) (5, -2.17043951153755190000e-001) (6, 8.07026252150535580000e-002) (7, -3.49638462066650390000e-001) (8, 9.94459688663482670000e-002) (9, 9.19395536184310910000e-002) (10, -1.88818842172622680000e-001) (11, 5.02479970455169680000e-002) (12, 9.99235957860946660000e-002) (13, -1.40168011188507080000e-001) (14, -3.69580574333667760000e-002) (15, -5.74379205703735350000e-001) (16, -2.73496538400650020000e-001) (17, 6.36018766090273860000e-003) (18, -7.98085987567901610000e-001) (19, -7.68634319305419920000e-001) (20, -2.40791425108909610000e-001) (21, -1.48727580904960630000e-001) (22, 8.80676925182342530000e-001) (23, 1.02264925837516780000e-001) (24, -4.11528646945953370000e-001) (25, 5.05577266216278080000e-001) (26, 1.94956824183464050000e-001) (27, -2.70281374454498290000e-001) (28, 1.66179478168487550000e-001) (29, 1.54220759868621830000e-001) (30, -2.30204641819000240000e-001) (31, -2.29522943496704100000e-001) (32, -4.38749678432941440000e-002) (33, 1.11716806888580320000e+000) (34, 1.44410575740039350000e-003) (35, 2.03626871109008790000e-001) (36, -6.74246102571487430000e-002) (37, 6.41686618328094480000e-001) (38, -3.52826595306396480000e-001) (39, -2.90610343217849730000e-001) (40, 2.98222750425338750000e-001) (41, -1.10245622694492340000e-001) (42, -9.96491909027099610000e-002) (43, 1.52155943214893340000e-002) (44, -3.43059971928596500000e-002) (45, 4.96132560074329380000e-002) (46, 7.14176967740058900000e-002) (47, 4.26569372415542600000e-001) (48, 1.67754784226417540000e-001) (49, 5.97415715456008910000e-002) (50, 3.87488454580307010000e-001) (51, 2.28113874793052670000e-001) (52, -4.95620757341384890000e-001) (53, -5.05495369434356690000e-001) (54, 1.72592312097549440000e-001) (55, -1.19307592511177060000e-001) (56, 9.58514884114265440000e-002) (57, 1.10323848202824590000e-002) (58, -6.78163245320320130000e-002) (59, -1.34296581149101260000e-001) (60, -1.61347866058349610000e-001) (61, -1.43804967403411870000e-001) (62, -2.15069726109504700000e-001) (63, 1.67998045682907100000e-001) (64, -1.33094727993011470000e-001) (65, -2.85829249769449230000e-002) (66, 1.38809503987431530000e-002) (67, 1.26637339591979980000e-001) (68, 1.23678095638751980000e-001) (69, -2.60208677500486370000e-002) (70, 1.01058319211006160000e-001) (71, -3.21810007095336910000e-001) (72, -8.32826867699623110000e-002) (73, 1.82561930269002910000e-002) (74, 2.52239108085632320000e-001) (75, -9.86874103546142580000e-001) (0, 9.82013183593750000000e+002) (1, 1.50000000000000000000e+003) (2, 1.50000000000000000000e+003) (3, 6.24202697753906250000e+002) (4, -1.50000000000000000000e+003) (5, 1.43749304199218750000e+003) (6, -3.05646095275878910000e+001) (7, -1.38637475585937500000e+003) (8, -1.33952844238281250000e+003) (9, 1.46686059570312500000e+003) (10, -1.22381616210937500000e+003) (11, 1.36336425781250000000e+003) (12, 1.26079187011718750000e+003) (13, -4.98964599609375000000e+002) (14, 1.40953637695312500000e+003) (15, -4.62600982666015620000e+002) (16, 6.15976806640625000000e+002) (17, -1.31715173339843750000e+003) (18, 1.41192846679687500000e+003) (19, 1.49997473144531250000e+003) (20, 1.22850463867187500000e+003) (21, -1.38158874511718750000e+003) (22, -1.50000000000000000000e+003) (23, 1.26019494628906250000e+003) (24, 2.81442321777343750000e+002) (25, 1.50000000000000000000e+003) (26, 1.42174853515625000000e+003) (27, -1.50000000000000000000e+003) (28, 1.50000000000000000000e+003) (29, -1.46215405273437500000e+003) (30, 1.49998730468750000000e+003) (31, 1.50000000000000000000e+003) (32, -1.43737866210937500000e+003) (33, 1.33337548828125000000e+003) (34, 1.50000000000000000000e+003) (35, -2.63304870605468750000e+002) (36, -3.51892700195312500000e+002) (37, -1.50000000000000000000e+003) (38, 1.46872106933593750000e+003) (39, 1.26303955078125000000e+003) (40, 1.50000000000000000000e+003) (41, -1.49999047851562500000e+003) (42, 5.60766540527343750000e+002) (43, -1.49995605468750000000e+003) (44, -1.47975988769531250000e+003) (45, 9.82645385742187500000e+002) (46, 1.50000000000000000000e+003) (47, -1.50000000000000000000e+003) (48, -5.03824279785156250000e+002) (49, 1.49998815917968750000e+003) (50, -1.50000000000000000000e+003) (51, -6.13183410644531250000e+002) (52, -1.50000000000000000000e+003) (53, 1.47466625976562500000e+003) (54, 1.43604052734375000000e+003) (55, 1.50000000000000000000e+003) (56, -1.46858508300781250000e+003) (57, 6.36558532714843750000e+002) (58, -1.50000000000000000000e+003) (59, -1.48192846679687500000e+003) (60, 1.49567459106445310000e+002) (61, 1.50000000000000000000e+003) (62, -1.49998437500000000000e+003) (63, 3.67417266845703120000e+002) (64, -1.50000000000000000000e+003) (65, -1.44622058105468750000e+003) (66, 6.78088928222656250000e+002) (67, -1.50000000000000000000e+003) (68, -1.46718383789062500000e+003) (69, 1.11434985351562500000e+003) (70, -1.50000000000000000000e+003) (71, 1.50000000000000000000e+003) (72, 1.43054895019531250000e+003) (73, 1.49994519042968750000e+003) (74, -2.57324035644531250000e+002) (75, 1.49981237792968750000e+003) (0, 1.08801374435424800000e+001) (1, -1.17033532714843750000e+003) (2, 4.47093627929687500000e+002) (3, 1.35291540527343750000e+003) (4, 1.50000000000000000000e+003) (5, 5.99939651489257810000e+001) (6, 5.05738973617553710000e-001) (7, -3.18988616943359370000e+002) (8, -1.50000000000000000000e+003) (9, 3.24228316545486450000e-001) (10, -1.50000000000000000000e+003) (11, 1.48094946289062500000e+003) (12, -3.38829956054687500000e+001) (13, -3.92720031738281250000e+002) (14, -1.50000000000000000000e+003) (15, 1.16497917175292970000e+001) (16, -1.50000000000000000000e+003) (17, 2.53823928833007810000e+002) (18, 1.33906628417968750000e+003) (19, 1.50000000000000000000e+003) (20, -1.49169909667968750000e+003) (21, -1.47948999023437500000e+003) (22, -1.50000000000000000000e+003) (23, -2.64152946472167970000e+001) (24, -8.24689483642578120000e+000) (25, 1.21596862792968750000e+003) (26, -6.09670959472656250000e+002) (27, -1.49370178222656250000e+003) (28, 1.50000000000000000000e+003) (29, -6.95000457763671880000e+000) (30, 1.49996520996093750000e+003) (31, 1.48468652343750000000e+003) (32, -1.50000000000000000000e+003) (33, 1.50000000000000000000e+003) (34, 1.50000000000000000000e+003) (35, 8.91964950561523440000e+001) (36, 8.65726318359375000000e+002) (37, -1.50000000000000000000e+003) (38, 7.11728942871093750000e+002) (39, 1.83055424690246580000e+000) (40, 1.50000000000000000000e+003) (41, -1.48034594726562500000e+003) (42, 1.99952499389648440000e+002) (43, -1.49993884277343750000e+003) (44, -1.47535546875000000000e+003) (45, 1.44120773315429690000e+002) (46, 1.49999523925781250000e+003) (47, -1.50000000000000000000e+003) (48, 1.49996533203125000000e+003) (49, -1.50000000000000000000e+003) (50, -1.50000000000000000000e+003) (51, 9.62044239044189450000e-001) (52, -1.40294995117187500000e+003) (53, 5.27815856933593750000e+002) (54, -1.68109190464019780000e+000) (55, 1.50000000000000000000e+003) (56, -1.46266955566406250000e+003) (57, 4.47154663085937500000e+002) (58, -1.49917822265625000000e+003) (59, -3.81709480285644530000e+001) (60, 4.04272491455078120000e+002) (61, -1.50000000000000000000e+003) (62, -1.50000000000000000000e+003) (63, 1.32714184570312500000e+003) (64, -1.49832141113281250000e+003) (65, -1.50000000000000000000e+003) (66, 1.80973458290100100000e+000) (67, -3.63323852539062500000e+002) (68, -4.58405639648437500000e+002) (69, 8.13362598419189450000e-001) (70, 1.50000000000000000000e+003) (71, 1.49994750976562500000e+003) (72, 7.35276123046875000000e+002) (73, 1.49902856445312500000e+003) (74, 1.49999218750000000000e+003) (75, 1.50000000000000000000e+003) (0, -3.81472446024417880000e-002) (1, -6.80480773925781250000e+002) (2, -2.23982486724853520000e+001) (3, 3.65802526473999020000e-001) (4, 1.50000000000000000000e+003) (5, 3.57653083801269530000e+001) (6, 4.02519315481185910000e-001) (7, -1.50000000000000000000e+003) (8, -9.14588500976562500000e+002) (9, 2.36285185813903810000e+000) (10, 8.45143066406250000000e+002) (11, 1.48086047363281250000e+003) (12, 5.70610225200653080000e-001) (13, -1.50000000000000000000e+003) (14, -2.23061275482177730000e+001) (15, 2.51105219125747680000e-001) (16, 1.50000000000000000000e+003) (17, 4.96543228626251220000e-001) (18, 1.50000000000000000000e+003) (19, 1.50000000000000000000e+003) (20, -1.50000000000000000000e+003) (21, 7.85104334354400630000e-001) (22, -1.50000000000000000000e+003) (23, -1.50000000000000000000e+003) (24, 2.47022366523742680000e+000) (25, 1.50000000000000000000e+003) (26, -1.49998144531250000000e+003) (27, -4.87263232469558720000e-001) (28, 1.50000000000000000000e+003) (29, -2.94941544532775880000e-001) (30, 1.81574687957763670000e+001) (31, 1.50000000000000000000e+003) (32, -1.06041421890258790000e+001) (33, 1.50000000000000000000e+003) (34, 1.50000000000000000000e+003) (35, -1.50000000000000000000e+003) (36, 7.77893364429473880000e-001) (37, -1.50000000000000000000e+003) (38, -1.50000000000000000000e+003) (39, 2.58541512489318850000e+000) (40, 1.50000000000000000000e+003) (41, -8.94809692382812500000e+002) (42, 6.94267630577087400000e-001) (43, 1.50000000000000000000e+003) (44, 9.70624312758445740000e-002) (45, 3.13917785882949830000e-001) (46, 1.50000000000000000000e+003) (47, -1.50000000000000000000e+003) (48, 9.00644600391387940000e-001) (49, 1.50000000000000000000e+003) (50, -1.50000000000000000000e+003) (51, 3.81140023469924930000e-001) (52, -1.50000000000000000000e+003) (53, -1.35274877929687500000e+003) (54, 1.95094633102416990000e+000) (55, 1.50000000000000000000e+003) (56, -2.39720344543457030000e+000) (57, 1.50044247508049010000e-001) (58, 1.50000000000000000000e+003) (59, 1.26899063587188720000e-001) (60, 7.65935838222503660000e-001) (61, 1.50000000000000000000e+003) (62, -1.50000000000000000000e+003) (63, 4.43281292915344240000e-001) (64, -4.53875885009765620000e+002) (65, -1.50000000000000000000e+003) (66, 4.20406520366668700000e-001) (67, -1.50000000000000000000e+003) (68, -2.34659886360168460000e+000) (69, 2.24337100982666020000e+000) (70, -1.50000000000000000000e+003) (71, 1.50000000000000000000e+003) (72, 1.66068184375762940000e+000) (73, 1.50000000000000000000e+003) (74, 1.43784439563751220000e+000) (75, 1.50000000000000000000e+003) (0, -1.50000000000000000000e+003) (1, -1.50000000000000000000e+003) (2, -1.50000000000000000000e+003) (3, -1.50000000000000000000e+003) (4, -4.05024719238281250000e+002) (5, -1.50000000000000000000e+003) (6, 6.33802354335784910000e-001) (7, 1.50000000000000000000e+003) (8, -1.50000000000000000000e+003) (9, -4.32163757324218750000e+002) (10, 1.50000000000000000000e+003) (11, -1.50000000000000000000e+003) (12, 1.38907742500305180000e+000) (13, -1.35579248046875000000e+003) (14, -1.50000000000000000000e+003) (15, -1.50000000000000000000e+003) (16, -1.50000000000000000000e+003) (17, -1.50000000000000000000e+003) (18, -1.50000000000000000000e+003) (19, 1.50000000000000000000e+003) (20, -1.49999963378906250000e+003) (21, -1.44743690490722660000e+001) (22, 1.50000000000000000000e+003) (23, -1.50000000000000000000e+003) (24, -1.06561683654785160000e+002) (25, 1.50000000000000000000e+003) (26, -1.50000000000000000000e+003) (27, -1.49989587402343750000e+003) (28, 1.50000000000000000000e+003) (29, -1.50000000000000000000e+003) (30, -1.50000000000000000000e+003) (31, -1.50000000000000000000e+003) (32, -1.50000000000000000000e+003) (33, -1.50000000000000000000e+003) (34, -1.50000000000000000000e+003) (35, -1.49999792480468750000e+003) (36, -1.50000000000000000000e+003) (37, 1.50000000000000000000e+003) (38, -1.50000000000000000000e+003) (39, -1.50000000000000000000e+003) (40, 1.02351818847656250000e+003) (41, -1.50000000000000000000e+003) (42, -1.50000000000000000000e+003) (43, 1.50000000000000000000e+003) (44, -1.49979919433593750000e+003) (45, -5.65345825195312500000e+002) (46, -1.50000000000000000000e+003) (47, -1.50000000000000000000e+003) (48, -1.50000000000000000000e+003) (49, -1.50000000000000000000e+003) (50, -1.49998937988281250000e+003) (51, -1.50000000000000000000e+003) (52, 1.50000000000000000000e+003) (53, -1.50000000000000000000e+003) (54, 1.56817841529846190000e+000) (55, 1.50000000000000000000e+003) (56, -1.50000000000000000000e+003) (57, -3.50657562255859370000e+002) (58, -1.49771826171875000000e+003) (59, -1.50000000000000000000e+003) (60, 5.83025312423706050000e+000) (61, -1.50000000000000000000e+003) (62, -1.50000000000000000000e+003) (63, -1.50000000000000000000e+003) (64, -1.50000000000000000000e+003) (65, -1.50000000000000000000e+003) (66, -1.50000000000000000000e+003) (67, 1.50000000000000000000e+003) (68, -1.50000000000000000000e+003) (69, -1.31941330432891850000e+000) (70, 1.50000000000000000000e+003) (71, -1.50000000000000000000e+003) (72, -1.83290970325469970000e+000) (73, -1.50000000000000000000e+003) (74, -1.50000000000000000000e+003) (75, -1.50000000000000000000e+003) (0, -4.30515855550765990000e-001) (1, -1.19155041873455050000e-001) (2, 2.07982599735260010000e-001) (3, -7.09318041801452640000e-001) (4, -5.79060196876525880000e-001) (5, -1.32626444101333620000e-001) (6, -5.91373682022094730000e-001) (7, -1.29129898548126220000e+000) (8, 1.27344680950045590000e-002) (9, 1.18281245231628420000e+000) (10, -1.12124431133270260000e+000) (11, -7.09916427731513980000e-002) (12, 6.17488443851470950000e-001) (13, -1.75434097647666930000e-001) (14, -3.87148410081863400000e-002) (15, 7.99883455038070680000e-002) (16, 2.81689446419477460000e-002) (17, 2.38773897290229800000e-001) (18, -2.74662673473358150000e-001) (19, -1.42360523343086240000e-001) (20, -2.78529655188322070000e-002) (21, -5.30270457267761230000e-001) (22, -9.47825610637664790000e-001) (23, -1.78127810359001160000e-001) (24, 3.87177288532257080000e-001) (25, -7.70736038684844970000e-001) (26, 2.89115875959396360000e-001) (27, 4.40773904323577880000e-001) (28, -2.78757214546203610000e-001) (29, -8.79463553428649900000e-002) (30, -5.97578659653663640000e-002) (31, 8.65065399557352070000e-003) (32, 5.73814250528812410000e-002) (33, 1.44426298141479490000e+000) (34, 8.33033174276351930000e-002) (35, -6.84370279312133790000e-001) (36, -1.16009926795959470000e+000) (37, 1.54657471179962160000e+000) (38, -4.87068623304367070000e-001) (39, -6.06211304664611820000e-001) (40, 1.74553096294403080000e-001) (41, 6.01256489753723140000e-001) (42, 1.10103087499737740000e-002) (43, 1.21780540794134140000e-002) (44, 4.66337352991104130000e-001) (45, -9.36746448278427120000e-002) (46, -8.95310938358306880000e-002) (47, 2.31556326150894170000e-001) (48, -4.71765786409378050000e-001) (49, -4.25565749406814580000e-001) (50, -4.05515253543853760000e-001) (51, -7.93182551860809330000e-001) (52, -7.72378265857696530000e-001) (53, 9.24862083047628400000e-003) (54, 3.22378993034362790000e-001) (55, -8.63981842994689940000e-001) (56, 2.76090472936630250000e-001) (57, 5.60786843299865720000e-001) (58, -1.76180675625801090000e-001) (59, -2.08217501640319820000e-001) (60, -2.81722545623779300000e-001) (61, -6.48151934146881100000e-002) (62, 2.73635517805814740000e-002) (63, -6.06532156467437740000e-001) (64, -4.05578672885894780000e-001) (65, -1.42150685191154480000e-001) (66, -4.03706789016723630000e-001) (67, -1.14062619209289550000e+000) (68, 1.41953051090240480000e-001) (69, 8.66458177566528320000e-001) (70, -9.03535425662994380000e-001) (71, -1.51940077543258670000e-001) (72, 3.86301875114440920000e-001) (73, -2.02081784605979920000e-001) (74, 1.23095214366912840000e-001) (75, -3.23982536792755130000e-001) (0, -1.50000000000000000000e+003) (1, 1.50000000000000000000e+003) (2, -1.50000000000000000000e+003) (3, -1.50000000000000000000e+003) (4, -1.47500000000000000000e+003) (5, -1.49999462890625000000e+003) (6, -1.50000000000000000000e+003) (7, 1.50000000000000000000e+003) (8, -1.17407617187500000000e+003) (9, -1.49999987792968750000e+003) (10, 1.50000000000000000000e+003) (11, -1.50000000000000000000e+003) (12, -1.50000000000000000000e+003) (13, -1.49999365234375000000e+003) (14, 1.49993554687500000000e+003) (15, -1.50000000000000000000e+003) (16, 1.48272070312500000000e+003) (17, -1.50000000000000000000e+003) (18, -1.50000000000000000000e+003) (19, -1.50000000000000000000e+003) (20, -1.00953381347656250000e+003) (21, -1.50000000000000000000e+003) (22, 1.50000000000000000000e+003) (23, 1.06381616210937500000e+003) (24, -1.50000000000000000000e+003) (25, 1.50000000000000000000e+003) (26, -1.49883361816406250000e+003) (27, -1.38516857910156250000e+003) (28, -1.49843115234375000000e+003) (29, -1.50000000000000000000e+003) (30, -1.50000000000000000000e+003) (31, -1.50000000000000000000e+003) (32, 1.11179272460937500000e+003) (33, -1.50000000000000000000e+003) (34, -1.50000000000000000000e+003) (35, -1.44207849121093750000e+003) (36, -1.50000000000000000000e+003) (37, 1.50000000000000000000e+003) (38, 1.50000000000000000000e+003) (39, -1.50000000000000000000e+003) (40, -1.50000000000000000000e+003) (41, -1.50000000000000000000e+003) (42, -1.49999975585937500000e+003) (43, 1.50000000000000000000e+003) (44, 1.49996301269531250000e+003) (45, -1.50000000000000000000e+003) (46, -1.50000000000000000000e+003) (47, -1.49680310058593750000e+003) (48, -1.50000000000000000000e+003) (49, -8.43207519531250000000e+002) (50, -1.37376940917968750000e+003) (51, -1.50000000000000000000e+003) (52, 1.50000000000000000000e+003) (53, 1.49113098144531250000e+003) (54, -1.49999987792968750000e+003) (55, 1.41455358886718750000e+003) (56, -1.50000000000000000000e+003) (57, -1.50000000000000000000e+003) (58, 6.43057861328125000000e+002) (59, -1.24558361816406250000e+003) (60, -1.50000000000000000000e+003) (61, -1.50000000000000000000e+003) (62, -1.50000000000000000000e+003) (63, -1.50000000000000000000e+003) (64, -1.46908508300781250000e+003) (65, -1.49995947265625000000e+003) (66, -1.50000000000000000000e+003) (67, 1.50000000000000000000e+003) (68, -1.49994140625000000000e+003) (69, -1.50000000000000000000e+003) (70, 1.50000000000000000000e+003) (71, -1.50000000000000000000e+003) (72, -1.50000000000000000000e+003) (73, -1.50000000000000000000e+003) (74, -1.49884460449218750000e+003) (75, -1.63429962158203120000e+002) (0, -1.50000000000000000000e+003) (1, -1.50000000000000000000e+003) (2, -1.50000000000000000000e+003) (3, 7.62285278320312500000e+002) (4, 1.50000000000000000000e+003) (5, 1.50000000000000000000e+003) (6, 1.19949005126953120000e+002) (7, -2.78823059082031250000e+002) (8, 1.49999401855468750000e+003) (9, -1.49999609375000000000e+003) (10, -1.42559436035156250000e+003) (11, -1.50000000000000000000e+003) (12, 1.13173791503906250000e+003) (13, 1.50000000000000000000e+003) (14, -1.26247741699218750000e+003) (15, -1.50000000000000000000e+003) (16, -1.50000000000000000000e+003) (17, -1.50000000000000000000e+003) (18, -1.50000000000000000000e+003) (19, 1.50000000000000000000e+003) (20, 1.50000000000000000000e+003) (21, 1.50000000000000000000e+003) (22, 1.50000000000000000000e+003) (23, 1.49999621582031250000e+003) (24, -5.73173583984375000000e+002) (25, -4.98235260009765620000e+002) (26, -1.50000000000000000000e+003) (27, -4.63060058593750000000e+002) (28, -1.50000000000000000000e+003) (29, -1.50000000000000000000e+003) (30, 1.05660168457031250000e+003) (31, -1.50000000000000000000e+003) (32, -1.50000000000000000000e+003) (33, -1.50000000000000000000e+003) (34, 1.50000000000000000000e+003) (35, 1.50000000000000000000e+003) (36, 1.50000000000000000000e+003) (37, -1.32679602050781250000e+003) (38, -1.49557336425781250000e+003) (39, -1.50000000000000000000e+003) (40, -1.50000000000000000000e+003) (41, -1.50000000000000000000e+003) (42, -1.49991699218750000000e+003) (43, -1.50000000000000000000e+003) (44, 1.57807693481445310000e+002) (45, -5.85550964355468750000e+002) (46, 1.19561914062500000000e+003) (47, -1.42598925781250000000e+003) (48, 1.49997485351562500000e+003) (49, -5.00041778564453120000e+002) (50, -3.98703796386718750000e+002) (51, -7.09228881835937500000e+002) (52, -1.11931909179687500000e+003) (53, -1.50000000000000000000e+003) (54, 1.04860160827636720000e+002) (55, -5.61889404296875000000e+002) (56, -1.50000000000000000000e+003) (57, -1.36082043457031250000e+003) (58, 1.50000000000000000000e+003) (59, -1.50000000000000000000e+003) (60, -1.28464270019531250000e+003) (61, -1.50000000000000000000e+003) (62, -1.50000000000000000000e+003) (63, -1.50000000000000000000e+003) (64, 1.50000000000000000000e+003) (65, 1.42839062500000000000e+003) (66, -1.50000000000000000000e+003) (67, -1.50000000000000000000e+003) (68, -1.50000000000000000000e+003) (69, 5.89981811523437500000e+002) (70, 1.50000000000000000000e+003) (71, -1.50000000000000000000e+003) (72, 1.50000000000000000000e+003) (73, -1.50000000000000000000e+003) (74, 1.50000000000000000000e+003) (75, 1.50000000000000000000e+003) (0, 4.66923999786376950000e+000) (1, 1.50000000000000000000e+003) (2, 1.49998986816406250000e+003) (3, 9.41585063934326170000e-001) (4, -1.96749771118164060000e+002) (5, 1.47234216308593750000e+003) (6, 4.00577038526535030000e-001) (7, -1.11645568847656250000e+003) (8, -7.28295593261718750000e+002) (9, 1.30561554431915280000e+000) (10, 1.50000000000000000000e+003) (11, 9.24253662109375000000e+002) (12, 5.44274091720581050000e-001) (13, -1.49142028808593750000e+003) (14, -1.50000000000000000000e+003) (15, 1.48501440429687500000e+003) (16, 1.49920483398437500000e+003) (17, 1.49998876953125000000e+003) (18, 1.49996447753906250000e+003) (19, 1.49958239746093750000e+003) (20, 1.42837829589843750000e+003) (21, 2.05018348693847660000e+001) (22, 1.27065075683593750000e+003) (23, -4.03296478271484370000e+002) (24, 1.30210534667968750000e+003) (25, 1.50000000000000000000e+003) (26, -2.27698135375976560000e+002) (27, 3.44811534881591800000e+000) (28, 1.50000000000000000000e+003) (29, -1.26640649414062500000e+003) (30, 1.45772900390625000000e+003) (31, 1.50000000000000000000e+003) (32, -1.47036026000976560000e+002) (33, 1.19766552734375000000e+003) (34, 1.49985644531250000000e+003) (35, 1.49999279785156250000e+003) (36, 1.31760179996490480000e+000) (37, -1.50000000000000000000e+003) (38, 1.50000000000000000000e+003) (39, 5.64886245727539060000e+001) (40, 1.50000000000000000000e+003) (41, -1.50000000000000000000e+003) (42, 5.78959584236145020000e-001) (43, 1.50000000000000000000e+003) (44, -1.49601904296875000000e+003) (45, 5.93809936523437500000e+002) (46, 1.50000000000000000000e+003) (47, -5.40508918762207030000e+001) (48, 1.20075082778930660000e+001) (49, 6.46084350585937500000e+002) (50, -4.77111572265625000000e+002) (51, 1.53364959716796870000e+002) (52, -1.46259838867187500000e+003) (53, 1.06469818115234370000e+002) (54, 9.05688226222991940000e-001) (55, 1.50000000000000000000e+003) (56, 1.49996972656250000000e+003) (57, 3.56733512878417970000e+000) (58, -6.10223999023437500000e+002) (59, 1.47954333496093750000e+003) (60, 3.54707455635070800000e+000) (61, 1.50000000000000000000e+003) (62, -1.49996533203125000000e+003) (63, 1.27741539478302000000e+000) (64, -1.50000000000000000000e+003) (65, 1.13600265502929690000e+002) (66, 9.82205331325531010000e-001) (67, 1.50000000000000000000e+003) (68, 1.50000000000000000000e+003) (69, 1.01953387260437010000e+000) (70, -1.31788647460937500000e+003) (71, 1.50000000000000000000e+003) (72, 7.40467846393585210000e-001) (73, 1.50000000000000000000e+003) (74, 1.45519238281250000000e+003) (75, 1.50000000000000000000e+003) (0, 9.90416556596755980000e-002) (1, 1.25570734962821010000e-002) (2, -8.28922614455223080000e-002) (3, 3.13508301973342900000e-001) (4, 1.54024064540863040000e-001) (5, 1.64756737649440770000e-002) (6, 3.31595301628112790000e-001) (7, 5.52963912487030030000e-001) (8, -2.07986325025558470000e-001) (9, -1.07825458049774170000e-001) (10, 5.43401122093200680000e-001) (11, 2.13459536433219910000e-001) (12, -3.77767801284790040000e-001) (13, 3.12284052371978760000e-001) (14, 4.39247936010360720000e-002) (15, -6.61061555147171020000e-002) (16, -1.05967953801155090000e-001) (17, 7.06574842333793640000e-002) (18, 2.27114960551261900000e-001) (19, 2.76579316705465320000e-002) (20, -7.80422799289226530000e-003) (21, 1.57990992069244380000e-001) (22, 2.08322778344154360000e-002) (23, 5.55301420390605930000e-002) (24, -1.46285223960876460000e+000) (25, 3.84557217359542850000e-001) (26, -1.16787552833557130000e-001) (27, 4.17511686682701110000e-002) (28, -1.49766102433204650000e-001) (29, 2.23552770912647250000e-002) (30, 1.51228591799736020000e-001) (31, 1.31121603772044180000e-002) (32, 6.99605047702789310000e-002) (33, 6.71668171882629390000e-001) (34, 3.81735563278198240000e-001) (35, 2.28448435664176940000e-002) (36, 6.65103197097778320000e-001) (37, 1.03835272789001460000e+000) (38, 1.91720277070999150000e-001) (39, -1.39386403560638430000e+000) (40, -2.89361596107482910000e-001) (41, -5.09135365486145020000e-001) (42, 5.07481813430786130000e-001) (43, -1.76242023706436160000e-001) (44, 3.20679247379302980000e-001) (45, 1.70691087841987610000e-001) (46, 5.56074827909469600000e-002) (47, -1.37255147099494930000e-001) (48, 4.48112070560455320000e-001) (49, 3.58620554208755490000e-001) (50, 2.63315230607986450000e-001) (51, 2.14153572916984560000e-001) (52, 7.64451444149017330000e-001) (53, 7.65643343329429630000e-002) (54, -1.10329374670982360000e-001) (55, 9.85468085855245590000e-003) (56, -2.89642482995986940000e-001) (57, 3.87338101863861080000e-002) (58, -1.48447588086128230000e-001) (59, -3.67287732660770420000e-002) (60, 1.28658369183540340000e-001) (61, 2.05928105860948560000e-002) (62, -6.97855502367019650000e-002) (63, 2.86856055259704590000e-001) (64, 1.78922384977340700000e-001) (65, 1.58133760094642640000e-001) (66, 5.19568994641304020000e-002) (67, 3.60779494047164920000e-001) (68, 4.62519787251949310000e-002) (69, -4.48466211557388310000e-001) (70, 3.32953631877899170000e-001) (71, -6.07461631298065190000e-002) (72, -6.00094199180603030000e-002) (73, 6.70061409473419190000e-002) (74, -5.61428442597389220000e-002) (75, 1.69908201694488530000e+000) (0, 1.50000000000000000000e+003) (1, 1.50000000000000000000e+003) (2, 1.50000000000000000000e+003) (3, 1.50000000000000000000e+003) (4, -1.49884851074218750000e+003) (5, 1.50000000000000000000e+003) (6, 1.50000000000000000000e+003) (7, 1.50000000000000000000e+003) (8, 1.50000000000000000000e+003) (9, 1.50000000000000000000e+003) (10, 4.99740692138671870000e+002) (11, 1.49334838867187500000e+003) (12, 1.50000000000000000000e+003) (13, -1.50000000000000000000e+003) (14, 1.44003356933593750000e+003) (15, -1.09379187011718750000e+003) (16, 1.50000000000000000000e+003) (17, 1.50000000000000000000e+003) (18, 1.50000000000000000000e+003) (19, 1.50000000000000000000e+003) (20, 1.50000000000000000000e+003) (21, 1.50000000000000000000e+003) (22, -1.50000000000000000000e+003) (23, 1.50000000000000000000e+003) (24, 1.50000000000000000000e+003) (25, 1.50000000000000000000e+003) (26, -1.49851574707031250000e+003) (27, 1.50000000000000000000e+003) (28, -1.50000000000000000000e+003) (29, 1.49773718261718750000e+003) (30, -1.50000000000000000000e+003) (31, -1.49358947753906250000e+003) (32, 6.97093383789062500000e+002) (33, 1.50000000000000000000e+003) (34, 1.50000000000000000000e+003) (35, 1.50000000000000000000e+003) (36, 1.50000000000000000000e+003) (37, -1.50000000000000000000e+003) (38, -1.50000000000000000000e+003) (39, 1.50000000000000000000e+003) (40, 1.50000000000000000000e+003) (41, -1.50000000000000000000e+003) (42, 1.50000000000000000000e+003) (43, -1.49054040527343750000e+003) (44, -1.50000000000000000000e+003) (45, -1.50000000000000000000e+003) (46, -1.49999414062500000000e+003) (47, -1.49999194335937500000e+003) (48, 1.50000000000000000000e+003) (49, 1.50000000000000000000e+003) (50, 1.49798522949218750000e+003) (51, 1.50000000000000000000e+003) (52, -1.50000000000000000000e+003) (53, 1.00257379150390620000e+003) (54, 1.50000000000000000000e+003) (55, 1.50000000000000000000e+003) (56, -1.49964038085937500000e+003) (57, 1.50000000000000000000e+003) (58, -1.50000000000000000000e+003) (59, -1.50000000000000000000e+003) (60, 1.50000000000000000000e+003) (61, 1.50000000000000000000e+003) (62, -1.44858862304687500000e+003) (63, 1.50000000000000000000e+003) (64, -1.11211706542968750000e+003) (65, -1.50000000000000000000e+003) (66, 1.50000000000000000000e+003) (67, 1.21578269958496090000e+002) (68, 1.50000000000000000000e+003) (69, 1.50000000000000000000e+003) (70, 1.50000000000000000000e+003) (71, -1.14060559082031250000e+003) (72, 1.50000000000000000000e+003) (73, -1.50000000000000000000e+003) (74, 1.50000000000000000000e+003) (75, 1.50000000000000000000e+003) (0, 2.22818441689014430000e-002) (1, -1.62901282310485840000e-001) (2, 1.22342936694622040000e-001) (3, 2.81006872653961180000e-001) (4, -1.60137549042701720000e-001) (5, -8.25678929686546330000e-002) (6, 3.22448685765266420000e-002) (7, -6.00575506687164310000e-002) (8, 6.36889562010765080000e-002) (9, 9.90798249840736390000e-002) (10, -1.34651765227317810000e-001) (11, 2.64598250389099120000e-001) (12, 5.58442138135433200000e-002) (13, 5.95046058297157290000e-002) (14, -3.20406109094619750000e-002) (15, -1.47506847977638240000e-001) (16, 7.60450437664985660000e-002) (17, 6.81677088141441350000e-003) (18, -5.76574385166168210000e-001) (19, -7.35184624791145320000e-002) (20, -2.25114777684211730000e-001) (21, -8.80336537957191470000e-002) (22, -1.49186447262763980000e-001) (23, 3.72635483741760250000e-001) (24, 9.40167829394340520000e-002) (25, 2.62900531291961670000e-001) (26, 1.25010870397090910000e-002) (27, -2.47105091810226440000e-001) (28, 4.74031306803226470000e-002) (29, -5.25501191616058350000e-001) (30, 6.11794888973236080000e-001) (31, 1.11004516482353210000e-001) (32, -5.13600111007690430000e-002) (33, 8.01504731178283690000e-001) (34, 8.01739990711212160000e-001) (35, -1.67441815137863160000e-001) (36, 6.22241990640759470000e-003) (37, 1.90124905109405520000e+000) (38, 1.71428644657135010000e+000) (39, 1.49922025203704830000e+000) (40, 1.43025308847427370000e-001) (41, -8.93082559108734130000e-001) (42, 3.98427695035934450000e-002) (43, 2.83942352980375290000e-002) (44, -4.55856174230575560000e-001) (45, 2.93197751045227050000e-001) (46, 1.82203114032745360000e-001) (47, -2.21705529838800430000e-002) (48, -2.67834633588790890000e-001) (49, 3.14867705106735230000e-001) (50, -1.05334714055061340000e-001) (51, 7.05225765705108640000e-002) (52, 3.66619706153869630000e-001) (53, 5.00752091407775880000e-001) (54, -4.87468242645263670000e-002) (55, 2.03367874026298520000e-001) (56, -2.88170278072357180000e-001) (57, -1.44756227731704710000e-001) (58, -2.66365036368370060000e-002) (59, -3.96476924419403080000e-001) (60, -1.80816590785980220000e-001) (61, -1.47398352622985840000e-001) (62, -8.88001769781112670000e-002) (63, 4.27272140979766850000e-001) (64, -1.05992831289768220000e-001) (65, -4.10474324598908420000e-003) (66, -2.31578517705202100000e-002) (67, 1.00460529327392580000e-001) (68, 9.53245237469673160000e-002) (69, -6.76910951733589170000e-002) (70, -7.76142776012420650000e-002) (71, -6.67119696736335750000e-002) (72, 1.46357953548431400000e-001) (73, -2.14181039482355120000e-002) (74, 1.08012579381465910000e-001) (75, -7.72337198257446290000e+000) (0, -2.50733341090381150000e-003) (1, -1.16880852729082110000e-002) (2, 1.18106985464692120000e-002) (3, 1.47602846845984460000e-003) (4, -2.61851102113723750000e-002) (5, -4.71080131828784940000e-002) (6, -4.99554499983787540000e-002) (7, -3.94381619989871980000e-002) (8, 3.85054200887680050000e-002) (9, 1.82411298155784610000e-002) (10, -1.22294537723064420000e-002) (11, 4.91367876529693600000e-002) (12, 1.21898222714662550000e-002) (13, 1.97186246514320370000e-002) (14, -1.29243182018399240000e-002) (15, -5.63586875796318050000e-003) (16, -1.03122573345899580000e-002) (17, -6.10006740316748620000e-003) (18, 2.01943561434745790000e-001) (19, 4.98443208634853360000e-002) (20, 4.76873964071273800000e-002) (21, 2.60213553905487060000e-001) (22, 1.48883432149887080000e-001) (23, 1.49348024278879170000e-002) (24, 1.69189716689288620000e-003) (25, 5.80823831260204320000e-002) (26, 6.41934797167778020000e-002) (27, 1.50895416736602780000e-002) (28, -1.03746289387345310000e-002) (29, -4.79224435985088350000e-002) (30, 1.18681915104389190000e-001) (31, 3.19097787141799930000e-002) (32, 1.96843501180410390000e-003) (33, 7.45575428009033200000e-001) (34, 2.93631881475448610000e-001) (35, 3.99204604327678680000e-002) (36, -9.58526432514190670000e-002) (37, 6.36163875460624690000e-002) (38, -8.55022072792053220000e-002) (39, 1.86086803674697880000e-001) (40, -3.29960435628890990000e-001) (41, -1.13101646304130550000e-001) (42, 2.32927858829498290000e-001) (43, -4.28301505744457240000e-002) (44, -1.06291088741272690000e-003) (45, 2.67258472740650180000e-002) (46, -2.19722147448919710000e-004) (47, -5.13081923127174380000e-002) (48, 1.76265805959701540000e-001) (49, 8.79070088267326350000e-002) (50, 4.56258691847324370000e-002) (51, 9.21120792627334590000e-002) (52, 2.42318600416183470000e-001) (53, 1.18182010948657990000e-001) (54, -9.69065800309181210000e-002) (55, 4.12952937185764310000e-002) (56, -1.26971095800399780000e-001) (57, 1.66981909424066540000e-002) (58, -2.92855892330408100000e-002) (59, -6.69465214014053340000e-002) (60, 4.66271452605724330000e-002) (61, -2.41257473826408390000e-002) (62, -1.14256395027041440000e-002) (63, 4.70792147098109130000e-004) (64, -3.42522747814655300000e-002) (65, -3.11142206192016600000e-003) (66, -3.96174862980842590000e-002) (67, -1.31814882159233090000e-001) (68, 2.40161176770925520000e-002) (69, 1.14899925887584690000e-001) (70, -3.75665724277496340000e-002) (71, -9.56873130053281780000e-003) (72, -4.43273084238171580000e-003) (73, 3.86291742324829100000e-002) (74, -9.16637107729911800000e-003) (75, -3.42018246650695800000e+000) (0, -6.24420829117298130000e-002) (1, -2.12235134094953540000e-002) (2, -2.32116311788558960000e-001) (3, 1.36441662907600400000e-001) (4, 3.83838899433612820000e-002) (5, 2.58360505104064940000e-001) (6, 1.64042767137289050000e-002) (7, 2.10452243685722350000e-001) (8, -4.28692251443862920000e-001) (9, -2.31332004070281980000e-001) (10, 3.26378881931304930000e-001) (11, 3.79116237163543700000e-002) (12, -2.15796396136283870000e-001) (13, 7.44899287819862370000e-002) (14, -6.23852983117103580000e-002) (15, 2.37203717231750490000e-001) (16, 8.64546969532966610000e-002) (17, 7.54556944593787190000e-003) (18, 2.59382814168930050000e-001) (19, 1.91196009516716000000e-001) (20, 1.06980264186859130000e+000) (21, 4.65729027986526490000e-001) (22, 6.47454261779785160000e-002) (23, -7.02561259269714360000e-001) (24, -1.40014618635177610000e-001) (25, -3.19942496716976170000e-002) (26, -2.20581144094467160000e-001) (27, 1.50810465216636660000e-001) (28, -7.95203372836112980000e-002) (29, -6.36339634656906130000e-002) (30, 2.26572602987289430000e-001) (31, 2.35753357410430910000e-001) (32, 5.43132245540618900000e-001) (33, 8.04178714752197270000e-001) (34, 3.76199096441268920000e-001) (35, 9.02622878551483150000e-001) (36, -2.41923570632934570000e-001) (37, -3.44761180877685550000e+000) (38, -1.39496183395385740000e+000) (39, 5.69539308547973630000e-001) (40, -4.53223615884780880000e-001) (41, -2.65186816453933720000e-001) (42, -7.76661634445190430000e-002) (43, 8.34210515022277830000e-002) (44, 4.78435873985290530000e-001) (45, 1.18711283430457120000e-002) (46, 4.50838319957256320000e-002) (47, -1.59996435046195980000e-001) (48, 1.40862837433815000000e-001) (49, 1.50225430727005000000e-001) (50, 4.25217926502227780000e-001) (51, 1.31809338927268980000e-001) (52, 3.02111208438873290000e-002) (53, -7.93022930622100830000e-001) (54, -3.24073106050491330000e-001) (55, -2.33276970684528350000e-002) (56, 3.28453689813613890000e-001) (57, -4.61562871932983400000e-002) (58, 1.70909818261861800000e-002) (59, 5.40757179260253910000e-002) (60, -2.08912026137113570000e-002) (61, 1.73756889998912810000e-002) (62, 2.25799396634101870000e-001) (63, -4.68923989683389660000e-003) (64, 1.40174984931945800000e-001) (65, 1.13171553239226340000e-002) (66, -8.88558104634284970000e-002) (67, 3.23734462261199950000e-001) (68, 6.70247450470924380000e-002) (69, -8.21548178791999820000e-002) (70, 2.00618162751197810000e-001) (71, -6.16727411746978760000e-001) (72, -3.82165685296058650000e-002) (73, -7.06654414534568790000e-003) (74, 2.67633855342864990000e-001) (75, -1.45069732666015630000e+001) (0, 1.16824047851562500000e+003) (1, -1.49999621582031250000e+003) (2, 1.50000000000000000000e+003) (3, 1.40175817871093750000e+003) (4, -1.50000000000000000000e+003) (5, -9.50108703613281250000e+002) (6, 1.49161572265625000000e+003) (7, 1.50000000000000000000e+003) (8, 1.50000000000000000000e+003) (9, -1.17194421386718750000e+003) (10, 1.45807580566406250000e+003) (11, 1.49998876953125000000e+003) (12, -1.49997778320312500000e+003) (13, 1.50000000000000000000e+003) (14, 1.49998876953125000000e+003) (15, 1.50000000000000000000e+003) (16, -1.50000000000000000000e+003) (17, 1.50000000000000000000e+003) (18, -1.50000000000000000000e+003) (19, -1.50000000000000000000e+003) (20, 1.50000000000000000000e+003) (21, -1.50000000000000000000e+003) (22, 1.50000000000000000000e+003) (23, 1.50000000000000000000e+003) (24, -1.49997070312500000000e+003) (25, -1.50000000000000000000e+003) (26, 1.49998364257812500000e+003) (27, -1.49997814941406250000e+003) (28, -1.50000000000000000000e+003) (29, 1.50000000000000000000e+003) (30, 1.10055114746093750000e+003) (31, -1.50000000000000000000e+003) (32, 1.50000000000000000000e+003) (33, -1.50000000000000000000e+003) (34, -1.50000000000000000000e+003) (35, 1.50000000000000000000e+003) (36, -1.50000000000000000000e+003) (37, 1.50000000000000000000e+003) (38, 1.50000000000000000000e+003) (39, -1.49997814941406250000e+003) (40, -1.50000000000000000000e+003) (41, -3.46759002685546880000e+002) (42, -1.50000000000000000000e+003) (43, -1.50000000000000000000e+003) (44, 1.49907385253906250000e+003) (45, 6.18341003417968750000e+002) (46, -1.50000000000000000000e+003) (47, 1.50000000000000000000e+003) (48, -1.49999987792968750000e+003) (49, -1.50000000000000000000e+003) (50, 1.50000000000000000000e+003) (51, 1.49992639160156250000e+003) (52, 1.50000000000000000000e+003) (53, 1.50000000000000000000e+003) (54, 4.04622344970703120000e+002) (55, -1.50000000000000000000e+003) (56, 1.48464099121093750000e+003) (57, 2.27576309204101560000e+002) (58, 9.01511657714843750000e+002) (59, 9.90158020019531250000e+002) (60, 9.80302917480468750000e+002) (61, -1.50000000000000000000e+003) (62, 1.50000000000000000000e+003) (63, 1.49713549804687500000e+003) (64, -1.49999975585937500000e+003) (65, 1.50000000000000000000e+003) (66, 9.06265808105468750000e+002) (67, 1.50000000000000000000e+003) (68, -1.01381658935546870000e+003) (69, 1.35134094238281250000e+002) (70, 1.50000000000000000000e+003) (71, 1.49991821289062500000e+003) (72, -1.50000000000000000000e+003) (73, -1.50000000000000000000e+003) (74, -1.50000000000000000000e+003) (75, 1.50000000000000000000e+003) (0, -7.42961466312408450000e-002) (1, -4.19351365417242050000e-003) (2, -4.16921585798263550000e-001) (3, 2.64358729124069210000e-001) (4, 1.22293131425976750000e-002) (5, -2.60302662849426270000e-001) (6, 2.39605113863945010000e-001) (7, 2.41126745939254760000e-001) (8, 2.96646833419799800000e-001) (9, -7.04986900091171260000e-002) (10, 3.27148675918579100000e-001) (11, -7.74524033069610600000e-001) (12, -1.65339931845664980000e-001) (13, 1.56324297189712520000e-001) (14, 5.83899021148681640000e-001) (15, -1.47509962320327760000e-001) (16, 7.18107772991061210000e-003) (17, 5.52435703575611110000e-002) (18, 1.54449075460433960000e-001) (19, 1.44004030153155330000e-002) (20, 7.17838928103446960000e-002) (21, 2.34610155224800110000e-001) (22, -7.33327791094779970000e-002) (23, 8.52413326501846310000e-002) (24, 4.51145544648170470000e-002) (25, 1.62923395633697510000e-001) (26, -2.17117488384246830000e-001) (27, 1.63569703698158260000e-001) (28, 1.00201815366745000000e-001) (29, -1.42490312457084660000e-001) (30, 1.91311106085777280000e-001) (31, -5.69317042827606200000e-002) (32, -1.11604236066341400000e-001) (33, 5.73273360729217530000e-001) (34, 1.83437705039978030000e-001) (35, 2.17000454664230350000e-001) (36, 9.70126017928123470000e-002) (37, 8.57625782489776610000e-001) (38, 4.36178594827651980000e-001) (39, 2.75853276252746580000e-001) (40, -4.97422099113464360000e-001) (41, -4.76864933967590330000e-001) (42, 3.53511810302734380000e-001) (43, -1.90716549754142760000e-001) (44, -1.25788778066635130000e-001) (45, 5.99754825234413150000e-002) (46, -7.75064304471015930000e-002) (47, -1.47694587707519530000e-001) (48, 3.63436132669448850000e-001) (49, 2.24427774548530580000e-001) (50, 6.11406445503234860000e-001) (51, -1.53914261609315870000e-002) (52, 3.82059544324874880000e-001) (53, 2.46677268296480180000e-002) (54, -4.68067415058612820000e-002) (55, 2.42839574813842770000e-001) (56, 2.70827203989028930000e-001) (57, -3.76749262213706970000e-002) (58, -4.47687618434429170000e-002) (59, 9.68362241983413700000e-002) (60, 4.69750128686428070000e-002) (61, 1.20140731334686280000e-001) (62, -1.56627908349037170000e-001) (63, 1.06502011418342590000e-001) (64, 1.07277654111385350000e-001) (65, -2.56638467311859130000e-001) (66, 7.19155371189117430000e-002) (67, 8.02236646413803100000e-002) (68, 1.94639414548873900000e-001) (69, -3.71214449405670170000e-002) (70, 1.89073145389556880000e-001) (71, -4.77579124271869660000e-002) (72, -3.92386853694915770000e-001) (73, 3.35656523704528810000e-001) (74, -2.08772167563438420000e-001) (75, -1.08766059875488280000e+001) (0, 5.39841491699218750000e+002) (1, 8.41778564453125000000e+002) (2, -1.02749267578125000000e+003) (3, 4.61082061767578120000e+002) (4, 1.50000000000000000000e+003) (5, -1.27486547851562500000e+003) (6, -1.07120605468750000000e+003) (7, -1.50000000000000000000e+003) (8, -1.50000000000000000000e+003) (9, 2.12598133087158200000e+001) (10, -1.43628051757812500000e+003) (11, 2.39693164825439450000e+001) (12, -4.20584411621093750000e+001) (13, -1.50000000000000000000e+003) (14, -5.23772033691406250000e+002) (15, 5.23927917480468750000e+002) (16, 1.50000000000000000000e+003) (17, -9.28133056640625000000e+002) (18, 1.50000000000000000000e+003) (19, 1.50000000000000000000e+003) (20, -1.50000000000000000000e+003) (21, -1.49111499023437500000e+003) (22, -1.50000000000000000000e+003) (23, -1.50000000000000000000e+003) (24, 2.08837051391601560000e+002) (25, 1.50000000000000000000e+003) (26, 1.49918261718750000000e+003) (27, -1.48619665527343750000e+003) (28, 1.50000000000000000000e+003) (29, 7.89502197265625000000e+002) (30, 1.49781848144531250000e+003) (31, 1.50000000000000000000e+003) (32, -6.34622287750244140000e+000) (33, 1.47237768554687500000e+003) (34, 1.50000000000000000000e+003) (35, -1.50000000000000000000e+003) (36, -1.29125350952148440000e+002) (37, -1.50000000000000000000e+003) (38, -1.50000000000000000000e+003) (39, 1.14189384460449220000e+002) (40, 1.50000000000000000000e+003) (41, -1.04012561035156250000e+003) (42, -9.51564147949218750000e+002) (43, 1.50000000000000000000e+003) (44, 6.37849731445312500000e+001) (45, 1.49100073242187500000e+003) (46, 1.50000000000000000000e+003) (47, -6.43616699218750000000e+002) (48, -6.87359008789062500000e+002) (49, 1.50000000000000000000e+003) (50, -1.50000000000000000000e+003) (51, -1.49870800781250000000e+003) (52, -1.50000000000000000000e+003) (53, 1.22246420383453370000e+000) (54, -6.20785644531250000000e+002) (55, 1.50000000000000000000e+003) (56, -3.15771728515625000000e+002) (57, -1.02718115234375000000e+003) (58, 1.49999658203125000000e+003) (59, 3.88974523544311520000e+000) (60, 1.34066149902343750000e+003) (61, 1.50000000000000000000e+003) (62, -1.41803637695312500000e+003) (63, -3.00122100830078120000e+002) (64, 6.72621078491210940000e+001) (65, -1.50000000000000000000e+003) (66, -9.66359329223632810000e+001) (67, -1.50000000000000000000e+003) (68, -1.45042236328125000000e+003) (69, 4.63815345764160160000e+001) (70, -1.50000000000000000000e+003) (71, 1.50000000000000000000e+003) (72, -2.17344512939453130000e+002) (73, 1.50000000000000000000e+003) (74, -3.45144866943359370000e+002) (75, 1.49868334960937500000e+003) (0, -8.54358596801757810000e+001) (1, 1.48958386230468750000e+003) (2, 1.48922180175781250000e+002) (3, -8.51421177387237550000e-001) (4, -1.50000000000000000000e+003) (5, 2.25132064819335940000e+001) (6, 3.86786758899688720000e-001) (7, 1.50000000000000000000e+003) (8, -5.35536336898803710000e+000) (9, 3.90629887580871580000e+000) (10, -1.50000000000000000000e+003) (11, -1.49997106933593750000e+003) (12, 7.19278156757354740000e-001) (13, 1.50000000000000000000e+003) (14, -1.85881042480468750000e+001) (15, -2.47335891723632810000e+001) (16, -1.50000000000000000000e+003) (17, -3.03193569183349610000e+001) (18, -1.50000000000000000000e+003) (19, -1.50000000000000000000e+003) (20, 1.50000000000000000000e+003) (21, 3.73023092746734620000e-001) (22, 1.50000000000000000000e+003) (23, 1.50000000000000000000e+003) (24, 9.23429809570312500000e+002) (25, -1.50000000000000000000e+003) (26, -1.25454919433593750000e+003) (27, 1.66384639739990230000e+001) (28, -1.50000000000000000000e+003) (29, -9.45082244873046880000e+001) (30, -1.50000000000000000000e+003) (31, -1.50000000000000000000e+003) (32, 1.50000000000000000000e+003) (33, -1.46060058593750000000e+003) (34, -1.50000000000000000000e+003) (35, 1.50000000000000000000e+003) (36, 3.78264218568801880000e-001) (37, 1.50000000000000000000e+003) (38, 1.50000000000000000000e+003) (39, 1.50000000000000000000e+003) (40, -1.50000000000000000000e+003) (41, -3.56242156982421870000e+002) (42, 1.42879226684570310000e+002) (43, -1.50000000000000000000e+003) (44, -1.50000000000000000000e+003) (45, -4.65599346160888670000e+000) (46, -1.49998913574218750000e+003) (47, 1.13339538574218750000e+003) (48, -1.64525470733642580000e+001) (49, -1.50000000000000000000e+003) (50, 1.50000000000000000000e+003) (51, 3.18678587675094600000e-001) (52, 1.50000000000000000000e+003) (53, 1.50000000000000000000e+003) (54, 1.50000000000000000000e+003) (55, -1.50000000000000000000e+003) (56, -7.08208694458007810000e+001) (57, 1.43834714889526370000e+001) (58, -1.50000000000000000000e+003) (59, -1.50000000000000000000e+003) (60, -5.60641527175903320000e+000) (61, -1.50000000000000000000e+003) (62, 1.49969470214843750000e+003) (63, -1.97959995269775390000e+000) (64, 1.49149450683593750000e+003) (65, 1.50000000000000000000e+003) (66, 6.24581038951873780000e-001) (67, 1.50000000000000000000e+003) (68, 1.49994653320312500000e+003) (69, 9.80385875701904300000e+000) (70, 1.49177526855468750000e+003) (71, -1.50000000000000000000e+003) (72, 1.03208742141723630000e+001) (73, -1.50000000000000000000e+003) (74, -1.50000000000000000000e+003) (75, -4.55124616622924800000e+000) (0, 1.06542691588401790000e-001) (1, 1.59292921423912050000e-001) (2, -6.51039838790893550000e-001) (3, 1.29363670945167540000e-001) (4, 1.94084063172340390000e-001) (5, 3.01646083593368530000e-001) (6, 3.71507495641708370000e-001) (7, 1.46084868907928470000e+000) (8, -3.53592962026596070000e-001) (9, 5.23479044437408450000e-001) (10, 1.44148933887481690000e+000) (11, 1.17218124866485600000e+000) (12, 3.24410974979400630000e-001) (13, 1.41098964214324950000e+000) (14, 4.91135865449905400000e-001) (15, 7.95739069581031800000e-002) (16, 1.22352726757526400000e-001) (17, -2.41522884368896480000e+000) (18, 4.72418516874313350000e-001) (19, 4.15359050035476680000e-001) (20, 3.23337602615356450000e+000) (21, 3.87024700641632080000e-001) (22, -1.87143236398696900000e-001) (23, 3.84461395442485810000e-002) (24, 8.59628438949584960000e-001) (25, 2.82076001167297360000e-001) (26, -1.45317733287811280000e+000) (27, 1.42299532890319820000e-001) (28, -4.81509268283843990000e-002) (29, 6.28413353115320210000e-003) (30, -5.33792018890380860000e-001) (31, -1.86920195817947390000e-001) (32, 2.00827455520629880000e+000) (33, 5.44129669666290280000e-001) (34, 9.69338655471801760000e-001) (35, -2.34665179252624510000e+000) (36, -7.47681409120559690000e-002) (37, 3.39662790298461910000e-001) (38, 2.41982102394104000000e-001) (39, 4.21631383895874020000e+000) (40, 2.10123610496521000000e+000) (41, 3.33158421516418460000e+000) (42, -1.21683597564697270000e+000) (43, -7.15944051742553710000e-001) (44, -2.29339361190795900000e+000) (45, -5.01387380063533780000e-002) (46, -1.10211767256259920000e-001) (47, 2.09732651710510250000e+000) (48, 3.48148316144943240000e-001) (49, 3.27114701271057130000e-001) (50, 1.33840882778167720000e+000) (51, 7.33472704887390140000e-002) (52, 3.67387682199478150000e-001) (53, -9.52764749526977540000e-001) (54, 1.42039790749549870000e-001) (55, 1.44203960895538330000e+000) (56, -1.62997066974639890000e+000) (57, -3.42184118926525120000e-002) (58, 1.00259995460510250000e+000) (59, 2.56350207328796390000e+000) (60, -5.76177574694156650000e-002) (61, 1.25111013650894170000e-001) (62, 2.49551296234130860000e+000) (63, 2.31272161006927490000e-001) (64, 1.41503795981407170000e-001) (65, -3.94310891628265380000e-001) (66, 6.13495111465454100000e-002) (67, 5.58133661746978760000e-001) (68, -2.42148494720458980000e+000) (69, 3.69688153266906740000e-001) (70, 1.64998754858970640000e-001) (71, 3.48595595359802250000e+000) (72, 2.12097391486167910000e-001) (73, 1.60912024974823000000e+000) (74, 7.93218016624450680000e-002) (75, 1.52320563793182370000e+000) (0, 2.51477956771850590000e-002) (1, 3.48157958984375000000e+002) (2, 1.50000000000000000000e+003) (3, -1.03382205963134770000e+000) (4, -1.50000000000000000000e+003) (5, -1.49301562500000000000e+003) (6, 4.38407123088836670000e-001) (7, 1.50000000000000000000e+003) (8, 1.50000000000000000000e+003) (9, 2.19965010881423950000e-001) (10, -1.49900634765625000000e+003) (11, -1.80850875377655030000e+000) (12, 4.93583790957927700000e-002) (13, 1.50000000000000000000e+003) (14, 1.50000000000000000000e+003) (15, -1.35383653640747070000e+000) (16, -1.50000000000000000000e+003) (17, -1.44122680664062500000e+003) (18, -1.50000000000000000000e+003) (19, -1.50000000000000000000e+003) (20, 1.50000000000000000000e+003) (21, 1.36503398418426510000e-001) (22, 1.50000000000000000000e+003) (23, 1.50000000000000000000e+003) (24, 1.50000000000000000000e+003) (25, -1.50000000000000000000e+003) (26, -3.72187530517578120000e+002) (27, 1.29439559936523440000e+002) (28, -1.50000000000000000000e+003) (29, -8.65975856781005860000e-001) (30, 1.28283694386482240000e-001) (31, -1.50000000000000000000e+003) (32, -8.68101684570312500000e+002) (33, -1.50000000000000000000e+003) (34, -1.50000000000000000000e+003) (35, 1.50000000000000000000e+003) (36, -7.71625518798828130000e+001) (37, 1.50000000000000000000e+003) (38, 1.50000000000000000000e+003) (39, 1.50000000000000000000e+003) (40, -1.50000000000000000000e+003) (41, 1.48830639648437500000e+003) (42, 1.05323538184165950000e-001) (43, 8.22516540527343750000e+002) (44, 2.38888931274414060000e+000) (45, 2.43155032396316530000e-001) (46, -1.50000000000000000000e+003) (47, -1.48184020996093750000e+003) (48, -1.50000000000000000000e+003) (49, -1.50000000000000000000e+003) (50, 1.50000000000000000000e+003) (51, 1.03796243667602540000e+000) (52, 1.50000000000000000000e+003) (53, 1.50000000000000000000e+003) (54, 1.50000000000000000000e+003) (55, -1.50000000000000000000e+003) (56, -3.14653949737548830000e+001) (57, 6.43573331832885740000e+000) (58, -1.50000000000000000000e+003) (59, -2.57631802558898930000e+000) (60, 4.47587341070175170000e-001) (61, -1.50000000000000000000e+003) (62, -1.48945178222656250000e+003) (63, -5.63902778625488280000e+001) (64, -1.49999951171875000000e+003) (65, 1.50000000000000000000e+003) (66, 3.00235182046890260000e-001) (67, 1.50000000000000000000e+003) (68, 5.57798271179199220000e+001) (69, 1.82657229900360110000e+000) (70, 1.50000000000000000000e+003) (71, -1.50000000000000000000e+003) (72, 3.99870872497558590000e+000) (73, -1.50000000000000000000e+003) (74, -1.50000000000000000000e+003) (75, 1.50000000000000000000e+003) (0, 7.81455561518669130000e-002) (1, -1.19193337857723240000e-001) (2, 2.12268158793449400000e-002) (3, 2.37953439354896550000e-001) (4, -6.16624392569065090000e-002) (5, 2.92907711118459700000e-002) (6, 9.55862551927566530000e-002) (7, 1.53649270534515380000e-001) (8, 1.17824800312519070000e-001) (9, -5.31676709651947020000e-001) (10, 2.61249810457229610000e-001) (11, 9.43999886512756350000e-002) (12, -5.02783246338367460000e-003) (13, 3.31016420386731620000e-003) (14, -1.21138289570808410000e-001) (15, 2.61136833578348160000e-002) (16, 1.13019950687885280000e-001) (17, -1.82148277759552000000e-001) (18, 6.47612273693084720000e-001) (19, 3.45858842134475710000e-001) (20, 1.59678414463996890000e-001) (21, 3.25621306896209720000e-001) (22, 5.67061483860015870000e-001) (23, 1.94480180740356450000e-001) (24, 5.52425384521484380000e-001) (25, -4.29912716150283810000e-001) (26, -2.64287944883108140000e-002) (27, 2.54203587770462040000e-001) (28, -2.15883463621139530000e-001) (29, -1.03282533586025240000e-001) (30, 3.68385285139083860000e-001) (31, 1.54225543141365050000e-001) (32, -5.51743358373641970000e-002) (33, 2.99556195735931400000e-001) (34, 4.86548334360122680000e-001) (35, 3.53252321481704710000e-001) (36, 4.92309212684631350000e-001) (37, 1.22236120700836180000e+000) (38, -6.58719599246978760000e-001) (39, -1.15083217620849610000e+000) (40, -2.53001004457473750000e-001) (41, -1.54982045292854310000e-001) (42, 4.80348080396652220000e-001) (43, -1.64502263069152830000e-001) (44, 1.01446986198425290000e-001) (45, -5.21885184571146970000e-003) (46, 3.97481136023998260000e-002) (47, -1.25234425067901610000e-001) (48, 2.26338226348161700000e-002) (49, 1.19351699948310850000e-001) (50, -5.92264942824840550000e-002) (51, 2.54569947719573970000e-002) (52, 3.53199914097785950000e-002) (53, 6.37003108859062190000e-002) (54, -1.10632205009460450000e+000) (55, 2.85143107175827030000e-001) (56, 6.46023005247116090000e-002) (57, 1.72956958413124080000e-002) (58, -1.94861590862274170000e-001) (59, 3.65740537643432620000e-001) (60, 7.99369588494300840000e-002) (61, -6.95939082652330400000e-003) (62, 1.36743718758225440000e-002) (63, 5.59625849127769470000e-002) (64, 1.19196353480219840000e-002) (65, 8.39893370866775510000e-002) (66, 9.15566366165876390000e-003) (67, -1.38178234919905660000e-002) (68, -9.96115207672119140000e-002) (69, 8.40816348791122440000e-002) (70, -1.26752376556396480000e-001) (71, 1.50922402739524840000e-001) (72, 1.16886615753173830000e-001) (73, -1.99440829455852510000e-002) (74, -1.60867393016815190000e-001) (75, -4.48897518217563630000e-002) (0, 1.49510266113281250000e+003) (1, -1.49979296875000000000e+003) (2, 1.50000000000000000000e+003) (3, 1.49988916015625000000e+003) (4, -1.50000000000000000000e+003) (5, -1.40561840820312500000e+003) (6, -2.37601791381835940000e+002) (7, -1.23279992675781250000e+003) (8, 1.50000000000000000000e+003) (9, 1.49999145507812500000e+003) (10, -1.50000000000000000000e+003) (11, 1.47132202148437500000e+003) (12, -1.49995361328125000000e+003) (13, -1.50000000000000000000e+003) (14, 1.49998071289062500000e+003) (15, 1.49987414550781250000e+003) (16, 1.43476391601562500000e+003) (17, 1.49501562500000000000e+003) (18, -6.89606079101562500000e+002) (19, -1.50000000000000000000e+003) (20, 8.85733642578125000000e+002) (21, -1.26887341308593750000e+003) (22, -1.46304980468750000000e+003) (23, 1.49849511718750000000e+003) (24, 1.41770727539062500000e+003) (25, 1.50000000000000000000e+003) (26, -1.49995654296875000000e+003) (27, 1.49814941406250000000e+003) (28, 1.50000000000000000000e+003) (29, 1.49999816894531250000e+003) (30, -1.50000000000000000000e+003) (31, 1.50000000000000000000e+003) (32, -1.49996618652343750000e+003) (33, 3.57892364501953120000e+002) (34, 1.50000000000000000000e+003) (35, -1.50000000000000000000e+003) (36, 1.30467272949218750000e+003) (37, -1.50000000000000000000e+003) (38, 1.50000000000000000000e+003) (39, 8.07905334472656250000e+002) (40, 1.49999609375000000000e+003) (41, -1.50000000000000000000e+003) (42, 8.31894531250000000000e+002) (43, 1.50000000000000000000e+003) (44, 8.62333984375000000000e+002) (45, 1.49992749023437500000e+003) (46, -1.36462036132812500000e+003) (47, -1.49951843261718750000e+003) (48, -7.71135498046875000000e+002) (49, 1.04274523925781250000e+003) (50, -1.50000000000000000000e+003) (51, 1.48864953613281250000e+003) (52, -1.44800000000000000000e+003) (53, 1.49998510742187500000e+003) (54, 1.41583593750000000000e+003) (55, -1.50000000000000000000e+003) (56, -1.49913549804687500000e+003) (57, 1.22966601562500000000e+003) (58, -1.03784538269042970000e+002) (59, -2.80065612792968750000e+002) (60, 2.19108306884765620000e+002) (61, 1.50000000000000000000e+003) (62, -1.49980676269531250000e+003) (63, 5.76837951660156250000e+002) (64, -1.50000000000000000000e+003) (65, -1.49986242675781250000e+003) (66, 6.96174743652343750000e+002) (67, -1.50000000000000000000e+003) (68, 2.60758117675781250000e+002) (69, -9.06664184570312500000e+002) (70, -1.50000000000000000000e+003) (71, 1.03503283691406250000e+003) (72, 1.45349047851562500000e+003) (73, 1.50000000000000000000e+003) (74, 1.50000000000000000000e+003) (75, 1.50000000000000000000e+003) (0, 4.15901124477386470000e-001) (1, 2.14354902505874630000e-001) (2, 5.35482048988342290000e-001) (3, 6.02366864681243900000e-001) (4, -3.82972843945026400000e-002) (5, 5.93200922012329100000e-001) (6, 1.90679520368576050000e-001) (7, -7.58731424808502200000e-001) (8, 3.84277552366256710000e-001) (9, 1.47350037097930910000e+000) (10, -2.46424302458763120000e-001) (11, -1.32911829277873040000e-002) (12, -3.33247870206832890000e-001) (13, 2.31397986412048340000e-001) (14, -4.39711548388004300000e-002) (15, 5.59390425682067870000e-001) (16, 3.95415365695953370000e-001) (17, -1.36875569820404050000e+000) (18, 9.66929137706756590000e-001) (19, 2.40331634879112240000e-001) (20, -4.23048764467239380000e-001) (21, 7.54421114921569820000e-001) (22, -4.29434728622436520000e+000) (23, -1.08717143535614010000e+000) (24, 7.88323044776916500000e-001) (25, -2.69261693954467770000e+000) (26, -2.03776791691780090000e-001) (27, 4.17499810457229610000e-001) (28, -1.36387124657630920000e-001) (29, -9.46779772639274600000e-002) (30, 6.20282351970672610000e-001) (31, 2.70658373832702640000e-001) (32, -2.56988716125488280000e+000) (33, 1.15187311172485350000e+000) (34, -7.62575626373291020000e-001) (35, -4.24671649932861330000e-001) (36, 4.18565005064010620000e-001) (37, -6.79120540618896480000e-001) (38, 1.05098557472229000000e+000) (39, 1.35206133127212520000e-001) (40, -8.62355053424835210000e-001) (41, -6.26830339431762700000e-001) (42, 3.14310431480407710000e-001) (43, -2.04610049724578860000e-001) (44, 1.02276909351348880000e+000) (45, 4.86901551485061650000e-001) (46, -1.80618599057197570000e-001) (47, -2.27302241325378420000e+000) (48, 7.27983951568603520000e-001) (49, -8.35116684436798100000e-001) (50, 9.47969108819961550000e-002) (51, 6.10923945903778080000e-001) (52, 9.57031965255737300000e-001) (53, 8.53351712226867680000e-001) (54, 1.01036620140075680000e+000) (55, -2.26948261260986330000e-001) (56, 6.81319892406463620000e-001) (57, -1.16178646683692930000e-001) (58, 1.31774380803108220000e-001) (59, -1.05493891239166260000e+000) (60, 2.00140699744224550000e-001) (61, 4.92935389280319210000e-001) (62, 1.06782472133636470000e+000) (63, 4.26228523254394530000e-001) (64, 3.23478758335113530000e-001) (65, -9.99369382858276370000e-001) (66, 2.19661727547645570000e-001) (67, -3.98672640323638920000e-001) (68, -7.39605277776718140000e-002) (69, 7.29944407939910890000e-001) (70, -6.56783729791641240000e-002) (71, 5.85595488548278810000e-001) (72, 5.88617384433746340000e-001) (73, 1.68153703212738040000e-001) (74, 8.43264833092689510000e-002) (75, 2.77516984939575200000e+000) (0, 5.05333065986633300000e-001) (1, -1.15291440486907960000e+000) (2, -1.16772997379302980000e+000) (3, 2.59478151798248290000e-001) (4, 1.31504380702972410000e+000) (5, -1.18474292755126950000e+000) (6, 3.16270887851715090000e-001) (7, -1.01118123531341550000e+000) (8, -9.64995801448822020000e-001) (9, 3.98647964000701900000e-001) (10, -1.31431829929351810000e+000) (11, -2.84326910972595210000e-001) (12, -8.54479670524597170000e-001) (13, -2.54847168922424320000e+000) (14, -1.13282978534698490000e+000) (15, 8.57418954372406010000e-001) (16, -1.80648695677518840000e-002) (17, -1.92090618610382080000e+000) (18, 5.88715195655822750000e-001) (19, 1.78918492794036870000e+000) (20, 2.39435762166976930000e-001) (21, 6.76215350627899170000e-001) (22, -1.60015144348144530000e+001) (23, -2.04255723953247070000e+000) (24, 4.39010888338088990000e-001) (25, 2.05508542060852050000e+000) (26, -1.74281871318817140000e+000) (27, 7.75687173008918760000e-002) (28, 2.98860049247741700000e+000) (29, 9.72147226333618160000e-001) (30, 1.26362478733062740000e+000) (31, 2.25749278068542480000e+000) (32, -2.82372266054153440000e-001) (33, 1.98333895206451420000e+000) (34, 1.40597524642944340000e+001) (35, 1.24217450618743900000e+000) (36, 4.38923269510269170000e-001) (37, -1.21028652191162110000e+001) (38, 7.26296007633209230000e-001) (39, 5.82086384296417240000e-001) (40, 3.19724035263061520000e+000) (41, 1.85838371515274050000e-001) (42, 2.34058871865272520000e-002) (43, -1.36844658851623540000e+000) (44, 5.26865434646606450000e+000) (45, 6.12762331962585450000e-001) (46, -2.27847075462341310000e+000) (47, 4.61124628782272340000e-001) (48, 3.18019062280654910000e-001) (49, -4.56902360916137700000e+000) (50, 1.14655756950378420000e+000) (51, 5.51789164543151860000e-001) (52, -2.72944355010986330000e+000) (53, 2.69622206687927250000e-001) (54, 3.45420002937316890000e-001) (55, 2.67508363723754880000e+000) (56, 2.47246980667114260000e+000) (57, 1.33235260844230650000e-001) (58, 8.07289123535156250000e-001) (59, 1.72323405742645260000e+000) (60, 3.44445258378982540000e-001) (61, 2.93268132209777830000e+000) (62, -4.42068958282470700000e+000) (63, 2.55466371774673460000e-001) (64, 1.28828430175781250000e+000) (65, -9.23792660236358640000e-001) (66, 4.78939324617385860000e-001) (67, -1.17683327198028560000e+000) (68, 2.55353093147277830000e-001) (69, 1.88303917646408080000e-001) (70, -1.00147974491119380000e+000) (71, 8.10733616352081300000e-001) (72, 1.16516768932342530000e-001) (73, 1.62718152999877930000e+000) (74, 6.97564601898193360000e-001) (75, 7.20383758544921870000e+001) (0, -2.21221484243869780000e-002) (1, 7.69979953765869140000e-002) (2, -1.32243528962135310000e-001) (3, -1.74721498042345050000e-002) (4, 3.46956133842468260000e-001) (5, -3.58174920082092290000e-001) (6, -1.20463535189628600000e-001) (7, -1.37584388256073000000e-001) (8, -4.73383396863937380000e-001) (9, -7.26516425609588620000e-001) (10, 2.41719573736190800000e-001) (11, 3.59246373176574710000e-001) (12, -9.73591506481170650000e-002) (13, 1.62888258695602420000e-001) (14, -1.85217350721359250000e-001) (15, 2.23484814167022710000e-001) (16, 3.30532938241958620000e-002) (17, -1.16782067343592640000e-002) (18, 2.41432994604110720000e-001) (19, 8.43661502003669740000e-002) (20, -1.39099016785621640000e-001) (21, 2.64660537242889400000e-001) (22, 1.13335418701171870000e+000) (23, 1.75448286533355710000e+000) (24, 1.17865931987762450000e+000) (25, -3.13655175268650050000e-002) (26, -2.23363161087036130000e+000) (27, 2.21896111965179440000e-001) (28, -2.63458400964736940000e-001) (29, 3.70712727308273320000e-002) (30, 1.05726003646850590000e-001) (31, 7.53426328301429750000e-002) (32, -4.09558713436126710000e-001) (33, 2.74924993515014650000e-001) (34, 3.13796192407608030000e-001) (35, 6.43456161022186280000e-001) (36, 3.61219733953475950000e-001) (37, 8.25635254383087160000e-001) (38, 9.03549492359161380000e-001) (39, -7.40705505013465880000e-002) (40, -1.08162474632263180000e+000) (41, -7.72394955158233640000e-001) (42, 2.52289801836013790000e-001) (43, 8.30397158861160280000e-002) (44, 1.00057756900787350000e+000) (45, 8.45432132482528690000e-002) (46, -2.50581681728363040000e-001) (47, 3.05508702993392940000e-001) (48, 1.60551905632019040000e-001) (49, 1.45526519045233730000e-002) (50, -6.15063756704330440000e-002) (51, -1.86199337244033810000e-001) (52, -8.80179256200790410000e-002) (53, -5.08353829383850100000e-001) (54, -2.02147260308265690000e-001) (55, 7.68248319625854490000e-001) (56, -1.85602813959121700000e-001) (57, -3.69176954030990600000e-001) (58, 3.30685228109359740000e-001) (59, 9.63201373815536500000e-002) (60, -1.99652612209320070000e-001) (61, 9.89270210266113280000e-002) (62, -1.93631649017333980000e-001) (63, 1.44581571221351620000e-001) (64, -1.27064689993858340000e-001) (65, 2.79681682586669920000e-001) (66, 2.66897901892662050000e-002) (67, 6.24228537082672120000e-001) (68, -4.41566824913024900000e-001) (69, -8.73576581478118900000e-001) (70, 3.76610048115253450000e-002) (71, -3.28753255307674410000e-002) (72, 2.99669623374938960000e-001) (73, -4.56602245569229130000e-001) (74, -2.75539960712194440000e-002) (75, -8.69831752777099610000e+000) (0, -6.16349354386329650000e-002) (1, 1.06407068669795990000e-002) (2, 2.19011604785919190000e-001) (3, 1.50227770209312440000e-001) (4, -1.08907379209995270000e-001) (5, 1.69230595231056210000e-001) (6, 6.51621073484420780000e-002) (7, 2.62555390596389770000e-001) (8, -9.46696009486913680000e-003) (9, -4.15914446115493770000e-001) (10, -5.79013936221599580000e-002) (11, -4.44516181945800780000e-001) (12, -1.25368073582649230000e-001) (13, -1.16222821176052090000e-001) (14, -1.48687303066253660000e-001) (15, 2.46649160981178280000e-001) (16, -3.54020507074892520000e-003) (17, -5.38503527641296390000e-001) (18, 4.70960214734077450000e-002) (19, -1.48822620511054990000e-001) (20, 2.59226948022842410000e-001) (21, 1.60315960645675660000e-001) (22, -2.34261676669120790000e-001) (23, 3.70757758617401120000e-001) (24, 4.21310603618621830000e-001) (25, 5.09001538157463070000e-002) (26, 3.53338420391082760000e-001) (27, 1.99994102120399480000e-001) (28, -9.71936527639627460000e-003) (29, -6.52059987187385560000e-002) (30, 2.66109466552734380000e-001) (31, 9.17285084724426270000e-002) (32, -5.72464406490325930000e-001) (33, 7.52014338970184330000e-001) (34, 7.70498871803283690000e-001) (35, 3.98353368043899540000e-001) (36, -1.12895190715789790000e+000) (37, 9.09877568483352660000e-002) (38, 5.08910000324249270000e-001) (39, 3.19818186759948730000e+000) (40, -8.94510507583618160000e-001) (41, -5.43684475123882290000e-002) (42, 1.52881160378456120000e-001) (43, 7.17216357588768010000e-002) (44, -3.85099321603775020000e-001) (45, 1.39081880450248720000e-001) (46, 5.04207611083984380000e-003) (47, -2.53087192773818970000e-001) (48, 4.69977110624313350000e-002) (49, -1.93843096494674680000e-001) (50, 7.90481343865394590000e-002) (51, 3.19801360368728640000e-001) (52, -7.74915143847465520000e-002) (53, -4.51760888099670410000e-001) (54, 1.26282691955566410000e-001) (55, 3.83824994787573810000e-003) (56, 6.62353277206420900000e-001) (57, -7.48544931411743160000e-002) (58, -2.13039927184581760000e-002) (59, -9.13910567760467530000e-002) (60, 2.13222637772560120000e-001) (61, 1.01245395839214320000e-001) (62, -7.02758133411407470000e-002) (63, 6.46131858229637150000e-002) (64, 3.25652927160263060000e-001) (65, 2.25103303790092470000e-001) (66, -4.16963696479797360000e-001) (67, -9.41774249076843260000e-002) (68, 3.47825825214385990000e-001) (69, -6.00761398673057560000e-002) (70, -1.44404768943786620000e-001) (71, 4.07030479982495310000e-003) (72, 9.56770703196525570000e-002) (73, 2.84988999366760250000e-001) (74, -8.09912502765655520000e-001) (75, -1.21892442703247070000e+001) (76, 3.60370814800262450000e-001) (77, 5.72245836257934570000e-001) (78, -1.18324446678161620000e+000) (79, 1.89390406012535100000e-001) (80, -2.06148177385330200000e-001) (81, 2.24986374378204350000e-001) (82, 5.58009184896945950000e-002) (83, -4.75138485431671140000e-001) (84, 1.17064695805311200000e-002) (85, 2.18198329210281370000e-001) (86, -3.24115872383117680000e-001) (87, 2.16092899441719060000e-001) (88, -1.94628059864044190000e-001) (89, -2.02875569462776180000e-001) (90, 7.42264151573181150000e-001) (91, 2.11231827735900880000e+000) (92, 6.73227608203887940000e-001) (93, 9.70459461212158200000e+000) (94, 3.72352868318557740000e-001) (95, 4.88376989960670470000e-002) (96, 3.59455496072769170000e-001) (97, 5.65639972686767580000e-001) (98, 6.70956254005432130000e-001) (99, 9.50455293059349060000e-002) (100, 8.11633348464965820000e-001) (101, 4.97672110795974730000e-001) (102, 2.83652603626251220000e-001) (103, 5.87981104850769040000e-001) (104, 4.54522728919982910000e-001) (105, 7.24763989448547360000e-001) (106, -1.34215414524078370000e-001) (107, 9.63755324482917790000e-002) (108, 1.76110953092575070000e-001) (109, 4.64856237173080440000e-001) (110, 3.99222671985626220000e-001) (111, -7.14039802551269530000e-002) (112, 2.28396415710449220000e+000) (113, 5.92139542102813720000e-001) (114, 1.09146222472190860000e-001) (115, -2.47286438941955570000e-001) (116, -4.47971187531948090000e-002) (117, -1.70586585998535160000e-001) (118, 4.72387582063674930000e-001) (119, 1.73488873988389970000e-002) (120, 7.22556829452514650000e-001) (121, 2.40351054817438130000e-002) (122, 5.25767207145690920000e-001) (123, 3.41969341039657590000e-001) (124, 2.86702722311019900000e-001) (125, 8.56811106204986570000e-001) (126, 1.04046784341335300000e-001) (76, 5.19291274249553680000e-002) (77, 1.02146893739700320000e-001) (78, 2.28350058197975160000e-001) (79, 1.68678402900695800000e-001) (80, 1.20882272720336910000e-001) (81, 3.72813902795314790000e-002) (82, 5.49158334732055660000e-001) (83, -1.65739417076110840000e-001) (84, 1.85049295425415040000e-001) (85, 3.80288422107696530000e-001) (86, 1.72732174396514890000e-001) (87, -3.20070795714855190000e-002) (88, -4.22437638044357300000e-001) (89, 1.65094565600156780000e-002) (90, 1.63691580295562740000e-001) (91, 3.07783782482147220000e-001) (92, 1.42068281769752500000e-001) (93, 1.76565960049629210000e-001) (94, 3.80715519189834590000e-001) (95, 5.33514440059661870000e-001) (96, 2.04226952046155930000e-002) (97, -2.63747107237577440000e-002) (98, -2.29747086763381960000e-001) (99, 6.36154562234878540000e-002) (100, 1.91646426916122440000e-001) (101, -7.19368010759353640000e-002) (102, 7.94264897704124450000e-002) (103, 3.66631448268890380000e-002) (104, -3.02616767585277560000e-002) (105, 9.31100547313690190000e-002) (106, 1.89238488674163820000e-001) (107, 7.29406028985977170000e-002) (108, 2.31098756194114690000e-001) (109, 2.03321799635887150000e-001) (110, 8.28795358538627620000e-002) (111, 4.99193593859672550000e-002) (112, -3.79249863326549530000e-002) (113, 5.73755145072937010000e-001) (114, 1.21037714183330540000e-001) (115, -1.15567661821842190000e-001) (116, -1.53007479384541510000e-002) (117, 9.40536186099052430000e-002) (118, -2.36784800887107850000e-001) (119, 9.91255715489387510000e-002) (120, 2.66988605260849000000e-001) (121, 2.19538047909736630000e-001) (122, 6.47417604923248290000e-002) (123, 1.18577539920806880000e-001) (124, -2.66045838594436650000e-001) (125, -3.72370034456253050000e-001) (126, 5.93135416507720950000e-001) (76, 2.71612167358398440000e-001) (77, 6.92294359207153320000e-001) (78, -6.46272957324981690000e-001) (79, 3.37874054908752440000e-001) (80, 2.90628105401992800000e-001) (81, -5.25306105613708500000e-001) (82, 4.81870293617248540000e-001) (83, 3.04253071546554570000e-001) (84, 2.71920770406723020000e-001) (85, 1.68649232387542720000e+000) (86, 1.95077478885650630000e-001) (87, 8.71215239167213440000e-002) (88, 5.21529912948608400000e-001) (89, 1.23449988663196560000e-001) (90, 5.47220110893249510000e-001) (91, 7.16657459735870360000e-001) (92, 2.11986824870109560000e-001) (93, -1.56528997421264650000e+000) (94, 3.37195467948913570000e+000) (95, -3.63551080226898190000e-001) (96, 3.83913487195968630000e-001) (97, 4.03175413608551030000e-001) (98, 3.42900753021240230000e-001) (99, 1.04264527559280400000e-001) (100, -5.28003990650177000000e-001) (101, 1.30699425935745240000e-001) (102, 5.65870285034179690000e-001) (103, 3.05154442787170410000e-001) (104, 3.51431816816329960000e-001) (105, 2.34715774655342100000e-001) (106, 1.59183263778686520000e-001) (107, 3.82763177156448360000e-001) (108, -3.09373617172241210000e-001) (109, -1.46507596969604490000e+000) (110, 6.06487572193145750000e-001) (111, 3.39413261413574220000e+000) (112, 4.17288541793823240000e+000) (113, 3.71921539306640630000e-001) (114, 1.93405523896217350000e-001) (115, 1.16727924346923830000e+000) (116, 2.36858844757080080000e-001) (117, 4.83324676752090450000e-001) (118, 7.17166900634765630000e-001) (119, 3.18747580051422120000e-001) (120, -2.05791664123535160000e+000) (121, -7.55752474069595340000e-002) (122, 6.42734587192535400000e-001) (123, 8.43977272510528560000e-001) (124, 3.13125014305114750000e-001) (125, 6.03716611862182620000e-001) (126, -1.19120940566062930000e-001) (76, 1.91693054512143140000e-003) (77, -1.42848536372184750000e-001) (78, 5.52313268184661870000e-001) (79, 1.70610636472702030000e-001) (80, 2.32474640011787410000e-001) (81, 2.27744162082672120000e-001) (82, -2.01040565967559810000e-001) (83, -4.42980378866195680000e-002) (84, 6.41792938113212590000e-002) (85, 9.84906613826751710000e-001) (86, 1.00292533636093140000e-001) (87, -2.02962700277566910000e-002) (88, 3.99711042642593380000e-001) (89, 1.83107852935791020000e-001) (90, 1.85269996523857120000e-001) (91, 4.36117029190063480000e+000) (92, -1.71908363699913020000e-001) (93, 3.49184584617614750000e+000) (94, 2.82614797353744510000e-001) (95, 2.01955467462539670000e-001) (96, -4.44713421165943150000e-002) (97, 1.41860535368323330000e-002) (98, -9.00009721517562870000e-002) (99, 2.62953657656908040000e-002) (100, 3.24605047702789310000e-001) (101, 1.00397087633609770000e-001) (102, -4.68563623726367950000e-002) (103, -1.37753309682011600000e-002) (104, -1.10155105590820310000e-001) (105, 1.90951243042945860000e-001) (106, 2.35478818416595460000e-001) (107, 5.01620061695575710000e-002) (108, 1.01912498474121090000e-001) (109, -3.82820457220077510000e-001) (110, -1.42939627170562740000e-001) (111, -6.22419893741607670000e-001) (112, 2.35389184951782230000e+000) (113, 8.52701306343078610000e-001) (114, -1.08217172324657440000e-001) (115, 3.19378465414047240000e-001) (116, -6.85254931449890140000e-002) (117, -2.48496923595666890000e-002) (118, -1.47555455565452580000e-001) (119, -1.03753171861171720000e-001) (120, -4.91385161876678470000e-001) (121, -1.62349063903093340000e-002) (122, -1.67236149311065670000e-001) (123, -2.11080014705657960000e-001) (124, -6.33804500102996830000e-002) (125, 3.92843335866928100000e-001) (126, 5.67434370517730710000e-001) (76, 6.32036745548248290000e-001) (77, 1.05051302909851070000e+000) (78, 1.75277793407440190000e+000) (79, -2.54282802343368530000e-001) (80, 2.05777361989021300000e-001) (81, 6.91624522209167480000e-001) (82, 5.08229255676269530000e-001) (83, 5.66497445106506350000e-001) (84, -1.25620126724243160000e-001) (85, 1.45926296710968020000e+000) (86, -1.24911420047283170000e-001) (87, -7.56332695484161380000e-001) (88, -1.17847692966461180000e+000) (89, 1.74176707863807680000e-001) (90, 1.60052514076232910000e+000) (91, 2.57543995976448060000e-002) (92, 2.18046450614929200000e+000) (93, 6.42385780811309810000e-001) (94, 1.53006061911582950000e-001) (95, 9.38943564891815190000e-001) (96, 7.47821405529975890000e-002) (97, -1.74148470163345340000e-001) (98, 5.37907958030700680000e-001) (99, 2.11598053574562070000e-001) (100, 2.52687990665435790000e-001) (101, 6.25960707664489750000e-001) (102, 2.46993035078048710000e-001) (103, 8.12629461288452150000e-002) (104, -2.70580470561981200000e-001) (105, 6.63956463336944580000e-001) (106, -2.12413907051086430000e-001) (107, -2.95364558696746830000e-001) (108, 5.22650003433227540000e-001) (109, 1.88806271553039550000e+000) (110, 4.14377003908157350000e-001) (111, -2.20009303092956540000e+000) (112, -6.17289304733276370000e-001) (113, -1.35822013020515440000e-001) (114, -1.19436345994472500000e-001) (115, -4.23392724990844730000e+000) (116, 5.05935192108154300000e-001) (117, 4.88588921725749970000e-002) (118, 8.96973669528961180000e-001) (119, 5.60218356549739840000e-002) (120, 1.57145488262176510000e+000) (121, 6.64344012737274170000e-001) (122, 1.32612752914428710000e+000) (123, 8.83676350116729740000e-001) (124, -1.32588133215904240000e-001) (125, -1.25545597076416020000e+000) (126, 2.44469165802001950000e-001) (76, -1.25110417604446410000e-001) (77, 1.15653891116380690000e-002) (78, -7.53937736153602600000e-002) (79, -1.71962995082139970000e-002) (80, 3.93038183450698850000e-001) (81, 2.78806775808334350000e-001) (82, -5.52366748452186580000e-002) (83, -5.05611240863800050000e-001) (84, -4.68392968177795410000e-002) (85, 2.71143054962158200000e+000) (86, -1.55597224831581120000e-001) (87, -7.17148631811141970000e-002) (88, 6.52822554111480710000e-001) (89, 1.66109666228294370000e-001) (90, 2.78972893953323360000e-001) (91, 1.71804428100585940000e+000) (92, 4.33329373598098750000e-001) (93, 6.39511632919311520000e+000) (94, -6.69916927814483640000e-001) (95, 6.13110899925231930000e-001) (96, -8.28822404146194460000e-002) (97, -2.51285672187805180000e-001) (98, -1.98394179344177250000e-001) (99, 5.15938699245452880000e-001) (100, 1.29758608341217040000e+000) (101, -7.07627553492784500000e-003) (102, -7.36058592796325680000e-001) (103, -4.37957793474197390000e-001) (104, -1.81696489453315730000e-001) (105, 1.23230707645416260000e+000) (106, 3.79070080816745760000e-002) (107, -3.28971326351165770000e-001) (108, 8.01384225487709050000e-002) (109, 1.38403236865997310000e+000) (110, -1.72987371683120730000e-001) (111, -2.61069219559431080000e-002) (112, 3.71301579475402830000e+000) (113, 9.09011960029602050000e-001) (114, 3.69043916463851930000e-001) (115, 1.95571303367614750000e+000) (116, -2.98579066991806030000e-001) (117, 6.59669935703277590000e-002) (118, -4.99963834881782530000e-002) (119, -4.63562637567520140000e-001) (120, 4.62413936853408810000e-001) (121, -2.02060908079147340000e-001) (122, 1.00138848647475240000e-002) (123, -3.15135270357131960000e-002) (124, -1.07460260391235350000e+000) (125, 1.04986488819122310000e+000) (126, 7.17940092086791990000e-001) (76, -8.00015479326248170000e-002) (77, -1.00679725408554080000e-001) (78, 4.22211527824401860000e-001) (79, 1.50802448391914370000e-001) (80, 1.46575123071670530000e-001) (81, 2.43892058730125430000e-001) (82, 5.69693684577941890000e-001) (83, -3.41474473476409910000e-001) (84, 1.85439631342887880000e-001) (85, 5.44149994850158690000e-001) (86, 4.57498058676719670000e-002) (87, 2.09461674094200130000e-002) (88, 5.97622618079185490000e-002) (89, 1.21351599693298340000e-001) (90, 2.29640170931816100000e-001) (91, 1.13482284545898440000e+000) (92, 1.72480046749114990000e-001) (93, 3.56938093900680540000e-001) (94, 7.36484467983245850000e-001) (95, 5.00130057334899900000e-001) (96, 1.63565456867218020000e-001) (97, 7.03945159912109380000e-002) (98, -8.31657275557518010000e-002) (99, 4.36886921525001530000e-002) (100, 2.67726391553878780000e-001) (101, -5.85536509752273560000e-002) (102, 1.37289375066757200000e-001) (103, -1.58931724727153780000e-002) (104, 1.37198373675346370000e-001) (105, 1.77518874406814580000e-001) (106, 2.43944168090820310000e-001) (107, 1.79059207439422610000e-001) (108, 1.73209577798843380000e-001) (109, 1.17882765829563140000e-001) (110, 3.39902751147747040000e-003) (111, 1.67279914021492000000e-001) (112, 7.10305690765380860000e-001) (113, 5.44190406799316410000e-001) (114, 2.30181023478508000000e-001) (115, 4.96298596262931820000e-002) (116, 4.34594936668872830000e-002) (117, 1.16550542414188390000e-001) (118, -1.06795608997344970000e-001) (119, 4.85420003533363340000e-002) (120, 2.04470887780189510000e-001) (121, 9.61004290729761120000e-003) (122, 4.07512262463569640000e-002) (123, 1.16640038788318630000e-001) (124, 1.59806728363037110000e-001) (125, 1.81398421525955200000e-001) (126, 7.08439290523529050000e-001) (76, 9.82659831643104550000e-002) (77, -1.37111544609069820000e+000) (78, 4.51744586229324340000e-001) (79, 1.37148007750511170000e-001) (80, 7.73079395294189450000e-002) (81, 2.69117593765258790000e-001) (82, 2.74581760168075560000e-001) (83, 5.97439706325531010000e-001) (84, 3.77787113189697270000e-001) (85, -2.20490884780883790000e+000) (86, -1.28307700157165530000e-001) (87, 4.42057140171527860000e-002) (88, -4.84940916299819950000e-001) (89, -3.79245728254318240000e-002) (90, 1.24689030647277830000e+000) (91, -1.21905875205993650000e+000) (92, -3.78635096549987790000e+000) (93, -4.06708526611328120000e+000) (94, 3.81077080965042110000e-001) (95, 9.92434918880462650000e-002) (96, 1.24123997986316680000e-001) (97, 2.34507575631141660000e-001) (98, 3.09979110956192020000e-001) (99, 7.58160501718521120000e-002) (100, -1.03735792636871340000e+000) (101, -1.15996032953262330000e-001) (102, -5.73468804359436040000e-002) (103, 5.78396674245595930000e-003) (104, -1.85147486627101900000e-002) (105, -1.09527075290679930000e+000) (106, 5.16346931457519530000e-001) (107, 5.75874671339988710000e-002) (108, 1.48562833666801450000e-001) (109, 1.21928349137306210000e-001) (110, 5.69541692733764650000e-001) (111, 3.99127095937728880000e-001) (112, -2.92509174346923830000e+000) (113, -3.72048199176788330000e-001) (114, 6.18222504854202270000e-002) (115, -2.34152331948280330000e-001) (116, -5.29453270137310030000e-002) (117, -1.66414771229028700000e-002) (118, -4.04434055089950560000e-001) (119, 6.23526871204376220000e-002) (120, 3.44038128852844240000e-001) (121, 1.14162284880876540000e-002) (122, 3.16061466932296750000e-001) (123, 3.18854659795761110000e-001) (124, 1.31010428071022030000e-001) (125, 3.03901452571153640000e-002) (126, 6.84399485588073730000e-001) (76, 3.96605461835861210000e-001) (77, 6.92101359367370610000e-001) (78, -1.59069038927555080000e-002) (79, 4.14734473451972010000e-003) (80, 7.99508392810821530000e-002) (81, 8.48196819424629210000e-002) (82, -6.03228390216827390000e-001) (83, -1.91026955842971800000e-001) (84, -6.83938115835189820000e-002) (85, -1.74484297633171080000e-001) (86, 1.32876150310039520000e-002) (87, 7.26875513792037960000e-002) (88, 1.11337232589721680000e+000) (89, -2.75567844510078430000e-002) (90, 4.02493268251419070000e-001) (91, -3.75879257917404170000e-001) (92, 7.71660566329956050000e-001) (93, 3.34882974624633790000e+000) (94, -5.01334130764007570000e-001) (95, -3.39280843734741210000e-001) (96, -5.13530038297176360000e-002) (97, -2.66611948609352110000e-002) (98, 3.47130388021469120000e-001) (99, -2.09388714283704760000e-002) (100, 8.73246416449546810000e-002) (101, 2.55889087915420530000e-001) (102, 1.11537419259548190000e-001) (103, 1.59597337245941160000e-001) (104, 2.68068850040435790000e-001) (105, 7.67588615417480470000e-001) (106, 1.71523854136466980000e-001) (107, -5.20310923457145690000e-002) (108, -4.72504459321498870000e-002) (109, 4.81381982564926150000e-001) (110, 1.27138972282409670000e-001) (111, -2.60166794061660770000e-001) (112, -1.16107094287872310000e+000) (113, 8.26705172657966610000e-002) (114, -7.40121155977249150000e-002) (115, 4.04082387685775760000e-001) (116, -2.27793231606483460000e-002) (117, 9.51403286308050160000e-003) (118, 4.92630451917648320000e-001) (119, 6.96392804384231570000e-002) (120, 3.47497671842575070000e-001) (121, 1.68304201215505600000e-002) (122, 3.46269309520721440000e-001) (123, 4.18526709079742430000e-001) (124, 1.39994367957115170000e-001) (125, -2.41724997758865360000e-002) (126, -3.59751820564270020000e-001) (76, 6.83497905731201170000e-001) (77, 1.58652019500732420000e+000) (78, 4.65196937322616580000e-001) (79, -1.83010265231132510000e-001) (80, 8.37897285819053650000e-002) (81, 6.19641363620758060000e-001) (82, -5.92927992343902590000e-001) (83, 4.36685115098953250000e-001) (84, -3.69353830814361570000e-001) (85, -3.06652158498764040000e-001) (86, 6.95922970771789550000e-002) (87, 5.64722679555416110000e-002) (88, -6.44236356019973750000e-002) (89, 1.28628671169281010000e-001) (90, 4.39887702465057370000e-001) (91, -1.16399168968200680000e+000) (92, 1.46816015243530270000e+000) (93, 3.52839493751525880000e+000) (94, -1.01688504219055180000e+000) (95, -9.66116413474082950000e-002) (96, 2.49590910971164700000e-003) (97, -2.57212817668914790000e-001) (98, 3.49646508693695070000e-001) (99, -1.55019402503967290000e-001) (100, 5.66872835159301760000e-001) (101, 5.84230899810791020000e-001) (102, 3.48095238208770750000e-001) (103, 3.46932709217071530000e-002) (104, 1.10260605812072750000e-001) (105, 1.92459642887115480000e-001) (106, 4.16729182004928590000e-001) (107, 3.82436364889144900000e-001) (108, -1.33995413780212400000e-001) (109, 1.50689339637756350000e+000) (110, 6.80519521236419680000e-001) (111, -2.38701120018959050000e-001) (112, -3.30305194854736330000e+000) (113, 5.57005763053894040000e-001) (114, -4.63952869176864620000e-001) (115, -1.86737930774688720000e+000) (116, 3.39103192090988160000e-002) (117, -4.71041083335876460000e-001) (118, 6.97128117084503170000e-001) (119, 2.97547757625579830000e-001) (120, 1.65496718883514400000e+000) (121, 3.43937247991561890000e-001) (122, 7.12050139904022220000e-001) (123, 9.64489161968231200000e-001) (124, 2.08101093769073490000e-001) (125, -3.57255434989929200000e+000) (126, -1.07293152809143070000e+000) (76, 1.40673533082008360000e-001) (77, 2.85968244075775150000e-001) (78, 1.84388217926025390000e+001) (79, 1.26746058464050290000e-001) (80, -5.81323564052581790000e-001) (81, 1.95078289508819580000e+000) (82, 6.65048778057098390000e-001) (83, -3.27475666999816890000e-001) (84, 3.93200874328613280000e-001) (85, 9.90635991096496580000e-001) (86, 2.59629487991333010000e-001) (87, 3.87499421834945680000e-001) (88, 1.16250038146972660000e+000) (89, 9.58496630191802980000e-001) (90, 2.70432502031326290000e-001) (91, 7.35057973861694340000e+000) (92, 3.68998438119888310000e-001) (93, 2.53348907470703130000e+002) (94, 1.00869786739349370000e+000) (95, 9.52538073062896730000e-001) (96, 4.69362169504165650000e-001) (97, 4.44749414920806880000e-001) (98, -2.49732092022895810000e-001) (99, 4.01110827922821040000e-001) (100, 7.30668008327484130000e-002) (101, 2.01998412609100340000e-001) (102, 1.35645389556884770000e-001) (103, 2.72222280502319340000e-001) (104, -1.84506494551897050000e-002) (105, 4.50437158346176150000e-001) (106, 3.51675093173980710000e-001) (107, 3.17125856876373290000e-001) (108, 3.10476750135421750000e-001) (109, 1.66499331593513490000e-001) (110, -1.85443073511123660000e-001) (111, -1.74414367675781250000e+002) (112, -4.30050343275070190000e-001) (113, 6.10068678855896000000e-001) (114, 1.93337053060531620000e-001) (115, 6.59022182226181030000e-002) (116, 1.37069553136825560000e-001) (117, -2.18213443756103520000e+001) (118, -2.05953970551490780000e-001) (119, -2.07081151008605960000e+000) (120, 4.23431366682052610000e-001) (121, -9.95337814092636110000e-002) (122, -1.15850552916526790000e-001) (123, 2.03793615102767940000e-001) (124, -2.20538063049316410000e+001) (125, 9.70023930072784420000e-001) (126, 6.05896234512329100000e-001) (76, 8.18029999732971190000e-001) (77, 1.54207980632781980000e+000) (78, 1.09423428773880000000e-001) (79, -1.41563147306442260000e-001) (80, 5.71383714675903320000e-001) (81, -5.31450212001800540000e-001) (82, 2.28023272939026360000e-003) (83, 2.57860207557678220000e+000) (84, -4.75888073444366460000e-001) (85, -2.60146528482437130000e-001) (86, 1.92639008164405820000e-001) (87, 4.82904583215713500000e-001) (88, -4.50759887695312500000e-001) (89, -3.28343123197555540000e-001) (90, 1.51860761642456050000e+000) (91, -3.89690256118774410000e+000) (92, 7.54420161247253420000e-001) (93, 3.17149233818054200000e+000) (94, -1.03226971626281740000e+000) (95, -1.19343409314751630000e-002) (96, -3.01688647270202640000e+000) (97, 3.88384133577346800000e-001) (98, 1.12381207942962650000e+000) (99, 3.16600352525711060000e-001) (100, 6.83272719383239750000e-001) (101, 8.47810924053192140000e-001) (102, 3.39655369520187380000e-001) (103, 4.79574769735336300000e-001) (104, 7.63178944587707520000e-001) (105, 8.80207061767578130000e-001) (106, 3.79767119884490970000e-002) (107, -2.09749966859817500000e-001) (108, 4.81606394052505490000e-001) (109, 1.70749926567077640000e+000) (110, 2.61534214019775390000e-001) (111, -5.03287613391876220000e-001) (112, -2.10175728797912600000e+000) (113, -1.05957865715026860000e+000) (114, -3.11444047838449480000e-002) (115, -3.53519260883331300000e-001) (116, 1.10523188114166260000e+000) (117, 3.81036102771759030000e-001) (118, 8.28956723213195800000e-001) (119, 1.41037976741790770000e+000) (120, 9.99078094959259030000e-001) (121, 7.15817213058471680000e-001) (122, 2.13081049919128420000e+000) (123, 9.86860334873199460000e-001) (124, -4.45739388465881350000e-001) (125, -2.59076744318008420000e-001) (126, 4.37670171260833740000e-001) (76, 3.42401683330535890000e-001) (77, -1.46038129925727840000e-001) (78, 4.44196373224258420000e-001) (79, 7.14912936091423030000e-002) (80, 2.60893255472183230000e-001) (81, 2.93732851743698120000e-001) (82, -2.98571437597274780000e-002) (83, 2.78530925512313840000e-001) (84, 2.05002397298812870000e-001) (85, 3.53669285774230960000e-001) (86, 1.15150876343250270000e-001) (87, 1.82298228144645690000e-001) (88, 8.24377894401550290000e-001) (89, 7.52932503819465640000e-002) (90, 1.17717146873474120000e-001) (91, 1.66791057586669920000e+000) (92, -4.03250789642333980000e+000) (93, -7.78801739215850830000e-001) (94, 3.59356492757797240000e-001) (95, 5.35672545433044430000e-001) (96, 9.35817137360572810000e-002) (97, 4.11553531885147090000e-002) (98, 1.79713472723960880000e-001) (99, -3.87853756546974180000e-002) (100, -1.92039385437965390000e-001) (101, 2.94207960367202760000e-001) (102, 2.12747499346733090000e-001) (103, 1.09537445008754730000e-001) (104, 5.24851679801940920000e-002) (105, 2.56159931421279910000e-001) (106, 3.33964735269546510000e-001) (107, 1.27276703715324400000e-001) (108, 1.91169038414955140000e-001) (109, 5.77310442924499510000e-001) (110, -5.30849322676658630000e-002) (111, 5.44801771640777590000e-001) (112, -1.66820418834686280000e+000) (113, 3.80723411217331890000e-003) (114, 2.07447782158851620000e-001) (115, 6.67252957820892330000e-001) (116, 7.61945173144340520000e-002) (117, 1.31183519959449770000e-001) (118, 1.54950678348541260000e-001) (119, 1.67343720793724060000e-001) (120, 4.86849509179592130000e-002) (121, -4.48913872241973880000e-002) (122, -1.86083853244781490000e-001) (123, 4.40408885478973390000e-001) (124, 3.11546504497528080000e-001) (125, 1.68661966919898990000e-001) (126, 1.95991837978363040000e+000) (76, -1.50673091411590580000e-001) (77, 5.49042582511901860000e-001) (78, 8.31460654735565190000e-001) (79, -8.26375186443328860000e-002) (80, -2.30088736861944200000e-002) (81, 1.48847863078117370000e-001) (82, 4.17104288935661320000e-002) (83, -7.99095451831817630000e-001) (84, 2.53771334886550900000e-001) (85, 1.35193347930908200000e+000) (86, 2.33637154102325440000e-001) (87, -2.51768901944160460000e-002) (88, 1.86076566576957700000e-001) (89, -4.22219000756740570000e-002) (90, 2.91301101446151730000e-001) (91, 5.48263192176818850000e-001) (92, 1.19397863745689390000e-001) (93, -1.42524230480194090000e+000) (94, -6.88150003552436830000e-002) (95, 3.42421472072601320000e-001) (96, -2.07179225981235500000e-002) (97, -6.89393002539873120000e-003) (98, 8.97700667381286620000e-001) (99, 2.91815232485532760000e-002) (100, 6.02427184581756590000e-001) (101, 3.00987511873245240000e-002) (102, 6.50775581598281860000e-002) (103, 7.69746303558349610000e-002) (104, 1.20635509490966800000e-001) (105, 5.33217608928680420000e-001) (106, 2.21598669886589050000e-001) (107, 1.38664975762367250000e-001) (108, 9.56885069608688350000e-002) (109, -9.79114919900894170000e-002) (110, 3.83367210626602170000e-001) (111, 1.09824717044830320000e+000) (112, 3.39799070358276370000e+000) (113, 1.77823022007942200000e-001) (114, -1.60682313144207000000e-002) (115, 3.44291120767593380000e-001) (116, -1.02871656417846680000e-002) (117, 2.67623364925384520000e-002) (118, 1.77600041031837460000e-001) (119, 8.87495204806327820000e-002) (120, 2.92145460844039920000e-001) (121, 5.82154765725135800000e-002) (122, 1.34951245784759520000e+000) (123, 8.87900292873382570000e-001) (124, -5.21727740764617920000e-001) (125, 1.22686982154846190000e+000) (126, 1.10150861740112300000e+000) (76, 6.40198111534118650000e-001) (77, 2.36810564994812010000e-001) (78, 3.98998081684112550000e-001) (79, -8.05185884237289430000e-002) (80, -3.04781913757324220000e-001) (81, -4.18559521436691280000e-001) (82, -9.18072581291198730000e-001) (83, 5.69860816001892090000e-001) (84, 1.51454046368598940000e-001) (85, 2.65145540237426760000e+000) (86, 3.92471075057983400000e-001) (87, 5.05130231380462650000e-001) (88, 7.31763482093811040000e-001) (89, -1.96528837084770200000e-001) (90, 1.89563214778900150000e-001) (91, 8.37898969650268550000e-001) (92, 4.66352462768554690000e-001) (93, -9.76583182811737060000e-001) (94, -1.58993661403656010000e-001) (95, 1.08824253082275390000e+000) (96, -2.69602656364440920000e-001) (97, 1.24618671834468840000e-001) (98, 1.75063520669937130000e-001) (99, -2.77812987565994260000e-001) (100, -1.76765084266662600000e-001) (101, 3.24444264173507690000e-001) (102, -1.03906936943531040000e-001) (103, -6.64845556020736690000e-002) (104, 4.04883801937103270000e-001) (105, 1.15335309505462650000e+000) (106, 3.15852612257003780000e-001) (107, 8.83191898465156560000e-002) (108, 1.18191301822662350000e+000) (109, -1.06165960431098940000e-001) (110, 5.67183494567871090000e-001) (111, 3.56533908843994140000e+000) (112, 2.66018939018249510000e+000) (113, 5.30448019504547120000e-001) (114, -1.73422262072563170000e-001) (115, 6.72706782817840580000e-001) (116, -4.29146029055118560000e-002) (117, -5.75478598475456240000e-002) (118, 8.57728362083435060000e-001) (119, 2.45874851942062380000e-001) (120, -7.59228412061929700000e-003) (121, 8.83984506130218510000e-001) (122, 8.13211128115653990000e-003) (123, 4.45353299379348750000e-001) (124, 2.55584359169006350000e-001) (125, 3.56714868545532230000e+000) (126, 1.06135523319244380000e+000) (76, 8.82750630378723140000e-001) (77, 2.37536978721618650000e+000) (78, 1.45624828338623050000e+000) (79, 3.57461780309677120000e-001) (80, 5.14178350567817690000e-002) (81, 5.15330314636230470000e-001) (82, 8.17068159580230710000e-001) (83, 5.68043112754821780000e-001) (84, -2.73791342973709110000e-001) (85, 4.28281974792480470000e+000) (86, -7.18659833073616030000e-002) (87, -1.06724582612514500000e-001) (88, -4.70078103244304660000e-002) (89, -8.38356435298919680000e-001) (90, 9.60997700691223140000e-001) (91, 3.73041987419128420000e-001) (92, 2.94149932861328120000e+001) (93, 1.26723575592041020000e+001) (94, -1.15883886814117430000e-001) (95, 1.83147692680358890000e+000) (96, 4.94115084409713750000e-001) (97, 5.34741103649139400000e-001) (98, 8.47979664802551270000e-001) (99, -6.68444707989692690000e-002) (100, 1.24685955047607420000e+000) (101, 6.15826129913330080000e-001) (102, 3.35915774106979370000e-001) (103, 7.16739714145660400000e-001) (104, 2.36285790801048280000e-001) (105, 8.53976726531982420000e-001) (106, 5.05555272102355960000e-002) (107, -1.38713076710700990000e-001) (108, 3.62006127834320070000e-001) (109, 3.66672587394714360000e+000) (110, 8.14856588840484620000e-002) (111, -2.73063182830810550000e+001) (112, -5.44617748260498050000e+000) (113, 1.75479754805564880000e-001) (114, 4.50903385877609250000e-001) (115, -5.68176698684692380000e+000) (116, 7.59925022721290590000e-002) (117, -1.83553114533424380000e-001) (118, 6.75882577896118160000e-001) (119, -2.19047307968139650000e+000) (120, 5.85868453979492190000e+000) (121, 6.57121658325195310000e-001) (122, 2.02144074440002440000e+000) (123, 3.87209832668304440000e-001) (124, -5.31985044479370120000e-001) (125, -9.01161432266235350000e-001) (126, 9.57527339458465580000e-001) (76, -2.86606222391128540000e-001) (77, -2.13600203394889830000e-001) (78, -8.03278088569641110000e-001) (79, 2.28684052824974060000e-001) (80, 2.82042890787124630000e-001) (81, 3.47694575786590580000e-001) (82, 4.10099476575851440000e-001) (83, 2.95007228851318360000e-001) (84, 4.63867008686065670000e-001) (85, -3.09417557716369630000e+000) (86, 2.61158674955368040000e-001) (87, 8.10818016529083250000e-001) (88, 2.44879794120788570000e+000) (89, -2.52716755867004390000e+000) (90, -7.49195814132690430000e-001) (91, -1.65518745779991150000e-001) (92, -4.97730064392089840000e+000) (93, 5.64729511737823490000e-001) (94, -5.13345301151275630000e-001) (95, -1.47109520435333250000e+000) (96, -5.22326529026031490000e-001) (97, -3.72797995805740360000e-001) (98, 2.25150465965271000000e-001) (99, 1.57136166095733640000e+000) (100, -4.79153394699096680000e-001) (101, -1.20216652750968930000e-001) (102, -4.66706246137619020000e-001) (103, -7.28169739246368410000e-001) (104, 1.22135317325592040000e+000) (105, 3.45354706048965450000e-001) (106, 1.24282264709472660000e+000) (107, -7.81221151351928710000e-001) (108, 1.51952784508466720000e-002) (109, -1.53958940505981450000e+000) (110, 1.77136749029159550000e-001) (111, 2.28276634216308590000e+000) (112, 9.42306709289550780000e+000) (113, 2.05862760543823240000e-001) (114, 2.36259967088699340000e-001) (115, 8.66563320159912110000e+000) (116, 8.27908337116241460000e-001) (117, 1.59939259290695190000e-001) (118, -7.71179437637329100000e-001) (119, 4.22770291566848750000e-001) (120, -1.01691734790802000000e+000) (121, 3.23886960744857790000e-001) (122, -4.07557696104049680000e-001) (123, 8.21309760212898250000e-002) (124, 5.09475588798522950000e-001) (125, -3.11883473396301270000e+000) (126, 1.12988340854644780000e+000) (76, 1.32962393760681150000e+000) (77, 1.32119226455688480000e+000) (78, 1.50000000000000000000e+003) (79, 8.07655274868011470000e-001) (80, -2.01901125907897950000e+000) (81, 1.50000000000000000000e+003) (82, -2.08482712507247920000e-001) (83, 3.46552670001983640000e-001) (84, 4.88518357276916500000e-001) (85, 1.50000000000000000000e+003) (86, 3.08751929551362990000e-002) (87, 1.50000000000000000000e+003) (88, -7.40618041992187500000e+002) (89, 1.50000000000000000000e+003) (90, 8.12414169311523440000e-001) (91, 7.02607452869415280000e-001) (92, 1.50000000000000000000e+003) (93, 1.08745956420898440000e+000) (94, 4.41758537292480470000e+000) (95, 6.23085451126098630000e+000) (96, 1.50000000000000000000e+003) (97, 1.50000000000000000000e+003) (98, 1.19839680194854740000e+000) (99, 1.50000000000000000000e+003) (100, -3.12553256750106810000e-001) (101, 7.52926468849182130000e-001) (102, 9.27599370479583740000e-001) (103, 1.50000000000000000000e+003) (104, 1.04642927646636960000e+000) (105, 8.11564743518829350000e-001) (106, -2.09753900766372680000e-001) (107, 4.66292113065719600000e-001) (108, 5.09665668010711670000e-001) (109, 4.68997383117675780000e+001) (110, 9.97163891792297360000e-001) (111, -1.50000000000000000000e+003) (112, -1.43492221832275390000e+000) (113, 3.07282447814941410000e-001) (114, -1.49999011230468750000e+003) (115, -8.04062962532043460000e-001) (116, 1.50000000000000000000e+003) (117, -1.50000000000000000000e+003) (118, 8.61600399017333980000e-001) (119, -1.50000000000000000000e+003) (120, 1.09598278808593750000e+003) (121, 1.30821719765663150000e-001) (122, 1.01564693450927730000e+000) (123, 1.64608325958251950000e+001) (124, -1.50000000000000000000e+003) (125, -4.50241655111312870000e-001) (126, 5.64413189888000490000e-001) (76, 5.88629301637411120000e-003) (77, 3.85510832071304320000e-001) (78, 1.61005628108978270000e+000) (79, 7.45978876948356630000e-002) (80, 2.20936059951782230000e-001) (81, 1.56816169619560240000e-001) (82, 5.02151250839233400000e-001) (83, 1.02150285243988040000e+000) (84, 4.28726494312286380000e-001) (85, 1.88017284870147710000e+000) (86, 5.50469815731048580000e-001) (87, -1.14789903163909910000e-001) (88, -4.78437215089797970000e-001) (89, 4.12222854793071750000e-002) (90, 6.67019844055175780000e-001) (91, -3.28284740447998050000e-001) (92, 3.23540627956390380000e-001) (93, -9.94790971279144290000e-001) (94, -2.01454553753137590000e-002) (95, 3.32292944192886350000e-001) (96, -5.18015474081039430000e-002) (97, -1.10864736139774320000e-001) (98, 5.09561240673065190000e-001) (99, 1.90020531415939330000e-001) (100, 1.16690194606781010000e+000) (101, -6.00071018561720850000e-003) (102, 3.34242850542068480000e-001) (103, 2.90379554033279420000e-001) (104, 8.25588703155517580000e-002) (105, 2.57246166467666630000e-001) (106, -2.48966440558433530000e-002) (107, 4.11984622478485110000e-001) (108, 4.46128368377685550000e-001) (109, 2.59261161088943480000e-001) (110, 7.27747738361358640000e-001) (111, -3.66633266210556030000e-001) (112, 3.97400879859924320000e+000) (113, 1.10837064683437350000e-001) (114, 4.48665507137775420000e-002) (115, 7.81791567802429200000e-001) (116, -8.77435356378555300000e-002) (117, 1.04934968054294590000e-001) (118, 2.02005609869956970000e-001) (119, 1.92572027444839480000e-001) (120, 7.58344113826751710000e-001) (121, 5.55690288543701170000e-001) (122, 8.41409504413604740000e-001) (123, 1.03242409229278560000e+000) (124, -2.35992193222045900000e-001) (125, 3.84099572896957400000e-001) (126, -6.10416056588292120000e-003) (76, 5.14739871025085450000e-001) (77, 1.20699954032897950000e+000) (78, -3.81635665893554690000e-001) (79, 4.74324300885200500000e-002) (80, 6.40487819910049440000e-002) (81, -1.49994000792503360000e-001) (82, -1.17439031600952150000e+000) (83, 9.80577945709228520000e-001) (84, -2.26417899131774900000e-001) (85, -7.02140390872955320000e-001) (86, 9.87045541405677800000e-002) (87, 1.46135047078132630000e-001) (88, 1.24376930296421050000e-001) (89, -1.31513953208923340000e-001) (90, 7.89600312709808350000e-001) (91, -1.68354547023773190000e+000) (92, 4.78274345397949220000e-001) (93, 4.66554307937622070000e+000) (94, -1.16586232185363770000e+000) (95, -5.84352493286132810000e-001) (96, -2.21425473690032960000e-001) (97, -2.22840845584869380000e-001) (98, 1.14413917064666750000e+000) (99, -3.84117220528423790000e-003) (100, 1.24965950846672060000e-001) (101, 3.85084301233291630000e-001) (102, 1.12065963447093960000e-001) (103, 4.19056117534637450000e-001) (104, 9.38545987010002140000e-002) (105, 1.14267742633819580000e+000) (106, 9.36108604073524480000e-002) (107, -1.96516379714012150000e-001) (108, 1.53610840439796450000e-001) (109, 6.86302185058593750000e-001) (110, 2.87276744842529300000e-001) (111, -5.75076639652252200000e-001) (112, -1.57971143722534180000e+000) (113, -1.75933703780174260000e-001) (114, -2.27019041776657100000e-001) (115, -2.38033726811409000000e-001) (116, -1.51051998138427730000e-001) (117, 4.54435236752033230000e-002) (118, 6.48538768291473390000e-001) (119, 2.55659133195877080000e-001) (120, 2.18288730829954150000e-002) (121, 1.44163280725479130000e-001) (122, 1.17747402191162110000e+000) (123, 8.01529347896575930000e-001) (124, 3.56015175580978390000e-001) (125, 1.89755547046661380000e+000) (126, 4.33238387107849120000e-001) (76, 6.86167597770690920000e-001) (77, 1.42205584049224850000e+000) (78, 7.56179213523864750000e-001) (79, 6.12377263605594640000e-002) (80, 2.79521316289901730000e-001) (81, 1.99327766895294190000e-001) (82, -3.08852881193161010000e-001) (83, 1.87889468669891360000e+000) (84, 7.66445934772491460000e-001) (85, 7.29590892791748050000e-001) (86, 9.01093557476997380000e-002) (87, 1.10228182747960090000e-002) (88, 7.92547643184661870000e-001) (89, -1.55354421585798260000e-002) (90, 7.08424806594848630000e-001) (91, 1.12171125411987300000e+000) (92, 4.02223497629165650000e-001) (93, -9.61355447769165040000e-001) (94, 6.44922077655792240000e-001) (95, 8.74392330646514890000e-001) (96, -1.40411734580993650000e-001) (97, 3.83816659450531010000e-002) (98, 1.78192541003227230000e-001) (99, -8.73545557260513310000e-002) (100, 7.78309881687164310000e-001) (101, 6.11261986196041110000e-002) (102, 1.22106418013572690000e-001) (103, 1.25389829277992250000e-001) (104, 2.12118119001388550000e-001) (105, 1.32300972938537600000e+000) (106, 4.59650844335556030000e-001) (107, 5.81118427217006680000e-002) (108, 4.96640726923942570000e-002) (109, 2.01616859436035160000e+000) (110, 4.90864962339401250000e-001) (111, 1.54822683334350590000e+000) (112, 3.66348671913146970000e+000) (113, 3.76089990139007570000e-001) (114, 5.78202344477176670000e-002) (115, 6.94314064458012580000e-003) (116, 1.22000820934772490000e-001) (117, 1.40799451619386670000e-002) (118, 4.52706992626190190000e-001) (119, 3.27079519629478450000e-002) (120, 2.20368146896362300000e+000) (121, 3.63730967044830320000e-001) (122, 4.34107214212417600000e-001) (123, 1.78112554550170900000e+000) (124, -9.28138196468353270000e-001) (125, 2.00029253959655760000e-001) (126, 2.06841930747032170000e-001) (76, 8.84670168161392210000e-002) (77, 2.93882638216018680000e-001) (78, 1.76503509283065800000e-001) (79, 1.79943680763244630000e-001) (80, 7.40219876170158390000e-002) (81, -8.09502750635147090000e-002) (82, 2.67389953136444090000e-001) (83, -1.79685607552528380000e-001) (84, 2.25509002804756160000e-001) (85, 4.98250722885131840000e-001) (86, -3.81901673972606660000e-002) (87, -6.16548657417297360000e-002) (88, -4.02441546320915220000e-002) (89, -2.02818483114242550000e-001) (90, 3.08712512254714970000e-001) (91, 1.37853896617889400000e+000) (92, 1.36425107717514040000e-001) (93, 4.13367891311645510000e+000) (94, 3.06423813104629520000e-001) (95, 3.38316261768341060000e-001) (96, 9.14485678076744080000e-002) (97, 5.49283437430858610000e-002) (98, -5.32392188906669620000e-002) (99, -5.70549368858337400000e-002) (100, 6.58221244812011720000e-001) (101, -1.79660208523273470000e-002) (102, 4.58026379346847530000e-002) (103, -4.75530922412872310000e-002) (104, -1.63932383060455320000e-001) (105, 8.18995118141174320000e-001) (106, 7.60048404335975650000e-002) (107, -2.74446979165077210000e-002) (108, 3.80747541785240170000e-002) (109, 2.73624837398529050000e-001) (110, -8.99505913257598880000e-002) (111, 2.51659631729125980000e-001) (112, -3.62193793058395390000e-001) (113, 1.11815845966339110000e+000) (114, 2.30560481548309330000e-001) (115, 4.65234756469726560000e-001) (116, 1.12153328955173490000e-001) (117, 8.86928737163543700000e-002) (118, -9.97365713119506840000e-002) (119, 1.17595374584198000000e-001) (120, 2.38316193222999570000e-001) (121, 3.98621976375579830000e-001) (122, 1.31686165928840640000e-001) (123, 1.89718320965766910000e-001) (124, -3.94253075122833250000e-001) (125, 9.48641061782836910000e-001) (126, 6.18160843849182130000e-001) (76, 1.70412853360176090000e-001) (77, 3.27612645924091340000e-002) (78, 3.90053056180477140000e-002) (79, 2.47817710041999820000e-001) (80, 2.06712320446968080000e-001) (81, 2.71876510232687000000e-002) (82, 6.77438139915466310000e-001) (83, 1.43040075898170470000e-001) (84, 1.35098248720169070000e-001) (85, 2.44004994630813600000e-001) (86, 2.18332991003990170000e-001) (87, -1.17607973515987400000e-002) (88, 8.21492493152618410000e-001) (89, 2.33032088726758960000e-002) (90, 1.95338964462280270000e-001) (91, -8.13864916563034060000e-002) (92, -5.61964154243469240000e-001) (93, -8.21597695350646970000e-001) (94, 3.79116803407669070000e-001) (95, 5.59330582618713380000e-001) (96, 2.53916401416063310000e-002) (97, -5.91757595539093020000e-002) (98, -2.16443970799446110000e-001) (99, 1.12301565706729890000e-001) (100, 5.36266295239329340000e-003) (101, -6.84305746108293530000e-003) (102, 1.66996777057647710000e-001) (103, 1.08536757528781890000e-001) (104, 4.66563329100608830000e-002) (105, 5.85576035082340240000e-002) (106, 4.10426467657089230000e-001) (107, 6.02698326110839840000e-002) (108, 3.45936596393585210000e-001) (109, -4.79843467473983760000e-002) (110, 3.54151055216789250000e-002) (111, 2.14948907494544980000e-001) (112, -1.98776781558990480000e-001) (113, 2.50050947070121770000e-002) (114, 1.91344097256660460000e-001) (115, 3.75727713108062740000e-001) (116, -4.03859764337539670000e-002) (117, 1.66141614317893980000e-001) (118, -3.06545674800872800000e-001) (119, 1.65968060493469240000e-001) (120, -5.12357614934444430000e-002) (121, 2.99345165491104130000e-001) (122, 9.41132977604866030000e-002) (123, 5.79764433205127720000e-002) (124, 2.23782286047935490000e-001) (125, -3.77573259174823760000e-002) (126, 1.49805581569671630000e+000) (76, 4.68551158905029300000e-001) (77, 3.24964404106140140000e-001) (78, 1.72762155532836910000e+000) (79, -1.55252039432525630000e-001) (80, -1.16643749177455900000e-001) (81, 6.55413925647735600000e-001) (82, -6.38091206550598140000e-001) (83, 7.74151384830474850000e-001) (84, 4.27558094263076780000e-001) (85, 1.20293533802032470000e+000) (86, 6.11107528209686280000e-001) (87, -3.11270177364349370000e-001) (88, 2.29066419601440430000e+000) (89, 6.15482777357101440000e-003) (90, 5.35506665706634520000e-001) (91, 1.61156401038169860000e-001) (92, 2.93932557106018070000e-001) (93, -1.48157507181167600000e-001) (94, 9.09208118915557860000e-001) (95, -6.07390888035297390000e-002) (96, 2.12786272168159480000e-001) (97, 7.98176676034927370000e-002) (98, 7.78018176555633540000e-001) (99, -1.80980160832405090000e-001) (100, 3.22010517120361330000e-001) (101, -1.90972700715065000000e-001) (102, -6.53350949287414550000e-002) (103, 4.38011676073074340000e-001) (104, -1.59040793776512150000e-001) (105, -2.11994916200637820000e-001) (106, 1.98430404067039490000e-001) (107, 4.95921701192855830000e-001) (108, 2.89790064096450810000e-001) (109, 5.43305218219757080000e-001) (110, 7.65914976596832280000e-001) (111, 1.23010015487670900000e+000) (112, -5.67549705505371090000e-001) (113, 6.47079110145568850000e-001) (114, -1.28094971179962160000e-001) (115, 1.11006975173950200000e+000) (116, 2.28804975748062130000e-001) (117, -2.56374508142471310000e-001) (118, 6.38013720512390140000e-001) (119, -1.56605526804924010000e-001) (120, 7.65045702457427980000e-001) (121, 2.31333389878273010000e-001) (122, 7.13077366352081300000e-001) (123, 5.36426007747650150000e-001) (124, 4.87109303474426270000e-001) (125, 1.21613740921020510000e+000) (126, -1.29195734858512880000e-001) (76, 8.35167765617370610000e-001) (77, 1.07985138893127440000e+000) (78, -3.42113614082336430000e-001) (79, 6.81590363383293150000e-002) (80, 4.81934323906898500000e-002) (81, -4.22123163938522340000e-001) (82, 1.69897258281707760000e-001) (83, 4.05810499191284180000e+000) (84, -1.13818988204002380000e-001) (85, -1.84192681312561040000e+000) (86, 3.20053547620773320000e-002) (87, 3.28780442476272580000e-001) (88, -4.58976149559021000000e-001) (89, -2.97476708889007570000e-001) (90, 1.11553287506103520000e+000) (91, -2.38156843185424800000e+000) (92, 1.08950376510620120000e+000) (93, 4.82999467849731450000e+000) (94, -9.83597397804260250000e-001) (95, -5.76859056949615480000e-001) (96, -3.46339315176010130000e-001) (97, -2.19536408782005310000e-001) (98, 1.17483699321746830000e+000) (99, 3.12208849936723710000e-002) (100, 1.22771263122558590000e+000) (101, -9.16067361831665040000e-002) (102, 1.63230657577514650000e-001) (103, 8.09630632400512700000e-001) (104, 3.58989268541336060000e-001) (105, 5.47155022621154790000e-001) (106, 1.48952290415763850000e-001) (107, -2.40084215998649600000e-001) (108, -2.72067356854677200000e-002) (109, 1.26904940605163570000e+000) (110, 3.98706197738647460000e-001) (111, -6.67245626449584960000e-001) (112, 2.02555441856384280000e+000) (113, -9.79167938232421880000e-001) (114, -2.47661858797073360000e-001) (115, -4.24109578132629390000e-001) (116, -4.61339876055717470000e-002) (117, 7.18207331374287610000e-003) (118, 7.62887656688690190000e-001) (119, 3.30985039472579960000e-001) (120, 9.74968492984771730000e-001) (121, -1.33340239524841310000e-001) (122, 1.58864796161651610000e+000) (123, 8.83029043674468990000e-001) (124, 2.34309762716293330000e-001) (125, -8.34642574191093440000e-002) (126, 2.26008325815200810000e-001) (127, 1.22901082038879390000e+000) (128, 2.89199829101562500000e+000) (129, -1.73885121941566470000e-001) (130, 9.50492322444915770000e-001) (131, 6.61920261383056640000e+000) (132, 1.00666427612304690000e+000) (133, 1.35896790027618410000e+000) (134, -7.53406226634979250000e-001) (135, 9.87432539463043210000e-001) (136, 8.52768659591674800000e-001) (137, 2.28621697425842290000e+000) (138, 4.80748772621154790000e-001) (139, -6.16701662540435790000e-001) (140, -3.50409179925918580000e-001) (141, -1.17005318403244020000e-001) (142, 1.09229493141174320000e+000) (143, -9.98974382877349850000e-001) (144, 1.74041949212551120000e-002) (145, -2.31435552239418030000e-001) (146, 4.75697904825210570000e-001) (147, -2.14721441268920900000e-001) (148, 4.92418861389160160000e+000) (149, -1.65484333038330080000e+000) (150, -9.40044894814491270000e-002) (151, 4.74697500467300420000e-001) (152, 4.37262743711471560000e-001) 
