FANN_FLO_2.1
num_layers=4
learning_rate=0.300000
connection_rate=1.000000
network_type=0
learning_momentum=0.500000
training_algorithm=2
train_error_function=0
train_stop_function=0
cascade_output_change_fraction=0.010000
quickprop_decay=-0.000100
quickprop_mu=1.750000
rprop_increase_factor=1.200000
rprop_decrease_factor=0.500000
rprop_delta_min=0.000000
rprop_delta_max=50.000000
rprop_delta_zero=0.100000
cascade_output_stagnation_epochs=12
cascade_candidate_change_fraction=0.010000
cascade_candidate_stagnation_epochs=12
cascade_max_out_epochs=150
cascade_min_out_epochs=50
cascade_max_cand_epochs=150
cascade_min_cand_epochs=50
cascade_num_candidate_groups=2
bit_fail_limit=3.49999994039535520000e-001
cascade_candidate_limit=1.00000000000000000000e+003
cascade_weight_multiplier=4.00000005960464480000e-001
cascade_activation_functions_count=10
cascade_activation_functions=3 5 7 8 10 11 14 15 16 17 
cascade_activation_steepnesses_count=4
cascade_activation_steepnesses=2.50000000000000000000e-001 5.00000000000000000000e-001 7.50000000000000000000e-001 1.00000000000000000000e+000 
layer_sizes=76 51 26 2 
scale_included=0
neurons (num_inputs, activation_function, activation_steepness)=(0, 0, 0.00000000000000000000e+000) (0, 0, 0.00000000000000000000e+000) (0, 0, 0.00000000000000000000e+000) (0, 0, 0.00000000000000000000e+000) (0, 0, 0.00000000000000000000e+000) (0, 0, 0.00000000000000000000e+000) (0, 0, 0.00000000000000000000e+000) (0, 0, 0.00000000000000000000e+000) (0, 0, 0.00000000000000000000e+000) (0, 0, 0.00000000000000000000e+000) (0, 0, 0.00000000000000000000e+000) (0, 0, 0.00000000000000000000e+000) (0, 0, 0.00000000000000000000e+000) (0, 0, 0.00000000000000000000e+000) (0, 0, 0.00000000000000000000e+000) (0, 0, 0.00000000000000000000e+000) (0, 0, 0.00000000000000000000e+000) (0, 0, 0.00000000000000000000e+000) (0, 0, 0.00000000000000000000e+000) (0, 0, 0.00000000000000000000e+000) (0, 0, 0.00000000000000000000e+000) (0, 0, 0.00000000000000000000e+000) (0, 0, 0.00000000000000000000e+000) (0, 0, 0.00000000000000000000e+000) (0, 0, 0.00000000000000000000e+000) (0, 0, 0.00000000000000000000e+000) (0, 0, 0.00000000000000000000e+000) (0, 0, 0.00000000000000000000e+000) (0, 0, 0.00000000000000000000e+000) (0, 0, 0.00000000000000000000e+000) (0, 0, 0.00000000000000000000e+000) (0, 0, 0.00000000000000000000e+000) (0, 0, 0.00000000000000000000e+000) (0, 0, 0.00000000000000000000e+000) (0, 0, 0.00000000000000000000e+000) (0, 0, 0.00000000000000000000e+000) (0, 0, 0.00000000000000000000e+000) (0, 0, 0.00000000000000000000e+000) (0, 0, 0.00000000000000000000e+000) (0, 0, 0.00000000000000000000e+000) (0, 0, 0.00000000000000000000e+000) (0, 0, 0.00000000000000000000e+000) (0, 0, 0.00000000000000000000e+000) (0, 0, 0.00000000000000000000e+000) (0, 0, 0.00000000000000000000e+000) (0, 0, 0.00000000000000000000e+000) (0, 0, 0.00000000000000000000e+000) (0, 0, 0.00000000000000000000e+000) (0, 0, 0.00000000000000000000e+000) (0, 0, 0.00000000000000000000e+000) (0, 0, 0.00000000000000000000e+000) (0, 0, 0.00000000000000000000e+000) (0, 0, 0.00000000000000000000e+000) (0, 0, 0.00000000000000000000e+000) (0, 0, 0.00000000000000000000e+000) (0, 0, 0.00000000000000000000e+000) (0, 0, 0.00000000000000000000e+000) (0, 0, 0.00000000000000000000e+000) (0, 0, 0.00000000000000000000e+000) (0, 0, 0.00000000000000000000e+000) (0, 0, 0.00000000000000000000e+000) (0, 0, 0.00000000000000000000e+000) (0, 0, 0.00000000000000000000e+000) (0, 0, 0.00000000000000000000e+000) (0, 0, 0.00000000000000000000e+000) (0, 0, 0.00000000000000000000e+000) (0, 0, 0.00000000000000000000e+000) (0, 0, 0.00000000000000000000e+000) (0, 0, 0.00000000000000000000e+000) (0, 0, 0.00000000000000000000e+000) (0, 0, 0.00000000000000000000e+000) (0, 0, 0.00000000000000000000e+000) (0, 0, 0.00000000000000000000e+000) (0, 0, 0.00000000000000000000e+000) (0, 0, 0.00000000000000000000e+000) (0, 0, 0.00000000000000000000e+000) (76, 5, 5.00000000000000000000e-001) (76, 5, 5.00000000000000000000e-001) (76, 5, 5.00000000000000000000e-001) (76, 5, 5.00000000000000000000e-001) (76, 5, 5.00000000000000000000e-001) (76, 5, 5.00000000000000000000e-001) (76, 5, 5.00000000000000000000e-001) (76, 5, 5.00000000000000000000e-001) (76, 5, 5.00000000000000000000e-001) (76, 5, 5.00000000000000000000e-001) (76, 5, 5.00000000000000000000e-001) (76, 5, 5.00000000000000000000e-001) (76, 5, 5.00000000000000000000e-001) (76, 5, 5.00000000000000000000e-001) (76, 5, 5.00000000000000000000e-001) (76, 5, 5.00000000000000000000e-001) (76, 5, 5.00000000000000000000e-001) (76, 5, 5.00000000000000000000e-001) (76, 5, 5.00000000000000000000e-001) (76, 5, 5.00000000000000000000e-001) (76, 5, 5.00000000000000000000e-001) (76, 5, 5.00000000000000000000e-001) (76, 5, 5.00000000000000000000e-001) (76, 5, 5.00000000000000000000e-001) (76, 5, 5.00000000000000000000e-001) (76, 5, 5.00000000000000000000e-001) (76, 5, 5.00000000000000000000e-001) (76, 5, 5.00000000000000000000e-001) (76, 5, 5.00000000000000000000e-001) (76, 5, 5.00000000000000000000e-001) (76, 5, 5.00000000000000000000e-001) (76, 5, 5.00000000000000000000e-001) (76, 5, 5.00000000000000000000e-001) (76, 5, 5.00000000000000000000e-001) (76, 5, 5.00000000000000000000e-001) (76, 5, 5.00000000000000000000e-001) (76, 5, 5.00000000000000000000e-001) (76, 5, 5.00000000000000000000e-001) (76, 5, 5.00000000000000000000e-001) (76, 5, 5.00000000000000000000e-001) (76, 5, 5.00000000000000000000e-001) (76, 5, 5.00000000000000000000e-001) (76, 5, 5.00000000000000000000e-001) (76, 5, 5.00000000000000000000e-001) (76, 5, 5.00000000000000000000e-001) (76, 5, 5.00000000000000000000e-001) (76, 5, 5.00000000000000000000e-001) (76, 5, 5.00000000000000000000e-001) (76, 5, 5.00000000000000000000e-001) (76, 5, 5.00000000000000000000e-001) (0, 5, 0.00000000000000000000e+000) (51, 5, 5.00000000000000000000e-001) (51, 5, 5.00000000000000000000e-001) (51, 5, 5.00000000000000000000e-001) (51, 5, 5.00000000000000000000e-001) (51, 5, 5.00000000000000000000e-001) (51, 5, 5.00000000000000000000e-001) (51, 5, 5.00000000000000000000e-001) (51, 5, 5.00000000000000000000e-001) (51, 5, 5.00000000000000000000e-001) (51, 5, 5.00000000000000000000e-001) (51, 5, 5.00000000000000000000e-001) (51, 5, 5.00000000000000000000e-001) (51, 5, 5.00000000000000000000e-001) (51, 5, 5.00000000000000000000e-001) (51, 5, 5.00000000000000000000e-001) (51, 5, 5.00000000000000000000e-001) (51, 5, 5.00000000000000000000e-001) (51, 5, 5.00000000000000000000e-001) (51, 5, 5.00000000000000000000e-001) (51, 5, 5.00000000000000000000e-001) (51, 5, 5.00000000000000000000e-001) (51, 5, 5.00000000000000000000e-001) (51, 5, 5.00000000000000000000e-001) (51, 5, 5.00000000000000000000e-001) (51, 5, 5.00000000000000000000e-001) (0, 5, 0.00000000000000000000e+000) (26, 0, 5.00000000000000000000e-001) (0, 0, 0.00000000000000000000e+000) 
connections (connected_to_neuron, weight)=(0, 1.35985937500000000000e+003) (1, -1.50000000000000000000e+003) (2, -1.50000000000000000000e+003) (3, 1.48746435546875000000e+003) (4, -1.50000000000000000000e+003) (5, -1.49222399902343750000e+003) (6, 1.45633959960937500000e+003) (7, -1.49984887695312500000e+003) (8, -1.49963720703125000000e+003) (9, 1.47202661132812500000e+003) (10, 1.50000000000000000000e+003) (11, -1.50000000000000000000e+003) (12, 1.47365527343750000000e+003) (13, -1.50000000000000000000e+003) (14, -1.50000000000000000000e+003) (15, 1.45722314453125000000e+003) (16, 1.49996459960937500000e+003) (17, -1.50000000000000000000e+003) (18, 1.49975097656250000000e+003) (19, -1.49930126953125000000e+003) (20, -1.50000000000000000000e+003) (21, 1.41943566894531250000e+003) (22, -1.50000000000000000000e+003) (23, -1.50000000000000000000e+003) (24, 1.37187963867187500000e+003) (25, 9.72450942993164060000e+001) (26, -1.50000000000000000000e+003) (27, -1.49997241210937500000e+003) (28, 1.50000000000000000000e+003) (29, 1.49996752929687500000e+003) (30, 1.50000000000000000000e+003) (31, 1.50000000000000000000e+003) (32, -1.49973706054687500000e+003) (33, 1.49955297851562500000e+003) (34, -1.50000000000000000000e+003) (35, -1.50000000000000000000e+003) (36, 1.41897131347656250000e+003) (37, -1.50000000000000000000e+003) (38, -1.49821252441406250000e+003) (39, 1.49057373046875000000e+003) (40, -1.49998681640625000000e+003) (41, -1.49999389648437500000e+003) (42, 1.45805432128906250000e+003) (43, -1.50000000000000000000e+003) (44, 1.03738537597656250000e+003) (45, 1.49715686035156250000e+003) (46, 1.49999035644531250000e+003) (47, -1.49999206542968750000e+003) (48, 1.49849963378906250000e+003) (49, 1.50000000000000000000e+003) (50, -1.50000000000000000000e+003) (51, 1.42335986328125000000e+003) (52, -1.50000000000000000000e+003) (53, -1.48500000000000000000e+003) (54, 1.46901464843750000000e+003) (55, 1.50000000000000000000e+003) (56, -1.12240600585937500000e+003) (57, 1.45869555664062500000e+003) (58, -1.50000000000000000000e+003) (59, 1.50000000000000000000e+003) (60, 1.48412451171875000000e+003) (61, 1.35340002441406250000e+003) (62, -1.43931567382812500000e+003) (63, 1.45515283203125000000e+003) (64, 1.50000000000000000000e+003) (65, -1.50000000000000000000e+003) (66, 1.46451843261718750000e+003) (67, -1.50000000000000000000e+003) (68, -1.50000000000000000000e+003) (69, 1.47956945800781250000e+003) (70, -1.49387609863281250000e+003) (71, -1.49999963378906250000e+003) (72, 1.48142346191406250000e+003) (73, -1.11854272460937500000e+003) (74, -3.14528991699218750000e+002) (75, 1.50000000000000000000e+003) (0, 1.05852872133255000000e-001) (1, 5.10157272219657900000e-002) (2, -3.43985110521316530000e-001) (3, 4.74833488464355470000e-001) (4, 3.31165045499801640000e-001) (5, 1.61482572555541990000e-001) (6, -1.78732480853796010000e-002) (7, 7.27725625038146970000e-001) (8, 8.08998495340347290000e-002) (9, -6.70924961566925050000e-001) (10, 2.34873175621032710000e-001) (11, 3.27780306339263920000e-001) (12, -1.74921348690986630000e-001) (13, -1.08952485024929050000e-001) (14, -3.52804750204086300000e-001) (15, 1.19454953819513320000e-002) (16, -3.93581995740532880000e-003) (17, -1.64127275347709660000e-002) (18, 2.10746467113494870000e-001) (19, 8.62830653786659240000e-002) (20, -8.07283595204353330000e-002) (21, -1.90859228372573850000e-001) (22, 5.82861602306365970000e-002) (23, 2.34288707375526430000e-001) (24, 3.32020558416843410000e-002) (25, 2.68653556704521180000e-002) (26, -5.08140549063682560000e-002) (27, 1.63598656654357910000e-001) (28, 1.58405974507331850000e-001) (29, 1.97568908333778380000e-001) (30, 3.65271978080272670000e-002) (31, -4.67580668628215790000e-002) (32, -9.91907864809036250000e-002) (33, 2.20761507749557500000e-001) (34, 3.02114393562078480000e-002) (35, 2.07067638635635380000e-001) (36, -1.88348531723022460000e-001) (37, 8.03273975849151610000e-001) (38, 4.99195873737335210000e-001) (39, 3.03428578376770020000e+000) (40, -7.54978060722351070000e-001) (41, -2.57771283388137820000e-001) (42, -3.00489008426666260000e-001) (43, -8.44553038477897640000e-002) (44, -5.57488083839416500000e-001) (45, 2.68855959177017210000e-001) (46, -2.16752998530864720000e-002) (47, 3.21251340210437770000e-002) (48, 5.36690056324005130000e-001) (49, 3.12485545873641970000e-001) (50, -1.51554822921752930000e-001) (51, 4.34769839048385620000e-001) (52, 7.28445649147033690000e-001) (53, 2.89682805538177490000e-001) (54, 3.79762679338455200000e-001) (55, 4.22636896371841430000e-001) (56, -3.71994286775588990000e-001) (57, -7.57867395877838130000e-002) (58, 3.21565151214599610000e-001) (59, -2.51255810260772710000e-001) (60, 2.49869614839553830000e-001) (61, 1.30377918481826780000e-001) (62, -2.21564337611198430000e-001) (63, 1.85780733823776250000e-001) (64, 2.26439520716667180000e-001) (65, 2.47468888759613040000e-001) (66, 1.15098267793655400000e-001) (67, 3.62059772014617920000e-001) (68, -1.03604957461357120000e-001) (69, -2.47697114944458010000e-001) (70, 3.31041008234024050000e-001) (71, 1.02896504104137420000e-001) (72, -3.07612895965576170000e-001) (73, -2.00977418571710590000e-002) (74, -1.78806111216545100000e-001) (75, -1.16391825675964360000e+000) (0, -3.88202011585235600000e-001) (1, -6.93195879459381100000e-001) (2, -2.15439021587371830000e-001) (3, 8.49371373653411870000e-001) (4, -3.15033674240112300000e-001) (5, 6.98093473911285400000e-001) (6, 2.79407203197479250000e-002) (7, 1.93898394703865050000e-001) (8, -6.25625729560852050000e-001) (9, -2.97742426395416260000e-001) (10, 2.94114947319030760000e-001) (11, -1.78363010287284850000e-001) (12, -1.49118766188621520000e-001) (13, -1.44778877496719360000e-001) (14, -3.50179523229599000000e-001) (15, -2.58933603763580320000e-001) (16, -2.98718968406319620000e-003) (17, 7.46667861938476560000e-001) (18, 1.90900743007659910000e-001) (19, -6.38925969600677490000e-001) (20, 5.91587305068969730000e-001) (21, 9.48475420475006100000e-001) (22, -1.06233024597167970000e+000) (23, -3.45478796958923340000e+000) (24, -2.71032080054283140000e-002) (25, 6.96988105773925780000e-001) (26, -1.27445176243782040000e-001) (27, -4.41268295049667360000e-001) (28, 6.86581015586853030000e-001) (29, 5.93010723590850830000e-001) (30, -6.24032914638519290000e-001) (31, -1.28834947943687440000e-001) (32, 1.37171912193298340000e+000) (33, 4.95074272155761720000e-001) (34, -9.60905969142913820000e-001) (35, 1.06634593009948730000e+000) (36, 9.36067581176757810000e-001) (37, -1.54654240608215330000e+000) (38, -3.49663925170898440000e+000) (39, 3.18781048059463500000e-001) (40, 1.41520094871521000000e+000) (41, 6.89402893185615540000e-002) (42, -1.05983257293701170000e+000) (43, 3.34873557090759280000e-001) (44, 1.04091919958591460000e-001) (45, -8.53176563978195190000e-002) (46, 6.01923540234565730000e-002) (47, -2.47750207781791690000e-001) (48, 4.83839865773916240000e-003) (49, 4.48331190273165700000e-003) (50, 1.11392164230346680000e+000) (51, -1.49630978703498840000e-001) (52, -5.05712091922760010000e-001) (53, -3.44395446777343750000e+000) (54, -2.96337336301803590000e-001) (55, -1.02399159222841260000e-002) (56, 1.23219631612300870000e-001) (57, 3.97263094782829280000e-002) (58, 5.40931448340415950000e-002) (59, 2.95963853597640990000e-001) (60, -4.10668253898620610000e-001) (61, 4.68675270676612850000e-002) (62, 9.28263440728187560000e-002) (63, 2.79067575931549070000e-001) (64, -9.43058356642723080000e-002) (65, 2.74802111089229580000e-002) (66, 7.95916244387626650000e-002) (67, -7.63200283050537110000e-001) (68, -3.10721814632415770000e-001) (69, 5.31071782112121580000e-001) (70, -2.54372149705886840000e-001) (71, 4.60142910480499270000e-001) (72, 1.03424921631813050000e-001) (73, 2.88134127855300900000e-001) (74, -2.94144898653030400000e-001) (75, 7.88071393966674800000e-001) (0, -1.50000000000000000000e+003) (1, -1.50000000000000000000e+003) (2, -1.50000000000000000000e+003) (3, -1.50000000000000000000e+003) (4, -1.50000000000000000000e+003) (5, -1.49846154785156250000e+003) (6, -1.50000000000000000000e+003) (7, -6.14816169738769530000e+001) (8, 1.50000000000000000000e+003) (9, -1.50000000000000000000e+003) (10, 1.50000000000000000000e+003) (11, -1.49999694824218750000e+003) (12, -1.50000000000000000000e+003) (13, -1.50000000000000000000e+003) (14, 1.49969494628906250000e+003) (15, -1.50000000000000000000e+003) (16, 1.50000000000000000000e+003) (17, -1.49999658203125000000e+003) (18, -1.50000000000000000000e+003) (19, -1.50000000000000000000e+003) (20, 1.50000000000000000000e+003) (21, -1.50000000000000000000e+003) (22, -1.50000000000000000000e+003) (23, 1.50000000000000000000e+003) (24, -1.50000000000000000000e+003) (25, 1.50000000000000000000e+003) (26, -1.13225708007812500000e+003) (27, -1.50000000000000000000e+003) (28, -1.50000000000000000000e+003) (29, 1.50000000000000000000e+003) (30, -1.50000000000000000000e+003) (31, 1.50000000000000000000e+003) (32, -1.50000000000000000000e+003) (33, -1.50000000000000000000e+003) (34, -1.50000000000000000000e+003) (35, 1.50000000000000000000e+003) (36, -1.49999987792968750000e+003) (37, -1.50000000000000000000e+003) (38, -1.46279675292968750000e+003) (39, -1.50000000000000000000e+003) (40, 1.50000000000000000000e+003) (41, -1.49998889160156250000e+003) (42, -1.50000000000000000000e+003) (43, -1.50000000000000000000e+003) (44, -1.49926428222656250000e+003) (45, -1.50000000000000000000e+003) (46, -1.50000000000000000000e+003) (47, -1.50000000000000000000e+003) (48, -1.50000000000000000000e+003) (49, -1.10610266113281250000e+003) (50, -1.50000000000000000000e+003) (51, -1.50000000000000000000e+003) (52, -1.50000000000000000000e+003) (53, 1.50000000000000000000e+003) (54, -1.50000000000000000000e+003) (55, 1.50000000000000000000e+003) (56, -1.49996215820312500000e+003) (57, -1.50000000000000000000e+003) (58, -1.49997119140625000000e+003) (59, 7.44033874511718750000e+002) (60, -1.50000000000000000000e+003) (61, 1.50000000000000000000e+003) (62, -1.50000000000000000000e+003) (63, -1.49997204589843750000e+003) (64, -1.50000000000000000000e+003) (65, 6.79943847656250000000e+001) (66, -1.49999987792968750000e+003) (67, -1.50000000000000000000e+003) (68, 1.49995776367187500000e+003) (69, -1.50000000000000000000e+003) (70, 1.50000000000000000000e+003) (71, -1.49999987792968750000e+003) (72, -1.50000000000000000000e+003) (73, 1.50000000000000000000e+003) (74, -1.49999291992187500000e+003) (75, -1.50000000000000000000e+003) (0, -1.50000000000000000000e+003) (1, -1.50000000000000000000e+003) (2, -1.50000000000000000000e+003) (3, -1.50000000000000000000e+003) (4, 1.50000000000000000000e+003) (5, -1.50000000000000000000e+003) (6, -1.50000000000000000000e+003) (7, -1.50000000000000000000e+003) (8, -1.50000000000000000000e+003) (9, -1.50000000000000000000e+003) (10, 1.50000000000000000000e+003) (11, -1.50000000000000000000e+003) (12, -1.50000000000000000000e+003) (13, -1.50000000000000000000e+003) (14, -1.50000000000000000000e+003) (15, -1.50000000000000000000e+003) (16, 1.49797888183593750000e+003) (17, 9.59960815429687500000e+002) (18, -1.50000000000000000000e+003) (19, 1.50000000000000000000e+003) (20, -1.50000000000000000000e+003) (21, -1.50000000000000000000e+003) (22, -1.50000000000000000000e+003) (23, -1.50000000000000000000e+003) (24, -1.16091662597656250000e+003) (25, 1.50000000000000000000e+003) (26, -1.49883740234375000000e+003) (27, -1.50000000000000000000e+003) (28, -1.49999328613281250000e+003) (29, 1.49997729492187500000e+003) (30, -1.50000000000000000000e+003) (31, -1.50000000000000000000e+003) (32, -1.50000000000000000000e+003) (33, -1.50000000000000000000e+003) (34, 1.49996740722656250000e+003) (35, 1.49996765136718750000e+003) (36, -1.50000000000000000000e+003) (37, -1.49970251464843750000e+003) (38, 1.49996057128906250000e+003) (39, -6.42446228027343750000e+002) (40, -1.50000000000000000000e+003) (41, -1.49997387695312500000e+003) (42, -1.50000000000000000000e+003) (43, -1.50000000000000000000e+003) (44, 1.50000000000000000000e+003) (45, -1.50000000000000000000e+003) (46, 9.43056091308593750000e+002) (47, -1.50000000000000000000e+003) (48, -1.50000000000000000000e+003) (49, -1.50000000000000000000e+003) (50, -1.50000000000000000000e+003) (51, -1.50000000000000000000e+003) (52, -1.49952124023437500000e+003) (53, -1.50000000000000000000e+003) (54, -1.50000000000000000000e+003) (55, 1.47829016113281250000e+003) (56, -1.48500000000000000000e+003) (57, -1.50000000000000000000e+003) (58, -1.50000000000000000000e+003) (59, 1.49980932617187500000e+003) (60, -1.50000000000000000000e+003) (61, 1.50000000000000000000e+003) (62, 1.49505908203125000000e+003) (63, -1.50000000000000000000e+003) (64, -1.50000000000000000000e+003) (65, -1.50000000000000000000e+003) (66, -1.50000000000000000000e+003) (67, -1.50000000000000000000e+003) (68, -1.50000000000000000000e+003) (69, -1.49007788085937500000e+003) (70, 1.50000000000000000000e+003) (71, -1.50000000000000000000e+003) (72, -1.50000000000000000000e+003) (73, -1.50000000000000000000e+003) (74, 4.53007537841796870000e+002) (75, 1.24170214843750000000e+003) (0, -3.75011652708053590000e-001) (1, -1.08775472640991210000e+000) (2, -1.45464301109313960000e-001) (3, 2.56026864051818850000e-001) (4, 5.03124967217445370000e-002) (5, 2.34846964478492740000e-001) (6, 7.03886032104492190000e-001) (7, -1.87093392014503480000e-001) (8, -6.50752246379852290000e-001) (9, 7.80830204486846920000e-001) (10, 1.27103850245475770000e-001) (11, -4.37394738197326660000e-001) (12, -2.45514303445816040000e-001) (13, -7.13634014129638670000e-001) (14, -2.28211402893066410000e-001) (15, -1.22603639960289000000e-001) (16, 2.64348387718200680000e-001) (17, -5.06652891635894780000e-001) (18, 9.60434794425964360000e-001) (19, 3.51882018148899080000e-002) (20, 3.69409471750259400000e-001) (21, -1.53288930654525760000e-001) (22, -3.75098991394042970000e+000) (23, -4.16600513458251950000e+000) (24, 4.05753999948501590000e-001) (25, -6.13266408443450930000e-001) (26, 2.48996400833129880000e+000) (27, -1.10419392585754390000e+000) (28, -3.16044944338500500000e-003) (29, 3.28617858886718750000e+000) (30, -4.83445942401885990000e-001) (31, -1.11448204517364500000e+000) (32, -3.75707685947418210000e-001) (33, 8.13024267554283140000e-002) (34, 2.78832960128784180000e+000) (35, 2.06647443771362300000e+000) (36, -1.52012920379638670000e+000) (37, 3.37918186187744140000e+000) (38, -6.29102468490600590000e-001) (39, -8.24559509754180910000e-001) (40, 3.06705021858215330000e+000) (41, 1.54386150836944580000e+000) (42, -3.87687325477600100000e-001) (43, 1.69968283176422120000e+000) (44, 1.77430903911590580000e+000) (45, 2.53131061792373660000e-001) (46, -5.60192584991455080000e-001) (47, -2.11991339921951290000e-001) (48, 5.16180396080017090000e-001) (49, 3.58075834810733800000e-003) (50, 4.63188201189041140000e-001) (51, -4.80277895927429200000e-001) (52, -8.34288716316223140000e-001) (53, -2.11668992042541500000e+000) (54, -2.87318050861358640000e-001) (55, 8.71294438838958740000e-001) (56, 5.76281666755676270000e-001) (57, -6.03540360927581790000e-001) (58, 1.03196120262146000000e+000) (59, 2.48111104965209960000e+000) (60, -3.62941980361938480000e-001) (61, -2.57791042327880860000e-001) (62, 2.31288775801658630000e-001) (63, -3.60343515872955320000e-001) (64, 1.31476449966430660000e+000) (65, 1.71953290700912480000e-002) (66, -5.34140169620513920000e-001) (67, 2.30464801192283630000e-001) (68, -1.94060742855072020000e+000) (69, 9.74956333637237550000e-001) (70, -6.93692564964294430000e-001) (71, 1.78915214538574220000e+000) (72, -3.18840086460113530000e-001) (73, -2.36865535378456120000e-001) (74, 1.40909075736999510000e+000) (75, -1.10523104667663570000e+000) (0, -2.89376251220703120000e+002) (1, -1.53704862594604490000e+001) (2, 1.50000000000000000000e+003) (3, -1.50000000000000000000e+003) (4, 8.41935791015625000000e+002) (5, 1.50000000000000000000e+003) (6, 1.49956774902343750000e+003) (7, 1.50000000000000000000e+003) (8, 1.50000000000000000000e+003) (9, 1.28677136230468750000e+003) (10, 1.50000000000000000000e+003) (11, 1.50000000000000000000e+003) (12, -9.43517379760742190000e+001) (13, 1.50000000000000000000e+003) (14, 1.50000000000000000000e+003) (15, 3.99396789550781250000e+002) (16, -1.50000000000000000000e+003) (17, 1.50000000000000000000e+003) (18, -1.50000000000000000000e+003) (19, -1.50000000000000000000e+003) (20, 1.50000000000000000000e+003) (21, 1.49983288574218750000e+003) (22, 1.50000000000000000000e+003) (23, 1.50000000000000000000e+003) (24, 1.50000000000000000000e+003) (25, -1.50000000000000000000e+003) (26, 1.50000000000000000000e+003) (27, 1.43304113769531250000e+003) (28, -1.50000000000000000000e+003) (29, 1.50000000000000000000e+003) (30, -1.50000000000000000000e+003) (31, -5.64929748535156250000e+002) (32, 1.50000000000000000000e+003) (33, -1.50000000000000000000e+003) (34, -1.50000000000000000000e+003) (35, 1.50000000000000000000e+003) (36, 1.20650891113281250000e+003) (37, 1.50000000000000000000e+003) (38, 1.50000000000000000000e+003) (39, 7.15720291137695310000e+001) (40, 1.55556884765625000000e+002) (41, 1.50000000000000000000e+003) (42, -1.50000000000000000000e+003) (43, 1.49949975585937500000e+003) (44, -1.17138671875000000000e+003) (45, 1.36102310180664060000e+002) (46, -1.49999536132812500000e+003) (47, 1.50000000000000000000e+003) (48, 8.26480224609375000000e+002) (49, -1.50000000000000000000e+003) (50, 1.50000000000000000000e+003) (51, 1.47515014648437500000e+003) (52, 1.50000000000000000000e+003) (53, 1.50000000000000000000e+003) (54, 1.50000000000000000000e+003) (55, -1.49999707031250000000e+003) (56, -1.45111621093750000000e+003) (57, 1.29916308593750000000e+003) (58, -1.20124780273437500000e+003) (59, -1.50000000000000000000e+003) (60, -1.49995263671875000000e+003) (61, -1.48516516113281250000e+003) (62, 1.50000000000000000000e+003) (63, 1.37570220947265620000e+002) (64, -1.50000000000000000000e+003) (65, 1.50000000000000000000e+003) (66, 5.91659498214721680000e+000) (67, 1.50000000000000000000e+003) (68, 1.50000000000000000000e+003) (69, 8.64556598663330080000e+000) (70, 1.50000000000000000000e+003) (71, -1.49958190917968750000e+003) (72, -9.00027221679687500000e+002) (73, 1.50000000000000000000e+003) (74, -1.50000000000000000000e+003) (75, 1.49975231933593750000e+003) (0, 4.76340442895889280000e-001) (1, 2.93106698989868160000e+000) (2, 6.27276277542114260000e+000) (3, -4.93176952004432680000e-002) (4, 2.71533107757568360000e+000) (5, 9.86176729202270510000e-001) (6, 9.50622856616973880000e-001) (7, -1.07272875308990480000e+000) (8, -1.88792598247528080000e+000) (9, 1.52798366546630860000e+000) (10, 3.52312684059143070000e+000) (11, 5.46817541122436520000e+000) (12, 1.96156191825866700000e+000) (13, 6.63876485824584960000e+000) (14, -3.35370993614196780000e+000) (15, 6.26377761363983150000e-001) (16, 2.11589407920837400000e+000) (17, -2.22170829772949220000e+000) (18, -1.40329420566558840000e-001) (19, -3.86367112398147580000e-001) (20, 1.01963174343109130000e+000) (21, 3.87864559888839720000e-001) (22, 1.08768777847290040000e+001) (23, 4.55213260650634770000e+000) (24, 1.19963467121124270000e+000) (25, -1.99291920661926270000e+000) (26, -4.65542745590209960000e+000) (27, 1.59171450138092040000e+000) (28, -3.20421123504638670000e+000) (29, -4.90198659896850590000e+000) (30, 5.24894416332244870000e-001) (31, 2.88234639167785640000e+000) (32, -3.03941154479980470000e+000) (33, -2.28657054901123050000e+000) (34, 2.46174025535583500000e+000) (35, -4.74665784835815430000e+000) (36, 1.43792378902435300000e+000) (37, 1.06343374252319340000e+001) (38, 6.97583532333374020000e+000) (39, 6.91706132888793950000e+000) (40, -4.41818141937255860000e+000) (41, -1.05970954895019530000e+000) (42, 1.76591074466705320000e+000) (43, 1.10397732257843020000e+000) (44, 2.19317585229873660000e-001) (45, 5.56923821568489070000e-002) (46, 2.75778436660766600000e+000) (47, 5.79482889175415040000e+000) (48, 5.79962611198425290000e-001) (49, 1.09889154434204100000e+001) (50, -4.27365350723266600000e+000) (51, 8.03887784481048580000e-001) (52, 1.24853153228759770000e+001) (53, 3.60727763175964360000e+000) (54, 2.61849355697631840000e+000) (55, -2.37144395709037780000e-001) (56, -3.61982607841491700000e+000) (57, 2.11940979957580570000e+000) (58, -2.37831902503967290000e+000) (59, 4.27531337738037110000e+000) (60, 7.35294699668884280000e-001) (61, -1.78561425209045410000e+000) (62, 4.88808345794677730000e+000) (63, -5.22379040718078610000e-001) (64, -4.10052919387817380000e+000) (65, -3.54850864410400390000e+000) (66, 3.08662563562393190000e-001) (67, 3.24283504486083980000e+000) (68, 6.43714487552642820000e-001) (69, 1.11362326145172120000e+000) (70, 3.60511207580566410000e+000) (71, -2.04716944694519040000e+000) (72, 1.01507568359375000000e+000) (73, 8.86253547668457030000e+000) (74, -1.44092750549316410000e+000) (75, 5.16097717285156250000e+001) (0, -1.50000000000000000000e+003) (1, 1.17650061035156250000e+003) (2, -1.29838134765625000000e+003) (3, -1.50000000000000000000e+003) (4, 1.50000000000000000000e+003) (5, -1.14841003417968750000e+002) (6, -1.50000000000000000000e+003) (7, -4.79440032958984370000e+002) (8, 1.50000000000000000000e+003) (9, -1.50000000000000000000e+003) (10, 1.50000000000000000000e+003) (11, 1.49973937988281250000e+003) (12, -1.50000000000000000000e+003) (13, -1.50000000000000000000e+003) (14, 1.49920898437500000000e+003) (15, -1.50000000000000000000e+003) (16, -1.50000000000000000000e+003) (17, 1.48377734375000000000e+003) (18, -1.50000000000000000000e+003) (19, 1.50000000000000000000e+003) (20, 1.40275109863281250000e+003) (21, -1.50000000000000000000e+003) (22, -1.50000000000000000000e+003) (23, 1.49994738769531250000e+003) (24, -1.50000000000000000000e+003) (25, 1.50000000000000000000e+003) (26, -1.47324694824218750000e+003) (27, -1.50000000000000000000e+003) (28, -1.49976171875000000000e+003) (29, 1.50000000000000000000e+003) (30, -1.50000000000000000000e+003) (31, -1.49999182128906250000e+003) (32, -1.47500000000000000000e+003) (33, -1.50000000000000000000e+003) (34, 1.50000000000000000000e+003) (35, 1.49985559082031250000e+003) (36, -1.50000000000000000000e+003) (37, -1.49998962402343750000e+003) (38, -8.28428588867187500000e+002) (39, -1.50000000000000000000e+003) (40, -1.50000000000000000000e+003) (41, 1.50000000000000000000e+003) (42, -1.50000000000000000000e+003) (43, 1.50000000000000000000e+003) (44, 1.50000000000000000000e+003) (45, -1.50000000000000000000e+003) (46, -1.49999145507812500000e+003) (47, -1.47965380859375000000e+003) (48, -1.50000000000000000000e+003) (49, -1.50000000000000000000e+003) (50, -1.50000000000000000000e+003) (51, -1.50000000000000000000e+003) (52, -1.50000000000000000000e+003) (53, -5.11648162841796870000e+002) (54, -1.50000000000000000000e+003) (55, 1.50000000000000000000e+003) (56, -1.49999670410156250000e+003) (57, -1.50000000000000000000e+003) (58, 1.50000000000000000000e+003) (59, 6.33732910156250000000e+002) (60, -1.49997229003906250000e+003) (61, -1.49645263671875000000e+003) (62, 4.87213745117187500000e+002) (63, -1.49995227050781250000e+003) (64, -1.50000000000000000000e+003) (65, -9.37090454101562500000e+002) (66, -1.50000000000000000000e+003) (67, -1.50000000000000000000e+003) (68, 1.50000000000000000000e+003) (69, -1.50000000000000000000e+003) (70, 1.50000000000000000000e+003) (71, -1.50000000000000000000e+003) (72, -1.50000000000000000000e+003) (73, -1.50000000000000000000e+003) (74, -1.50000000000000000000e+003) (75, -1.50000000000000000000e+003) (0, -1.29659250378608700000e-001) (1, 3.60720008611679080000e-002) (2, -4.20932501554489140000e-001) (3, -4.56488914787769320000e-002) (4, 8.85350406169891360000e-001) (5, 4.99423801898956300000e-001) (6, -1.59032002091407780000e-001) (7, 8.15767824649810790000e-001) (8, -7.63617098331451420000e-001) (9, -5.19110798835754390000e-001) (10, 4.25485074520111080000e-001) (11, -5.26498973369598390000e-001) (12, -5.39038836956024170000e-001) (13, -3.17449510097503660000e-001) (14, -8.91687035560607910000e-001) (15, -1.91993921995162960000e-001) (16, 3.37578028440475460000e-001) (17, -6.34813845157623290000e-001) (18, 6.17619395256042480000e-001) (19, -1.84484720230102540000e-001) (20, 3.96355748176574710000e-001) (21, 9.88418579101562500000e-001) (22, -3.29403191804885860000e-001) (23, -2.18344569206237790000e+000) (24, 5.22690594196319580000e-001) (25, 1.41791486740112300000e+000) (26, 2.80824828147888180000e+000) (27, -2.10961371660232540000e-001) (28, 1.14131402969360350000e+000) (29, 7.21532285213470460000e-001) (30, -2.94478416442871090000e-001) (31, -6.31980419158935550000e-001) (32, -1.58771884441375730000e+000) (33, 2.11261701583862300000e+000) (34, -4.22932714223861690000e-001) (35, 1.65151679515838620000e+000) (36, 5.26725232601165770000e-001) (37, -2.86204457283020020000e+000) (38, -1.43962633609771730000e+000) (39, 3.94833922386169430000e-001) (40, 1.40512824058532710000e-001) (41, 2.67310291528701780000e-001) (42, -7.21794843673706050000e-001) (43, 1.58089190721511840000e-001) (44, 5.65953493118286130000e-001) (45, 1.06311574578285220000e-001) (46, 2.76677817106246950000e-001) (47, -5.10586798191070560000e-001) (48, 1.69316023588180540000e-001) (49, -1.29029139876365660000e-001) (50, 9.70089733600616460000e-001) (51, -1.43038451671600340000e-001) (52, -7.37548053264617920000e-001) (53, -2.19468355178833010000e+000) (54, 1.83819849044084550000e-002) (55, 3.70608925819396970000e-001) (56, 3.28729438781738280000e+000) (57, -1.31670728325843810000e-001) (58, 1.12536406517028810000e+000) (59, 1.87016594409942630000e+000) (60, -7.79363736510276790000e-002) (61, 1.89091145992279050000e-001) (62, -1.44465565681457520000e-001) (63, 9.59348082542419430000e-001) (64, 1.04647564888000490000e+000) (65, -8.20412814617156980000e-001) (66, -4.11476254463195800000e-001) (67, 1.45528852939605710000e+000) (68, -6.42115712165832520000e-001) (69, -3.66712838411331180000e-001) (70, 4.58886891603469850000e-001) (71, 5.88006317615509030000e-001) (72, -5.60243546962738040000e-001) (73, -1.55823007225990300000e-001) (74, -1.99130222201347350000e-001) (75, 9.23528313636779790000e-001) (0, -1.50000000000000000000e+003) (1, -1.50000000000000000000e+003) (2, -1.50000000000000000000e+003) (3, -1.50000000000000000000e+003) (4, 1.50000000000000000000e+003) (5, -1.50000000000000000000e+003) (6, -1.50000000000000000000e+003) (7, -1.20327575683593750000e+003) (8, -6.81037048339843750000e+002) (9, -1.50000000000000000000e+003) (10, 1.50000000000000000000e+003) (11, -1.50000000000000000000e+003) (12, -1.50000000000000000000e+003) (13, -1.50000000000000000000e+003) (14, -1.50000000000000000000e+003) (15, -1.50000000000000000000e+003) (16, -1.50000000000000000000e+003) (17, -1.50000000000000000000e+003) (18, -1.50000000000000000000e+003) (19, 1.49293493652343750000e+003) (20, -1.50000000000000000000e+003) (21, -1.50000000000000000000e+003) (22, -1.49972875976562500000e+003) (23, -1.50000000000000000000e+003) (24, -1.50000000000000000000e+003) (25, 1.50000000000000000000e+003) (26, -1.50000000000000000000e+003) (27, -1.50000000000000000000e+003) (28, 1.50000000000000000000e+003) (29, -1.49100000000000000000e+003) (30, -1.50000000000000000000e+003) (31, -1.50000000000000000000e+003) (32, -1.50000000000000000000e+003) (33, -1.50000000000000000000e+003) (34, -1.50000000000000000000e+003) (35, -1.50000000000000000000e+003) (36, -1.50000000000000000000e+003) (37, 1.50000000000000000000e+003) (38, 6.24562561035156250000e+002) (39, -1.50000000000000000000e+003) (40, -1.50000000000000000000e+003) (41, -5.28398193359375000000e+002) (42, -1.50000000000000000000e+003) (43, 1.50000000000000000000e+003) (44, 1.50000000000000000000e+003) (45, -1.50000000000000000000e+003) (46, 1.50000000000000000000e+003) (47, -1.50000000000000000000e+003) (48, -1.50000000000000000000e+003) (49, -1.50000000000000000000e+003) (50, -1.50000000000000000000e+003) (51, -1.50000000000000000000e+003) (52, 1.50000000000000000000e+003) (53, -1.50000000000000000000e+003) (54, -1.50000000000000000000e+003) (55, 1.50000000000000000000e+003) (56, -1.50000000000000000000e+003) (57, -1.50000000000000000000e+003) (58, -1.50000000000000000000e+003) (59, -1.50000000000000000000e+003) (60, 1.49899755859375000000e+003) (61, 1.50000000000000000000e+003) (62, -1.50000000000000000000e+003) (63, 1.49998742675781250000e+003) (64, -1.50000000000000000000e+003) (65, -1.50000000000000000000e+003) (66, -1.50000000000000000000e+003) (67, -1.50000000000000000000e+003) (68, -1.50000000000000000000e+003) (69, -1.50000000000000000000e+003) (70, 1.50000000000000000000e+003) (71, -1.50000000000000000000e+003) (72, -1.50000000000000000000e+003) (73, -1.50000000000000000000e+003) (74, -1.50000000000000000000e+003) (75, -1.50000000000000000000e+003) (0, 1.79216623306274410000e+000) (1, -1.49999584960937500000e+003) (2, -1.50000000000000000000e+003) (3, 3.41547489166259770000e+000) (4, -9.59554504394531250000e+002) (5, -1.50000000000000000000e+003) (6, -3.62730178833007810000e+001) (7, -1.50000000000000000000e+003) (8, -1.50000000000000000000e+003) (9, 2.39988952875137330000e-001) (10, -1.50000000000000000000e+003) (11, -1.50000000000000000000e+003) (12, -7.10315644741058350000e-001) (13, -1.50000000000000000000e+003) (14, -1.49805603027343750000e+003) (15, 1.26066994667053220000e+000) (16, 1.50000000000000000000e+003) (17, -1.50000000000000000000e+003) (18, 1.50000000000000000000e+003) (19, 1.50000000000000000000e+003) (20, -1.50000000000000000000e+003) (21, -3.20695102214813230000e-001) (22, -1.50000000000000000000e+003) (23, -1.50000000000000000000e+003) (24, -1.50000000000000000000e+003) (25, -1.50000000000000000000e+003) (26, -1.50000000000000000000e+003) (27, -9.64873428344726560000e+001) (28, 1.50000000000000000000e+003) (29, 1.90697280883789060000e+002) (30, 4.14453887939453130000e+001) (31, 1.50000000000000000000e+003) (32, -1.50000000000000000000e+003) (33, 1.50000000000000000000e+003) (34, 1.50000000000000000000e+003) (35, -1.50000000000000000000e+003) (36, 3.78762841224670410000e+000) (37, -1.50000000000000000000e+003) (38, -1.50000000000000000000e+003) (39, -1.50000000000000000000e+003) (40, 1.49999975585937500000e+003) (41, -1.50000000000000000000e+003) (42, -3.97699554443359370000e+002) (43, -1.49700158691406250000e+003) (44, -5.37573547363281250000e+002) (45, 1.93890213966369630000e+000) (46, 1.50000000000000000000e+003) (47, -1.50000000000000000000e+003) (48, 4.12153411865234370000e+002) (49, 1.50000000000000000000e+003) (50, -1.50000000000000000000e+003) (51, -1.65489172935485840000e+000) (52, -1.50000000000000000000e+003) (53, -1.50000000000000000000e+003) (54, -1.50000000000000000000e+003) (55, 1.50000000000000000000e+003) (56, -1.48500000000000000000e+003) (57, -1.73869686126708980000e+001) (58, 1.49998657226562500000e+003) (59, 1.49999218750000000000e+003) (60, 4.07362747192382810000e+000) (61, 1.50000000000000000000e+003) (62, -1.50000000000000000000e+003) (63, 1.50000000000000000000e+003) (64, 1.50000000000000000000e+003) (65, -1.50000000000000000000e+003) (66, -7.74615192413330080000e+000) (67, -1.50000000000000000000e+003) (68, -1.50000000000000000000e+003) (69, 3.75004291534423830000e-001) (70, -1.50000000000000000000e+003) (71, -1.48860961914062500000e+003) (72, -3.84097137451171870000e+002) (73, 1.49998974609375000000e+003) (74, -1.49990344238281250000e+003) (75, 1.50000000000000000000e+003) (0, -7.00606584548950200000e-001) (1, -1.18554472923278810000e-001) (2, 1.96266368031501770000e-001) (3, -2.01176807284355160000e-001) (4, -2.79612958431243900000e-001) (5, 1.68945491313934330000e-001) (6, 8.28271880745887760000e-002) (7, 7.56741389632225040000e-002) (8, -5.06873838603496550000e-002) (9, -1.93133726716041560000e-001) (10, 1.81962534785270690000e-001) (11, 4.90026682615280150000e-001) (12, -6.69121980667114260000e-001) (13, -7.82029256224632260000e-002) (14, -3.02225887775421140000e-001) (15, -1.03799439966678620000e-001) (16, -4.52415376901626590000e-001) (17, -8.70586216449737550000e-001) (18, 1.17167212069034580000e-001) (19, -2.16907545924186710000e-001) (20, 3.31840902566909790000e-001) (21, 1.30727112293243410000e+000) (22, -2.53031045198440550000e-001) (23, 3.60406368970870970000e-001) (24, 1.34266600012779240000e-001) (25, 3.85544449090957640000e-001) (26, -5.29892981052398680000e-001) (27, -1.63447856903076170000e-001) (28, 4.36712771654129030000e-001) (29, 4.23455953598022460000e-001) (30, -1.81817814707756040000e-001) (31, -2.80855953693389890000e-001) (32, 7.19665646553039550000e-001) (33, 1.27927541732788090000e+000) (34, 3.28472167253494260000e-001) (35, 4.56991344690322880000e-001) (36, 7.98377692699432370000e-001) (37, 4.17547178268432620000e+000) (38, 1.55914723873138430000e+000) (39, 8.34687888622283940000e-001) (40, -2.41114757955074310000e-002) (41, -1.94866549968719480000e+000) (42, 4.15074735879898070000e-001) (43, -3.46523314714431760000e-001) (44, -2.81024873256683350000e-001) (45, 4.26842600107192990000e-001) (46, 3.19058746099472050000e-001) (47, 9.37137566506862640000e-003) (48, 5.92117831110954280000e-002) (49, 4.64488148689270020000e-001) (50, 5.33653378486633300000e-001) (51, 1.11472621560096740000e-001) (52, 5.50418972969055180000e-001) (53, 2.38255769014358520000e-001) (54, 8.90504717826843260000e-001) (55, -7.94647112488746640000e-002) (56, -9.81384456157684330000e-001) (57, 1.33470267057418820000e-001) (58, 2.64479964971542360000e-002) (59, 2.89417564868927000000e-001) (60, 2.90469467639923100000e-001) (61, -3.64380553364753720000e-002) (62, -1.37201324105262760000e-001) (63, -3.35938423871994020000e-001) (64, 1.99112281203269960000e-001) (65, -3.37365716695785520000e-002) (66, -2.59066354483366010000e-002) (67, 2.53092914819717410000e-001) (68, -4.85364139080047610000e-001) (69, -2.35842347145080570000e-001) (70, 2.95423328876495360000e-001) (71, 2.82445073127746580000e-001) (72, -4.24253106117248540000e-001) (73, -1.02447941899299620000e-002) (74, -2.87072539329528810000e-001) (75, -1.80564155578613280000e+001) (0, -2.74547500610351560000e+001) (1, -1.50000000000000000000e+003) (2, -1.50000000000000000000e+003) (3, 9.30155396461486820000e-001) (4, 1.50000000000000000000e+003) (5, -1.50000000000000000000e+003) (6, -6.99718780517578120000e+001) (7, -1.50000000000000000000e+003) (8, -1.50000000000000000000e+003) (9, 2.11719441413879390000e+000) (10, 1.50000000000000000000e+003) (11, -1.50000000000000000000e+003) (12, 2.94152885675430300000e-001) (13, -1.50000000000000000000e+003) (14, -1.49899218750000000000e+003) (15, -3.22244167327880860000e+000) (16, 1.50000000000000000000e+003) (17, -1.50000000000000000000e+003) (18, 1.50000000000000000000e+003) (19, 1.50000000000000000000e+003) (20, -1.50000000000000000000e+003) (21, -1.75352516174316410000e+001) (22, -1.50000000000000000000e+003) (23, -1.50000000000000000000e+003) (24, -9.65411567687988280000e+000) (25, 1.50000000000000000000e+003) (26, -1.50000000000000000000e+003) (27, -1.41778271484375000000e+003) (28, 1.50000000000000000000e+003) (29, -1.00479492187500000000e+003) (30, 1.97485411167144780000e+000) (31, 1.50000000000000000000e+003) (32, -1.50000000000000000000e+003) (33, 1.13291938781738280000e+002) (34, 1.50000000000000000000e+003) (35, -1.50000000000000000000e+003) (36, -7.44632446289062500000e+002) (37, -1.50000000000000000000e+003) (38, -1.50000000000000000000e+003) (39, 1.18187570571899410000e+000) (40, -1.50000000000000000000e+003) (41, -1.50000000000000000000e+003) (42, -4.13684415817260740000e+000) (43, -1.06927600097656250000e+003) (44, 1.39274475097656250000e+003) (45, 1.64822161197662350000e+000) (46, 1.49998010253906250000e+003) (47, -1.50000000000000000000e+003) (48, 1.48717522621154790000e+000) (49, 1.50000000000000000000e+003) (50, -1.50000000000000000000e+003) (51, -5.16351135253906250000e+002) (52, -1.50000000000000000000e+003) (53, -1.50000000000000000000e+003) (54, -5.39218330383300780000e+001) (55, -1.33404101562500000000e+003) (56, -1.50000000000000000000e+003) (57, -4.75089492797851560000e+001) (58, 1.49914807128906250000e+003) (59, 1.49993811035156250000e+003) (60, 9.64578270912170410000e-001) (61, 1.50000000000000000000e+003) (62, -1.50000000000000000000e+003) (63, -7.45805561542510990000e-001) (64, 1.50000000000000000000e+003) (65, -1.50000000000000000000e+003) (66, 8.94462525844573970000e-001) (67, -1.50000000000000000000e+003) (68, -1.50000000000000000000e+003) (69, 9.79852199554443360000e-001) (70, -1.49190783691406250000e+003) (71, 1.49991503906250000000e+003) (72, -5.07980525493621830000e-001) (73, 2.71378326416015630000e+001) (74, -1.49997949218750000000e+003) (75, 1.50000000000000000000e+003) (0, -4.29092496633529660000e-001) (1, -3.98214720189571380000e-002) (2, 1.29481673240661620000e-001) (3, 1.65040940046310420000e-001) (4, -1.08593672513961790000e-001) (5, 1.23474681749939920000e-002) (6, -3.46919037401676180000e-002) (7, 4.94476631283760070000e-002) (8, 2.25883260369300840000e-001) (9, 1.01092815399169920000e+000) (10, 1.67678639292716980000e-001) (11, -6.36194720864295960000e-002) (12, -1.82051032781600950000e-001) (13, 4.27116900682449340000e-002) (14, -5.19940778613090520000e-002) (15, -2.19549369066953660000e-002) (16, 2.94590648263692860000e-003) (17, -2.16383635997772220000e-001) (18, 2.07517802715301510000e-001) (19, -1.16785205900669100000e-002) (20, 4.79229658842086790000e-001) (21, 1.73226654529571530000e-001) (22, -3.44699859619140630000e-001) (23, -2.43246510624885560000e-001) (24, 2.71235680580139160000e+000) (25, -1.31479963660240170000e-001) (26, -1.03178489953279500000e-002) (27, 1.89072042703628540000e-001) (28, -1.47503748536109920000e-001) (29, -1.88896745443344120000e-001) (30, -6.77502946928143500000e-003) (31, -7.84342586994171140000e-002) (32, 5.67352548241615300000e-002) (33, 9.10229802131652830000e-001) (34, 4.90710139274597170000e-002) (35, 9.45042669773101810000e-002) (36, 3.55841889977455140000e-002) (37, 1.39636814594268800000e+000) (38, -2.67836451530456540000e-001) (39, 2.23016953468322750000e+000) (40, -3.02080839872360230000e-001) (41, -1.65983997285366060000e-002) (42, 1.24505317211151120000e+000) (43, -5.30363768339157100000e-002) (44, 7.78550729155540470000e-002) (45, 7.51468315720558170000e-002) (46, 1.36023893952369690000e-001) (47, -5.07036596536636350000e-002) (48, -1.15191578865051270000e-001) (49, -1.26915201544761660000e-001) (50, 1.51571994647383690000e-002) (51, 1.11131119728088380000e+000) (52, -1.02906554937362670000e-001) (53, 2.29886144399642940000e-001) (54, 7.78046965599060060000e-001) (55, 3.69829416275024410000e-001) (56, -1.07198290526866910000e-001) (57, -3.91923397779464720000e-001) (58, 1.52677923440933230000e-001) (59, -2.37650468945503230000e-001) (60, 2.54293560981750490000e-001) (61, 9.58951786160469060000e-002) (62, -1.45781323313713070000e-001) (63, 8.75418409705162050000e-002) (64, 1.30813671275973320000e-002) (65, 6.78788796067237850000e-002) (66, -2.63592839241027830000e-001) (67, -7.66887813806533810000e-002) (68, 2.02089518308639530000e-001) (69, 7.87284076213836670000e-002) (70, -9.84793454408645630000e-002) (71, -2.27113589644432070000e-001) (72, -1.07666887342929840000e-001) (73, -2.09259390830993650000e-002) (74, 8.71242731809616090000e-002) (75, 1.95235061645507810000e+000) (0, -1.61704391241073610000e-001) (1, -5.49059957265853880000e-002) (2, -3.95781779661774640000e-003) (3, 2.14766096323728560000e-002) (4, -9.08636227250099180000e-002) (5, -3.01827657967805860000e-002) (6, -1.69881030917167660000e-001) (7, -8.51344242691993710000e-002) (8, -2.41530966013669970000e-003) (9, 1.10339961946010590000e-001) (10, -8.33685547113418580000e-002) (11, 1.74566004425287250000e-002) (12, 1.26555580645799640000e-002) (13, 3.20016890764236450000e-002) (14, 1.75377763807773590000e-002) (15, 2.20200017094612120000e-001) (16, 4.21047434210777280000e-002) (17, 9.07638594508171080000e-002) (18, 2.10948996245861050000e-002) (19, 9.69405397772789000000e-002) (20, 1.52198895812034610000e-001) (21, 4.03448164463043210000e-001) (22, 5.24488501250743870000e-002) (23, -1.71355396509170530000e-001) (24, -1.78208369761705400000e-002) (25, 2.19706550240516660000e-001) (26, -9.25037339329719540000e-002) (27, -2.07775071263313290000e-001) (28, 7.84359946846961980000e-002) (29, -6.65743881836533550000e-003) (30, 1.04385495185852050000e-001) (31, 5.40376380085945130000e-002) (32, 1.47952169179916380000e-001) (33, 3.74639511108398440000e-001) (34, 1.75779730081558230000e-001) (35, 4.03753191232681270000e-001) (36, -1.95637851953506470000e-001) (37, -1.11205494403839110000e+000) (38, -5.97106158733367920000e-001) (39, 5.84345817565917970000e-001) (40, -2.77871906757354740000e-001) (41, -1.75375621765851970000e-002) (42, -1.94361023604869840000e-002) (43, 3.98456677794456480000e-002) (44, 4.18269820511341090000e-002) (45, -5.90986087918281560000e-002) (46, -4.35516797006130220000e-003) (47, 1.43760219216346740000e-001) (48, -4.74896542727947240000e-002) (49, -1.09338216483592990000e-001) (50, 1.46099790930747990000e-001) (51, -1.20336282998323440000e-002) (52, -2.72890537977218630000e-001) (53, -2.79369980096817020000e-001) (54, -8.60103070735931400000e-002) (55, -3.46947222948074340000e-001) (56, 5.29564777389168740000e-003) (57, 2.91019111871719360000e-001) (58, -1.73329651355743410000e-001) (59, 9.08604264259338380000e-003) (60, 3.34848687052726750000e-002) (61, -3.42544987797737120000e-002) (62, -3.43635343015193940000e-002) (63, 1.58451139926910400000e-001) (64, 7.71947205066680910000e-002) (65, 2.76720318943262100000e-002) (66, -4.45552319288253780000e-002) (67, 2.02375352382659910000e-001) (68, 3.34407761693000790000e-002) (69, -1.96944862604141240000e-001) (70, 4.45425361394882200000e-002) (71, -1.13801673054695130000e-001) (72, 7.26047009229660030000e-002) (73, -4.34996932744979860000e-002) (74, 3.42057645320892330000e-002) (75, -3.80061602592468260000e+000) (0, -7.36063122749328610000e-002) (1, -1.11120268702507020000e-001) (2, -2.69525796175003050000e-002) (3, 2.20401078462600710000e-001) (4, -6.84006214141845700000e-002) (5, -2.82532572746276860000e-001) (6, 7.02231749892234800000e-002) (7, 1.66530862450599670000e-001) (8, 1.04126133024692540000e-001) (9, -1.90816223621368410000e-001) (10, 1.03428578004240990000e-002) (11, -6.00088477134704590000e-001) (12, 6.19995892047882080000e-002) (13, -3.70651632547378540000e-002) (14, 5.01641452312469480000e-001) (15, 4.10522788763046260000e-001) (16, 7.99650922417640690000e-002) (17, 2.90006279945373540000e-001) (18, -4.09756973385810850000e-002) (19, 2.53383606672286990000e-001) (20, -8.02861303091049190000e-002) (21, -3.99512499570846560000e-002) (22, 2.16973468661308290000e-001) (23, 1.53071925044059750000e-001) (24, -3.16846482455730440000e-002) (25, 3.41139696538448330000e-002) (26, 4.13948670029640200000e-003) (27, 2.15432718396186830000e-001) (28, 3.15409973263740540000e-002) (29, 4.72245253622531890000e-002) (30, 4.56527590751647950000e-001) (31, 5.32045423984527590000e-001) (32, 1.51227593421936040000e-001) (33, 3.65835845470428470000e-001) (34, 7.43188500404357910000e-001) (35, -1.49566918611526490000e-001) (36, 4.82372492551803590000e-002) (37, 3.15541625022888180000e-001) (38, -2.34661355614662170000e-001) (39, -2.41761803627014160000e+000) (40, 1.03274214267730710000e+000) (41, 2.62780547142028810000e-001) (42, -4.80112761259078980000e-001) (43, 7.31509476900100710000e-002) (44, 2.72029161453247070000e-001) (45, -1.08578972518444060000e-001) (46, -3.58505785465240480000e-001) (47, -2.00602918863296510000e-001) (48, 2.41076171398162840000e-001) (49, -2.13265180587768550000e-001) (50, -1.34156689047813420000e-001) (51, 3.43821913003921510000e-001) (52, 2.02462553977966310000e-001) (53, -6.23297393321990970000e-001) (54, -1.57832548022270200000e-001) (55, 2.46231377124786380000e-001) (56, -1.42241358757019040000e-001) (57, -1.71031326055526730000e-001) (58, 2.31205224990844730000e-001) (59, 2.32449602335691450000e-002) (60, 9.32874754071235660000e-002) (61, 5.96289895474910740000e-002) (62, 2.57788021117448810000e-002) (63, 2.98839658498764040000e-001) (64, 2.08019509911537170000e-001) (65, 1.79650753736495970000e-001) (66, -2.77714639902114870000e-001) (67, 1.81310951709747310000e-001) (68, 6.42203748226165770000e-001) (69, 1.74712598323822020000e-001) (70, 1.23861104249954220000e-001) (71, -5.47718554735183720000e-002) (72, -3.16483259201049800000e-001) (73, 7.92902410030364990000e-002) (74, 2.55015585571527480000e-002) (75, 1.20542736053466800000e+001) (0, -1.85834586620330810000e-001) (1, 3.20150256156921390000e-002) (2, 2.78199821710586550000e-001) (3, -2.62372851371765140000e-001) (4, -6.09068162739276890000e-002) (5, -3.36869120597839360000e-001) (6, 4.70991104841232300000e-001) (7, 9.43045839667320250000e-002) (8, 1.30295619368553160000e-001) (9, 5.46641871333122250000e-002) (10, 5.22253215312957760000e-001) (11, -9.88666433840990070000e-003) (12, -1.18687294423580170000e-001) (13, 1.21598400175571440000e-001) (14, 1.12127713859081270000e-001) (15, 4.27147716283798220000e-001) (16, 3.20558100938797000000e-001) (17, -1.11161828041076660000e-001) (18, -4.08722162246704100000e-002) (19, 4.50897276401519780000e-001) (20, 2.34468832612037660000e-001) (21, -1.62607789039611820000e-001) (22, -3.60900945961475370000e-002) (23, -8.76311957836151120000e-003) (24, -2.24168635904788970000e-002) (25, -1.27798929810523990000e-001) (26, 7.10489153861999510000e-002) (27, -2.03068882226943970000e-001) (28, -1.00227892398834230000e-001) (29, -4.46398437023162840000e-001) (30, 3.71451199054718020000e-001) (31, 7.10323359817266460000e-003) (32, 1.65859192609786990000e-001) (33, 9.78656530380249020000e-001) (34, 6.44241452217102050000e-001) (35, 3.66809874773025510000e-001) (36, -1.35393455624580380000e-001) (37, -1.08928835391998290000e+000) (38, -1.02886450290679930000e+000) (39, 5.95393598079681400000e-001) (40, 1.57951802015304570000e-001) (41, 2.69916146993637080000e-001) (42, -9.61591154336929320000e-002) (43, 1.68901130557060240000e-001) (44, 2.58143484592437740000e-001) (45, -3.65653634071350100000e-001) (46, 1.13117946311831470000e-002) (47, 3.54076981544494630000e-001) (48, 3.51640164852142330000e-001) (49, -1.72010496258735660000e-001) (50, -8.96559432148933410000e-002) (51, 6.87951505184173580000e-001) (52, 2.15078234672546390000e-001) (53, -1.46694760769605640000e-002) (54, -3.27124744653701780000e-001) (55, 4.77153778076171880000e-001) (56, -1.68190971016883850000e-001) (57, -1.11164718866348270000e-001) (58, 1.73205614089965820000e-001) (59, 1.31482064723968510000e-001) (60, -1.96989342570304870000e-001) (61, -2.22669869661331180000e-001) (62, 2.25387558341026310000e-001) (63, -1.34094029664993290000e-001) (64, -2.01666265726089480000e-001) (65, -4.78203505277633670000e-001) (66, -2.67790760844945910000e-002) (67, -1.44804894924163820000e-001) (68, 4.92875516414642330000e-001) (69, -2.41080790758132930000e-001) (70, -5.70249259471893310000e-002) (71, -3.91115322709083560000e-002) (72, -3.07232826948165890000e-001) (73, -1.48750871419906620000e-001) (74, -3.53894904255867000000e-002) (75, -1.63645401000976560000e+001) (0, -1.50000000000000000000e+003) (1, -1.50000000000000000000e+003) (2, -1.48500000000000000000e+003) (3, -1.50000000000000000000e+003) (4, -1.49328149414062500000e+003) (5, -1.49999853515625000000e+003) (6, -1.50000000000000000000e+003) (7, -1.50000000000000000000e+003) (8, 1.01977264404296870000e+003) (9, -1.50000000000000000000e+003) (10, 1.50000000000000000000e+003) (11, -1.49997656250000000000e+003) (12, -1.50000000000000000000e+003) (13, -1.50000000000000000000e+003) (14, -1.50000000000000000000e+003) (15, -1.50000000000000000000e+003) (16, -1.49220849609375000000e+003) (17, -1.49998986816406250000e+003) (18, -1.50000000000000000000e+003) (19, -1.49999914550781250000e+003) (20, 5.75669372558593750000e+002) (21, -1.50000000000000000000e+003) (22, 1.50000000000000000000e+003) (23, 1.50000000000000000000e+003) (24, -1.50000000000000000000e+003) (25, -1.49981091308593750000e+003) (26, -1.38906030273437500000e+003) (27, -1.50000000000000000000e+003) (28, 1.49996496582031250000e+003) (29, -1.49999853515625000000e+003) (30, -1.50000000000000000000e+003) (31, -1.49958007812500000000e+003) (32, -1.49999645996093750000e+003) (33, -1.50000000000000000000e+003) (34, 1.49910266113281250000e+003) (35, 1.50000000000000000000e+003) (36, -1.50000000000000000000e+003) (37, 1.50000000000000000000e+003) (38, 1.50000000000000000000e+003) (39, -1.50000000000000000000e+003) (40, -1.50000000000000000000e+003) (41, -1.49845080566406250000e+003) (42, -1.50000000000000000000e+003) (43, 1.50000000000000000000e+003) (44, 1.50000000000000000000e+003) (45, -1.50000000000000000000e+003) (46, 1.50000000000000000000e+003) (47, -1.48880261230468750000e+003) (48, -1.50000000000000000000e+003) (49, -1.50000000000000000000e+003) (50, -1.49100000000000000000e+003) (51, -1.50000000000000000000e+003) (52, 1.50000000000000000000e+003) (53, -1.49984118652343750000e+003) (54, -1.50000000000000000000e+003) (55, -1.49996130371093750000e+003) (56, -1.50000000000000000000e+003) (57, -1.50000000000000000000e+003) (58, 1.50000000000000000000e+003) (59, -1.49984912109375000000e+003) (60, -1.50000000000000000000e+003) (61, -1.50000000000000000000e+003) (62, -1.50000000000000000000e+003) (63, -1.50000000000000000000e+003) (64, -6.94148803710937500000e+002) (65, -1.50000000000000000000e+003) (66, -1.50000000000000000000e+003) (67, -1.50000000000000000000e+003) (68, -1.50000000000000000000e+003) (69, -1.50000000000000000000e+003) (70, 1.50000000000000000000e+003) (71, -1.50000000000000000000e+003) (72, -1.50000000000000000000e+003) (73, -1.07204760742187500000e+003) (74, -1.48500000000000000000e+003) (75, -1.50000000000000000000e+003) (0, -6.39476766809821130000e-003) (1, -2.92612481862306590000e-002) (2, 2.42706045508384700000e-001) (3, 5.12364864349365230000e-001) (4, 6.94900229573249820000e-002) (5, 3.54966342449188230000e-001) (6, 2.08100259304046630000e-001) (7, 6.16939008235931400000e-001) (8, 2.12256118655204770000e-001) (9, -4.46233332157135010000e-001) (10, 6.14045381546020510000e-001) (11, -2.00878292322158810000e-001) (12, -3.14029842615127560000e-001) (13, 8.98487716913223270000e-002) (14, -8.48671421408653260000e-002) (15, -1.70434236526489260000e-001) (16, 8.36406499147415160000e-002) (17, -3.24567079544067380000e-001) (18, 5.43176412582397460000e-001) (19, 3.02512079477310180000e-001) (20, -4.41905736923217770000e-001) (21, 3.32246065139770510000e-001) (22, 8.04691135883331300000e-001) (23, 1.82109192013740540000e-001) (24, -4.67331081628799440000e-001) (25, -8.33527207374572750000e-001) (26, 3.65986349061131480000e-003) (27, 5.48053443431854250000e-001) (28, -3.05601447820663450000e-001) (29, -2.66506612300872800000e-001) (30, 9.79841113090515140000e-001) (31, 1.38475626707077030000e-001) (32, -2.02508300542831420000e-001) (33, 2.42986738681793210000e-001) (34, 5.05707740783691410000e-001) (35, 8.48380088806152340000e-001) (36, -4.06819641590118410000e-001) (37, 7.99298956990242000000e-002) (38, -1.99585878849029540000e+000) (39, 3.60438376665115360000e-001) (40, 1.45976722240448000000e+000) (41, 1.73784804344177250000e+000) (42, -8.09947967529296880000e-001) (43, 5.45621573925018310000e-001) (44, 7.45686143636703490000e-002) (45, -6.42151087522506710000e-002) (46, 1.27729903906583790000e-002) (47, 2.91458129882812500000e-001) (48, 1.06142349541187290000e-001) (49, 2.39382818341255190000e-001) (50, -5.11254310607910160000e-001) (51, -7.59533941745758060000e-002) (52, 1.92897811532020570000e-001) (53, -6.02034151554107670000e-001) (54, -4.16953027248382570000e-001) (55, 7.47495889663696290000e-001) (56, 9.85819220542907710000e-001) (57, -5.42151629924774170000e-001) (58, 1.71530738472938540000e-001) (59, -3.12745213508605960000e-001) (60, 5.38553953170776370000e-001) (61, 1.59403637051582340000e-001) (62, -1.12358197569847110000e-001) (63, 7.04025775194168090000e-002) (64, 3.05851250886917110000e-001) (65, 2.35891565680503850000e-001) (66, -1.95776343345642090000e-001) (67, 4.89699810743331910000e-001) (68, -3.08374524116516110000e-001) (69, 2.01179891824722290000e-001) (70, 2.24101826548576350000e-001) (71, 9.67796668410301210000e-002) (72, -3.32190662622451780000e-001) (73, 2.46220022439956670000e-001) (74, -8.00956636667251590000e-002) (75, 3.67829513549804690000e+000) (0, 1.07458496093750000000e+000) (1, -1.50000000000000000000e+003) (2, -1.50000000000000000000e+003) (3, 1.07656621932983400000e+000) (4, 1.48373388671875000000e+003) (5, -1.50000000000000000000e+003) (6, 1.06599402427673340000e+000) (7, -1.50000000000000000000e+003) (8, -1.50000000000000000000e+003) (9, 4.76673364639282230000e-001) (10, 1.50000000000000000000e+003) (11, -1.50000000000000000000e+003) (12, -3.20996969938278200000e-001) (13, -1.50000000000000000000e+003) (14, -1.50000000000000000000e+003) (15, 8.91996204853057860000e-001) (16, 1.50000000000000000000e+003) (17, -1.50000000000000000000e+003) (18, 1.50000000000000000000e+003) (19, 1.50000000000000000000e+003) (20, -1.50000000000000000000e+003) (21, 8.84214162826538090000e-001) (22, -1.50000000000000000000e+003) (23, -1.50000000000000000000e+003) (24, -8.02945196628570560000e-001) (25, 1.50000000000000000000e+003) (26, -1.50000000000000000000e+003) (27, -8.01822066307067870000e-001) (28, 1.50000000000000000000e+003) (29, -1.78149642944335940000e+001) (30, 1.50000000000000000000e+003) (31, 1.50000000000000000000e+003) (32, -1.50000000000000000000e+003) (33, 1.50000000000000000000e+003) (34, 1.50000000000000000000e+003) (35, -1.50000000000000000000e+003) (36, 9.19705390930175780000e-001) (37, -1.50000000000000000000e+003) (38, -1.50000000000000000000e+003) (39, -2.29066896438598630000e+000) (40, 1.49993261718750000000e+003) (41, -1.50000000000000000000e+003) (42, -5.37582933902740480000e-001) (43, -1.50000000000000000000e+003) (44, -1.47586889648437500000e+003) (45, 1.17925930023193360000e+000) (46, -1.45486596679687500000e+003) (47, -1.50000000000000000000e+003) (48, 4.18105773925781250000e+001) (49, 1.50000000000000000000e+003) (50, -1.50000000000000000000e+003) (51, -1.68103262782096860000e-001) (52, -1.50000000000000000000e+003) (53, -1.50000000000000000000e+003) (54, -1.50000000000000000000e+003) (55, 1.50000000000000000000e+003) (56, -1.48500000000000000000e+003) (57, -2.73070645332336430000e+000) (58, 1.50000000000000000000e+003) (59, 1.49995031738281250000e+003) (60, 1.14821338653564450000e+000) (61, 1.50000000000000000000e+003) (62, -1.50000000000000000000e+003) (63, 1.43780469894409180000e+000) (64, 1.50000000000000000000e+003) (65, -1.50000000000000000000e+003) (66, 1.15459477901458740000e+000) (67, -1.50000000000000000000e+003) (68, -1.50000000000000000000e+003) (69, 7.99260199069976810000e-001) (70, -1.49674536132812500000e+003) (71, 1.49966552734375000000e+003) (72, -1.30497157573699950000e-001) (73, -1.25618591308593750000e+003) (74, -1.50000000000000000000e+003) (75, 3.25532555580139160000e+000) (0, -7.53107929229736330000e+000) (1, 1.23068664550781250000e+002) (2, -1.50000000000000000000e+003) (3, -3.05291891098022460000e+000) (4, -1.49999499511718750000e+003) (5, -1.49999987792968750000e+003) (6, -1.80699710845947270000e+001) (7, -1.50000000000000000000e+003) (8, -1.50000000000000000000e+003) (9, -7.40635538101196290000e+000) (10, 1.49455310058593750000e+003) (11, -1.50000000000000000000e+003) (12, -7.44219255447387700000e+000) (13, -1.50000000000000000000e+003) (14, -1.49533435058593750000e+003) (15, 1.50000000000000000000e+003) (16, 1.50000000000000000000e+003) (17, -1.50000000000000000000e+003) (18, 1.50000000000000000000e+003) (19, 1.50000000000000000000e+003) (20, -1.50000000000000000000e+003) (21, -4.13016281127929690000e+001) (22, -1.50000000000000000000e+003) (23, -1.50000000000000000000e+003) (24, -7.56924133300781250000e+001) (25, 1.50000000000000000000e+003) (26, -1.50000000000000000000e+003) (27, -4.22335815429687500000e+001) (28, 1.50000000000000000000e+003) (29, -1.49720971679687500000e+003) (30, 1.50000000000000000000e+003) (31, 1.49998291015625000000e+003) (32, -1.50000000000000000000e+003) (33, 1.50000000000000000000e+003) (34, 1.50000000000000000000e+003) (35, -1.50000000000000000000e+003) (36, -3.68614768981933590000e+001) (37, -1.50000000000000000000e+003) (38, -1.50000000000000000000e+003) (39, -1.50000000000000000000e+003) (40, 1.50000000000000000000e+003) (41, -1.50000000000000000000e+003) (42, -3.78793212890625000000e+002) (43, -1.50000000000000000000e+003) (44, -1.49899548339843750000e+003) (45, 1.12349072265625000000e+003) (46, 1.50000000000000000000e+003) (47, -1.50000000000000000000e+003) (48, 7.59101196289062500000e+002) (49, 1.49999316406250000000e+003) (50, -1.50000000000000000000e+003) (51, -2.30491439819335940000e+002) (52, -1.50000000000000000000e+003) (53, -1.50000000000000000000e+003) (54, -1.50000000000000000000e+003) (55, 1.50000000000000000000e+003) (56, -1.49958142089843750000e+003) (57, -1.50000000000000000000e+003) (58, 1.48953747558593750000e+003) (59, -1.47850073242187500000e+003) (60, 2.09196567535400390000e-001) (61, 1.50000000000000000000e+003) (62, -1.50000000000000000000e+003) (63, 1.50000000000000000000e+003) (64, 1.49999816894531250000e+003) (65, -1.50000000000000000000e+003) (66, -1.38043441772460940000e+001) (67, -1.50000000000000000000e+003) (68, -1.50000000000000000000e+003) (69, -9.68153381347656250000e+000) (70, -1.49999731445312500000e+003) (71, -1.20099877929687500000e+003) (72, -8.94511985778808590000e+000) (73, -1.50000000000000000000e+003) (74, -1.50000000000000000000e+003) (75, 4.20013606548309330000e-001) (0, 1.49975097656250000000e+003) (1, -1.50000000000000000000e+003) (2, -1.50000000000000000000e+003) (3, 1.48751220703125000000e+003) (4, -1.50000000000000000000e+003) (5, -1.50000000000000000000e+003) (6, 1.50000000000000000000e+003) (7, -1.48500000000000000000e+003) (8, 1.28804370117187500000e+003) (9, 1.49974389648437500000e+003) (10, 1.50000000000000000000e+003) (11, -1.50000000000000000000e+003) (12, 1.49896093750000000000e+003) (13, -1.50000000000000000000e+003) (14, -1.49997924804687500000e+003) (15, 1.50000000000000000000e+003) (16, -1.50000000000000000000e+003) (17, -1.50000000000000000000e+003) (18, 1.50000000000000000000e+003) (19, -1.50000000000000000000e+003) (20, -1.50000000000000000000e+003) (21, 1.49994848632812500000e+003) (22, -1.50000000000000000000e+003) (23, -1.49999902343750000000e+003) (24, 1.49950659179687500000e+003) (25, 9.23479248046875000000e+002) (26, -1.50000000000000000000e+003) (27, 1.49950036621093750000e+003) (28, 1.50000000000000000000e+003) (29, 1.50000000000000000000e+003) (30, 1.50000000000000000000e+003) (31, 1.50000000000000000000e+003) (32, -1.49999877929687500000e+003) (33, 1.50000000000000000000e+003) (34, -1.50000000000000000000e+003) (35, -1.49999267578125000000e+003) (36, 1.50000000000000000000e+003) (37, -1.45431726074218750000e+003) (38, -1.49781079101562500000e+003) (39, 1.50000000000000000000e+003) (40, -1.50000000000000000000e+003) (41, -1.49998999023437500000e+003) (42, 1.49950170898437500000e+003) (43, 1.49979272460937500000e+003) (44, -1.49917333984375000000e+003) (45, 1.50000000000000000000e+003) (46, -1.50000000000000000000e+003) (47, -1.49129028320312500000e+003) (48, 1.50000000000000000000e+003) (49, 1.50000000000000000000e+003) (50, -1.49964782714843750000e+003) (51, 1.50000000000000000000e+003) (52, -1.50000000000000000000e+003) (53, -1.49993518066406250000e+003) (54, -1.50000000000000000000e+003) (55, 1.40122424316406250000e+003) (56, -1.49864514160156250000e+003) (57, 1.49962805175781250000e+003) (58, -1.50000000000000000000e+003) (59, 1.50000000000000000000e+003) (60, 1.50000000000000000000e+003) (61, 1.33166052246093750000e+003) (62, -1.50000000000000000000e+003) (63, 1.50000000000000000000e+003) (64, -1.50000000000000000000e+003) (65, -1.49982946777343750000e+003) (66, 1.50000000000000000000e+003) (67, -1.50000000000000000000e+003) (68, -1.49924072265625000000e+003) (69, 1.50000000000000000000e+003) (70, 1.50000000000000000000e+003) (71, 9.26523925781250000000e+002) (72, 1.49950219726562500000e+003) (73, -8.55366760253906250000e+002) (74, -1.50000000000000000000e+003) (75, 1.50000000000000000000e+003) (0, 3.15526628494262700000e+000) (1, 1.49998291015625000000e+003) (2, -1.50000000000000000000e+003) (3, 1.69242203235626220000e+000) (4, -1.50000000000000000000e+003) (5, -1.50000000000000000000e+003) (6, 3.26763629913330080000e-001) (7, -1.50000000000000000000e+003) (8, -1.50000000000000000000e+003) (9, -1.52540087699890140000e+000) (10, 1.48188977050781250000e+003) (11, -1.50000000000000000000e+003) (12, -1.56003689765930180000e+000) (13, -1.49999206542968750000e+003) (14, -1.49366076660156250000e+003) (15, 2.28509306907653810000e+000) (16, 1.50000000000000000000e+003) (17, -1.50000000000000000000e+003) (18, 1.50000000000000000000e+003) (19, 1.50000000000000000000e+003) (20, -1.50000000000000000000e+003) (21, 1.19827842712402340000e+000) (22, -1.50000000000000000000e+003) (23, -1.50000000000000000000e+003) (24, -1.50000000000000000000e+003) (25, 1.50000000000000000000e+003) (26, -1.50000000000000000000e+003) (27, -1.13419046401977540000e+001) (28, 1.50000000000000000000e+003) (29, -1.50000000000000000000e+003) (30, 2.86898183822631840000e+000) (31, 1.50000000000000000000e+003) (32, -1.50000000000000000000e+003) (33, 1.33716040039062500000e+003) (34, 1.50000000000000000000e+003) (35, -1.50000000000000000000e+003) (36, 1.44966936111450200000e+000) (37, -1.50000000000000000000e+003) (38, -1.50000000000000000000e+003) (39, -1.50000000000000000000e+003) (40, 1.49915258789062500000e+003) (41, -1.50000000000000000000e+003) (42, -6.70501937866210940000e+001) (43, 8.10047546386718750000e+002) (44, -1.50000000000000000000e+003) (45, 2.84736466407775880000e+000) (46, 1.49992993164062500000e+003) (47, -1.50000000000000000000e+003) (48, 3.01835465431213380000e+000) (49, 1.50000000000000000000e+003) (50, -1.50000000000000000000e+003) (51, -1.21771264076232910000e+000) (52, -1.50000000000000000000e+003) (53, -1.50000000000000000000e+003) (54, -1.50000000000000000000e+003) (55, 1.50000000000000000000e+003) (56, -1.50000000000000000000e+003) (57, -1.08034715652465820000e+001) (58, 1.49999291992187500000e+003) (59, 1.50000000000000000000e+003) (60, 3.27158355712890620000e+000) (61, 1.50000000000000000000e+003) (62, -1.50000000000000000000e+003) (63, 1.85089242458343510000e+000) (64, 1.50000000000000000000e+003) (65, -1.50000000000000000000e+003) (66, -3.62696123123168950000e+000) (67, -1.50000000000000000000e+003) (68, -1.50000000000000000000e+003) (69, -3.73472839593887330000e-001) (70, 3.28078552246093750000e+002) (71, 1.49998693847656250000e+003) (72, -6.82046365737915040000e+000) (73, -6.77918014526367190000e+001) (74, 1.50000000000000000000e+003) (75, 1.49995312500000000000e+003) (0, 2.37249702215194700000e-001) (1, 2.96014919877052310000e-002) (2, -5.14306835830211640000e-002) (3, 3.21763217449188230000e-001) (4, 2.72343546152114870000e-001) (5, -4.91362810134887700000e-002) (6, -1.40754759311676030000e-001) (7, -1.26653434708714490000e-002) (8, -6.23712204396724700000e-002) (9, 1.44849598407745360000e-001) (10, -1.43593430519104000000e-001) (11, -1.40977790579199790000e-002) (12, 2.02054738998413090000e-001) (13, -1.73134729266166690000e-002) (14, -6.99147358536720280000e-002) (15, -2.41672202944755550000e-001) (16, -5.77353052794933320000e-002) (17, -6.49206787347793580000e-002) (18, -1.01944530010223390000e+000) (19, -4.82929885387420650000e-001) (20, -3.09524089097976680000e-001) (21, -3.70218008756637570000e-001) (22, 6.63250148296356200000e-001) (23, 2.31484547257423400000e-001) (24, -6.32937252521514890000e-001) (25, 2.77276277542114260000e-001) (26, 2.88477353751659390000e-002) (27, -1.61361411213874820000e-001) (28, -1.36542106047272680000e-002) (29, 6.26375228166580200000e-002) (30, -3.02258312702178960000e-001) (31, -1.30131751298904420000e-001) (32, -7.18134343624114990000e-002) (33, 8.95614862442016600000e-001) (34, 1.29960998892784120000e-001) (35, -1.81975826621055600000e-001) (36, -1.78752746433019640000e-002) (37, 9.92427706718444820000e-001) (38, 2.27041855454444890000e-001) (39, -5.12139022350311280000e-001) (40, 4.84051883220672610000e-001) (41, -7.31787160038948060000e-002) (42, -3.21118414402008060000e-001) (43, 5.76770901679992680000e-002) (44, 1.39014467597007750000e-001) (45, 2.91508197784423830000e-001) (46, 1.50343611836433410000e-001) (47, 2.75184303522109990000e-001) (48, 1.15596316754817960000e-001) (49, 2.55290389060974120000e-001) (50, 2.53453314304351810000e-001) (51, 6.66794925928115840000e-003) (52, -2.70675599575042720000e-001) (53, -6.76295384764671330000e-002) (54, 3.42902809381484990000e-001) (55, 6.52619674801826480000e-002) (56, 7.83209204673767090000e-002) (57, -2.10415869951248170000e-001) (58, 8.97724181413650510000e-002) (59, -1.67780563235282900000e-001) (60, 1.69312849640846250000e-001) (61, 5.52173843607306480000e-003) (62, 2.01542954891920090000e-003) (63, -5.34559413790702820000e-002) (64, 1.05888493359088900000e-001) (65, -1.21414013206958770000e-001) (66, 5.55446296930313110000e-002) (67, 1.69767245650291440000e-001) (68, 2.67036315053701400000e-002) (69, -2.55879759788513180000e-001) (70, 7.56815681234002110000e-003) (71, 1.17769323289394380000e-001) (72, 2.05286785960197450000e-001) (73, -7.67823085188865660000e-002) (74, -2.90280729532241820000e-002) (75, -7.37702667713165280000e-001) (0, 9.82070922851562500000e+002) (1, -1.35215502929687500000e+003) (2, 1.50000000000000000000e+003) (3, 6.24556457519531250000e+002) (4, -1.50000000000000000000e+003) (5, 1.50000000000000000000e+003) (6, -3.01545085906982420000e+001) (7, 1.50000000000000000000e+003) (8, 1.50000000000000000000e+003) (9, 1.46699609375000000000e+003) (10, 1.49991796875000000000e+003) (11, 1.41041894531250000000e+003) (12, 1.26092675781250000000e+003) (13, 1.50000000000000000000e+003) (14, 1.50000000000000000000e+003) (15, -4.61989929199218750000e+002) (16, 1.50000000000000000000e+003) (17, 1.50000000000000000000e+003) (18, 1.41221447753906250000e+003) (19, 1.50000000000000000000e+003) (20, -1.49997741699218750000e+003) (21, -1.38131286621093750000e+003) (22, -1.50000000000000000000e+003) (23, 5.85266784667968750000e+002) (24, 2.81812194824218750000e+002) (25, 1.50000000000000000000e+003) (26, 1.50000000000000000000e+003) (27, -1.49985571289062500000e+003) (28, 1.50000000000000000000e+003) (29, 1.50000000000000000000e+003) (30, 1.49997692871093750000e+003) (31, 1.50000000000000000000e+003) (32, 1.50000000000000000000e+003) (33, 1.50000000000000000000e+003) (34, 1.50000000000000000000e+003) (35, -1.50000000000000000000e+003) (36, -3.51642700195312500000e+002) (37, -1.50000000000000000000e+003) (38, -1.50000000000000000000e+003) (39, 1.26290441894531250000e+003) (40, 1.50000000000000000000e+003) (41, 1.50000000000000000000e+003) (42, 5.61424072265625000000e+002) (43, 1.50000000000000000000e+003) (44, 1.50000000000000000000e+003) (45, 9.82975341796875000000e+002) (46, 1.50000000000000000000e+003) (47, 1.50000000000000000000e+003) (48, -5.02817199707031250000e+002) (49, 1.50000000000000000000e+003) (50, -1.49346484375000000000e+003) (51, -6.13067749023437500000e+002) (52, -1.50000000000000000000e+003) (53, 4.48560577392578120000e+002) (54, -1.50000000000000000000e+003) (55, 1.50000000000000000000e+003) (56, 1.50000000000000000000e+003) (57, -1.50000000000000000000e+003) (58, 1.50000000000000000000e+003) (59, 1.50000000000000000000e+003) (60, 1.49648788452148440000e+002) (61, 1.50000000000000000000e+003) (62, 1.50000000000000000000e+003) (63, 3.68065887451171870000e+002) (64, 1.93335891723632810000e+002) (65, -6.00714569091796880000e+001) (66, 6.78317321777343750000e+002) (67, 1.50000000000000000000e+003) (68, -1.49841015625000000000e+003) (69, 1.11423693847656250000e+003) (70, -1.50000000000000000000e+003) (71, 1.50000000000000000000e+003) (72, 1.43100781250000000000e+003) (73, 1.50000000000000000000e+003) (74, -8.66256103515625000000e+001) (75, 1.50000000000000000000e+003) (0, -1.50000000000000000000e+003) (1, -1.50000000000000000000e+003) (2, -1.50000000000000000000e+003) (3, -1.50000000000000000000e+003) (4, -1.50000000000000000000e+003) (5, 1.87870239257812500000e+002) (6, -1.50000000000000000000e+003) (7, 1.50000000000000000000e+003) (8, 1.42152368164062500000e+003) (9, -1.50000000000000000000e+003) (10, 1.50000000000000000000e+003) (11, -1.42710827636718750000e+003) (12, -1.50000000000000000000e+003) (13, 1.50000000000000000000e+003) (14, -1.50000000000000000000e+003) (15, -1.50000000000000000000e+003) (16, 1.50000000000000000000e+003) (17, -1.50000000000000000000e+003) (18, -1.50000000000000000000e+003) (19, -1.50000000000000000000e+003) (20, 1.50000000000000000000e+003) (21, -1.50000000000000000000e+003) (22, 1.50000000000000000000e+003) (23, 1.50000000000000000000e+003) (24, -1.50000000000000000000e+003) (25, 1.50000000000000000000e+003) (26, -1.50000000000000000000e+003) (27, -1.50000000000000000000e+003) (28, -1.98799682617187500000e+002) (29, -1.50000000000000000000e+003) (30, -1.50000000000000000000e+003) (31, 1.50000000000000000000e+003) (32, -1.50000000000000000000e+003) (33, -1.50000000000000000000e+003) (34, -1.50000000000000000000e+003) (35, 1.50000000000000000000e+003) (36, -1.50000000000000000000e+003) (37, 1.50000000000000000000e+003) (38, 1.50000000000000000000e+003) (39, -1.50000000000000000000e+003) (40, 1.50000000000000000000e+003) (41, 1.50000000000000000000e+003) (42, -1.50000000000000000000e+003) (43, -1.50000000000000000000e+003) (44, -1.15008056640625000000e+003) (45, -1.50000000000000000000e+003) (46, 1.36870117187500000000e+003) (47, -1.50000000000000000000e+003) (48, -1.50000000000000000000e+003) (49, -1.50000000000000000000e+003) (50, 1.50000000000000000000e+003) (51, -1.50000000000000000000e+003) (52, 1.50000000000000000000e+003) (53, 1.50000000000000000000e+003) (54, -1.50000000000000000000e+003) (55, 1.50000000000000000000e+003) (56, 1.49650134277343750000e+003) (57, -1.49983984375000000000e+003) (58, 1.49999194335937500000e+003) (59, -1.47584118652343750000e+003) (60, -1.50000000000000000000e+003) (61, 1.50000000000000000000e+003) (62, -1.50000000000000000000e+003) (63, -1.50000000000000000000e+003) (64, -1.50000000000000000000e+003) (65, 1.50000000000000000000e+003) (66, -1.50000000000000000000e+003) (67, 1.50000000000000000000e+003) (68, 1.50000000000000000000e+003) (69, -1.50000000000000000000e+003) (70, 1.50000000000000000000e+003) (71, 1.49995593261718750000e+003) (72, -1.50000000000000000000e+003) (73, 1.50000000000000000000e+003) (74, -1.50000000000000000000e+003) (75, -1.50000000000000000000e+003) (0, -2.59593546390533450000e-001) (1, -1.50000000000000000000e+003) (2, -1.50000000000000000000e+003) (3, 1.03050482273101810000e+000) (4, 1.50000000000000000000e+003) (5, -1.50000000000000000000e+003) (6, 1.81012839078903200000e-001) (7, -1.50000000000000000000e+003) (8, -1.50000000000000000000e+003) (9, -1.50000000000000000000e+003) (10, 1.49981652832031250000e+003) (11, -1.50000000000000000000e+003) (12, 6.26745045185089110000e-001) (13, -1.50000000000000000000e+003) (14, -1.49533435058593750000e+003) (15, 6.96704387664794920000e-001) (16, 1.50000000000000000000e+003) (17, -1.50000000000000000000e+003) (18, 1.50000000000000000000e+003) (19, 1.50000000000000000000e+003) (20, -1.50000000000000000000e+003) (21, 1.44980657100677490000e+000) (22, -1.50000000000000000000e+003) (23, -1.50000000000000000000e+003) (24, -1.37942113876342770000e+001) (25, 1.50000000000000000000e+003) (26, -1.50000000000000000000e+003) (27, -7.08596646785736080000e-001) (28, 1.50000000000000000000e+003) (29, -1.49999206542968750000e+003) (30, 1.88195304870605470000e+001) (31, 1.50000000000000000000e+003) (32, -1.50000000000000000000e+003) (33, 1.50000000000000000000e+003) (34, 1.50000000000000000000e+003) (35, -1.50000000000000000000e+003) (36, 1.44259560108184810000e+000) (37, -1.50000000000000000000e+003) (38, -1.50000000000000000000e+003) (39, 2.36453461647033690000e+000) (40, 1.49776269531250000000e+003) (41, -1.50000000000000000000e+003) (42, 1.35896992683410640000e+000) (43, 1.49976452636718750000e+003) (44, 1.38585769653320310000e+002) (45, 9.78620052337646480000e-001) (46, 1.50000000000000000000e+003) (47, -1.50000000000000000000e+003) (48, 1.56534683704376220000e+000) (49, 1.50000000000000000000e+003) (50, -1.50000000000000000000e+003) (51, 1.59644186496734620000e-001) (52, -1.50000000000000000000e+003) (53, -1.50000000000000000000e+003) (54, -1.50000000000000000000e+003) (55, 1.50000000000000000000e+003) (56, -1.48500000000000000000e+003) (57, -3.63623535156250000000e+002) (58, 1.50000000000000000000e+003) (59, 1.49995275878906250000e+003) (60, 1.43063807487487790000e+000) (61, 1.50000000000000000000e+003) (62, -1.50000000000000000000e+003) (63, 1.10798358917236330000e+000) (64, 1.50000000000000000000e+003) (65, -1.50000000000000000000e+003) (66, 1.98891162872314450000e-001) (67, -1.50000000000000000000e+003) (68, -1.50000000000000000000e+003) (69, 2.90807318687438960000e+000) (70, -1.49399462890625000000e+003) (71, -5.54841857910156250000e+002) (72, 2.01741480827331540000e+000) (73, 1.49984362792968750000e+003) (74, -1.49968786621093750000e+003) (75, 1.50000000000000000000e+003) (0, 3.96040588378906250000e+002) (1, 1.50000000000000000000e+003) (2, 1.50000000000000000000e+003) (3, -1.50000000000000000000e+003) (4, -1.50000000000000000000e+003) (5, -1.50000000000000000000e+003) (6, -1.50000000000000000000e+003) (7, 1.50000000000000000000e+003) (8, -1.50000000000000000000e+003) (9, -1.50000000000000000000e+003) (10, -1.50000000000000000000e+003) (11, 7.30771301269531250000e+002) (12, -2.05552139282226560000e+002) (13, 1.50000000000000000000e+003) (14, -1.50000000000000000000e+003) (15, -1.50000000000000000000e+003) (16, -1.49252819824218750000e+003) (17, -1.50000000000000000000e+003) (18, -1.50000000000000000000e+003) (19, -1.50000000000000000000e+003) (20, -1.50000000000000000000e+003) (21, -1.50000000000000000000e+003) (22, 1.50000000000000000000e+003) (23, 1.37710119628906250000e+003) (24, -1.50000000000000000000e+003) (25, 1.50000000000000000000e+003) (26, -1.50000000000000000000e+003) (27, 1.24608935546875000000e+003) (28, 1.50000000000000000000e+003) (29, -1.50000000000000000000e+003) (30, -1.50000000000000000000e+003) (31, -1.50000000000000000000e+003) (32, -1.50000000000000000000e+003) (33, -1.50000000000000000000e+003) (34, 1.50000000000000000000e+003) (35, -1.50000000000000000000e+003) (36, -1.50000000000000000000e+003) (37, 1.50000000000000000000e+003) (38, -1.50000000000000000000e+003) (39, -1.50000000000000000000e+003) (40, 1.46816748046875000000e+003) (41, 8.38784423828125000000e+002) (42, -1.50000000000000000000e+003) (43, -1.50000000000000000000e+003) (44, -1.50000000000000000000e+003) (45, -1.50000000000000000000e+003) (46, -5.50954162597656250000e+002) (47, -1.22917285156250000000e+003) (48, -1.50000000000000000000e+003) (49, -1.50000000000000000000e+003) (50, -1.46974047851562500000e+003) (51, -1.42380053710937500000e+003) (52, 1.50000000000000000000e+003) (53, -1.50000000000000000000e+003) (54, -1.50000000000000000000e+003) (55, 1.50000000000000000000e+003) (56, -1.36465686035156250000e+003) (57, -1.49997106933593750000e+003) (58, -1.50000000000000000000e+003) (59, -1.50000000000000000000e+003) (60, -1.50000000000000000000e+003) (61, -1.50000000000000000000e+003) (62, -1.50000000000000000000e+003) (63, -1.50000000000000000000e+003) (64, -1.50000000000000000000e+003) (65, 1.49953625488281250000e+003) (66, -1.50000000000000000000e+003) (67, 1.50000000000000000000e+003) (68, 1.49998999023437500000e+003) (69, -1.49997229003906250000e+003) (70, 1.50000000000000000000e+003) (71, -1.32591333007812500000e+003) (72, -1.50000000000000000000e+003) (73, -1.50000000000000000000e+003) (74, -1.50000000000000000000e+003) (75, -1.50000000000000000000e+003) (0, 2.34176680445671080000e-001) (1, 1.21641278266906740000e-001) (2, 1.08748070895671840000e-001) (3, -9.30638730525970460000e-001) (4, -2.16359004378318790000e-001) (5, -1.08698822557926180000e-001) (6, 7.33209699392318730000e-002) (7, -7.37285792827606200000e-001) (8, -8.81383568048477170000e-002) (9, 5.61790943145751950000e-001) (10, -4.28909689188003540000e-001) (11, 4.99044135212898250000e-002) (12, 3.80241006612777710000e-001) (13, -7.12752863764762880000e-002) (14, -2.70082503557205200000e-002) (15, 6.93631917238235470000e-002) (16, 1.42990462481975560000e-002) (17, 2.21659108996391300000e-001) (18, 3.90029847621917720000e-001) (19, 9.77236032485961910000e-002) (20, -1.40719134360551830000e-002) (21, -2.81139701604843140000e-001) (22, -3.23039025068283080000e-001) (23, -1.26220256090164180000e-001) (24, 1.65678441524505620000e-001) (25, -2.47047156095504760000e-001) (26, 1.46949529647827150000e-001) (27, 2.19248443841934200000e-001) (28, -9.93548855185508730000e-002) (29, -3.03847730159759520000e-001) (30, -2.96252548694610600000e-001) (31, -1.88017353415489200000e-001) (32, 1.31201490759849550000e-001) (33, 2.10896515846252440000e+000) (34, 3.30983579158782960000e-001) (35, -7.21262037754058840000e-001) (36, -1.38912916183471680000e+000) (37, 2.01250863075256350000e+000) (38, -1.87409967184066770000e-001) (39, -8.27531993389129640000e-001) (40, 3.86913299560546880000e-001) (41, 5.87216973304748540000e-001) (42, -2.39158377051353450000e-001) (43, 2.64023467898368840000e-002) (44, 3.48348081111907960000e-001) (45, -1.00221686065196990000e-001) (46, 1.43540464341640470000e-002) (47, 1.49890050292015080000e-001) (48, -6.93114578723907470000e-001) (49, -2.91375547647476200000e-001) (50, -2.48557180166244510000e-001) (51, -7.69928395748138430000e-001) (52, -4.72347348928451540000e-001) (53, 3.22234332561492920000e-002) (54, 2.43310630321502690000e-002) (55, -6.35462522506713870000e-001) (56, 1.48803681135177610000e-001) (57, 3.39306473731994630000e-001) (58, -2.03997716307640080000e-001) (59, -1.49130094796419140000e-002) (60, 1.21599607169628140000e-001) (61, 1.09118476510047910000e-001) (62, 9.24358889460563660000e-002) (63, -8.27852845191955570000e-001) (64, -2.98919200897216800000e-001) (65, -1.26352787017822270000e-001) (66, 2.60985761880874630000e-001) (67, -8.23778927326202390000e-001) (68, 9.34851448982954030000e-003) (69, 5.68363070487976070000e-001) (70, -2.77792096138000490000e-001) (71, -6.56298846006393430000e-002) (72, 1.21058449149131770000e-001) (73, 2.86722294986248020000e-002) (74, 1.08555696904659270000e-001) (75, -5.45478105545043950000e-001) (0, -1.50000000000000000000e+003) (1, 1.50000000000000000000e+003) (2, 1.50000000000000000000e+003) (3, -1.50000000000000000000e+003) (4, 1.49999645996093750000e+003) (5, 1.50000000000000000000e+003) (6, 1.49992919921875000000e+003) (7, 1.50000000000000000000e+003) (8, 1.50000000000000000000e+003) (9, -1.48259411621093750000e+003) (10, 1.50000000000000000000e+003) (11, 1.50000000000000000000e+003) (12, -1.50000000000000000000e+003) (13, 1.50000000000000000000e+003) (14, 1.50000000000000000000e+003) (15, -1.50000000000000000000e+003) (16, -1.50000000000000000000e+003) (17, 1.50000000000000000000e+003) (18, -1.50000000000000000000e+003) (19, -1.50000000000000000000e+003) (20, 1.50000000000000000000e+003) (21, -1.50000000000000000000e+003) (22, 1.50000000000000000000e+003) (23, 1.50000000000000000000e+003) (24, -1.50000000000000000000e+003) (25, -3.45739654541015620000e+002) (26, 1.50000000000000000000e+003) (27, -1.44327099609375000000e+003) (28, 1.49984582519531250000e+003) (29, 1.50000000000000000000e+003) (30, -1.50000000000000000000e+003) (31, 1.49646118164062500000e+003) (32, 1.50000000000000000000e+003) (33, -1.50000000000000000000e+003) (34, -1.50000000000000000000e+003) (35, 1.50000000000000000000e+003) (36, -1.50000000000000000000e+003) (37, 1.50000000000000000000e+003) (38, 1.50000000000000000000e+003) (39, -1.50000000000000000000e+003) (40, 1.50000000000000000000e+003) (41, 1.50000000000000000000e+003) (42, 1.49625292968750000000e+003) (43, -1.49984704589843750000e+003) (44, 1.50000000000000000000e+003) (45, -1.50000000000000000000e+003) (46, 1.50000000000000000000e+003) (47, 1.50000000000000000000e+003) (48, -1.50000000000000000000e+003) (49, -1.50000000000000000000e+003) (50, 1.50000000000000000000e+003) (51, -1.50000000000000000000e+003) (52, 1.50000000000000000000e+003) (53, 1.50000000000000000000e+003) (54, -1.50000000000000000000e+003) (55, 1.50000000000000000000e+003) (56, 1.50000000000000000000e+003) (57, -1.50000000000000000000e+003) (58, -1.41117706298828120000e+002) (59, -1.42141638183593750000e+003) (60, 1.38222875976562500000e+003) (61, 1.50000000000000000000e+003) (62, 1.50000000000000000000e+003) (63, 1.47212731933593750000e+003) (64, -1.50000000000000000000e+003) (65, 1.50000000000000000000e+003) (66, -1.50000000000000000000e+003) (67, 1.50000000000000000000e+003) (68, 1.50000000000000000000e+003) (69, -1.50000000000000000000e+003) (70, 1.50000000000000000000e+003) (71, 1.50000000000000000000e+003) (72, 1.42991711425781250000e+003) (73, -1.49999645996093750000e+003) (74, 1.50000000000000000000e+003) (75, -1.50000000000000000000e+003) (0, -1.50000000000000000000e+003) (1, -1.50000000000000000000e+003) (2, -1.49995483398437500000e+003) (3, -1.50000000000000000000e+003) (4, -1.50000000000000000000e+003) (5, 1.08363684082031250000e+003) (6, -1.50000000000000000000e+003) (7, 1.50000000000000000000e+003) (8, -1.47831591796875000000e+003) (9, -1.50000000000000000000e+003) (10, 1.50000000000000000000e+003) (11, -1.44002136230468750000e+003) (12, -1.50000000000000000000e+003) (13, -1.49971948242187500000e+003) (14, -1.49999731445312500000e+003) (15, -1.50000000000000000000e+003) (16, 7.41690307617187500000e+002) (17, -1.49991845703125000000e+003) (18, -1.50000000000000000000e+003) (19, -1.50000000000000000000e+003) (20, 9.11337158203125000000e+002) (21, -1.50000000000000000000e+003) (22, 3.71646453857421870000e+002) (23, -1.19680346679687500000e+003) (24, -1.50000000000000000000e+003) (25, 1.50000000000000000000e+003) (26, -9.57083679199218750000e+002) (27, -1.50000000000000000000e+003) (28, -1.49677624511718750000e+003) (29, 1.50000000000000000000e+003) (30, -1.50000000000000000000e+003) (31, 1.50000000000000000000e+003) (32, -1.50000000000000000000e+003) (33, -1.50000000000000000000e+003) (34, -1.50000000000000000000e+003) (35, 1.47004650878906250000e+003) (36, -1.50000000000000000000e+003) (37, -1.50000000000000000000e+003) (38, -1.30228588867187500000e+003) (39, -1.50000000000000000000e+003) (40, 1.50000000000000000000e+003) (41, 1.50000000000000000000e+003) (42, -1.50000000000000000000e+003) (43, -1.50000000000000000000e+003) (44, 1.50000000000000000000e+003) (45, -1.50000000000000000000e+003) (46, 1.50000000000000000000e+003) (47, -1.50000000000000000000e+003) (48, -1.50000000000000000000e+003) (49, -1.50000000000000000000e+003) (50, -1.48509179687500000000e+003) (51, -1.50000000000000000000e+003) (52, -1.50000000000000000000e+003) (53, -1.10861535644531250000e+003) (54, -1.50000000000000000000e+003) (55, 1.50000000000000000000e+003) (56, 1.50000000000000000000e+003) (57, -1.50000000000000000000e+003) (58, 1.50000000000000000000e+003) (59, 1.50000000000000000000e+003) (60, -1.49991503906250000000e+003) (61, 1.50000000000000000000e+003) (62, -1.50000000000000000000e+003) (63, -1.49990380859375000000e+003) (64, -1.50000000000000000000e+003) (65, -1.50000000000000000000e+003) (66, -1.50000000000000000000e+003) (67, -1.50000000000000000000e+003) (68, -1.50000000000000000000e+003) (69, -1.50000000000000000000e+003) (70, 1.50000000000000000000e+003) (71, -1.48500000000000000000e+003) (72, -1.49999987792968750000e+003) (73, 1.50000000000000000000e+003) (74, 1.50000000000000000000e+003) (75, -1.50000000000000000000e+003) (0, 4.36601495742797850000e+000) (1, 1.50000000000000000000e+003) (2, 1.50000000000000000000e+003) (3, 7.60866045951843260000e-001) (4, -1.49981481933593750000e+003) (5, 1.50000000000000000000e+003) (6, 1.42788469791412350000e-001) (7, 1.50000000000000000000e+003) (8, 1.50000000000000000000e+003) (9, 1.56588864326477050000e+000) (10, 1.48976367187500000000e+003) (11, 1.50000000000000000000e+003) (12, 8.30802083015441890000e-001) (13, 1.50000000000000000000e+003) (14, 1.50000000000000000000e+003) (15, 1.43340393066406250000e+003) (16, -1.50000000000000000000e+003) (17, 1.50000000000000000000e+003) (18, 4.76670257568359370000e+002) (19, -1.50000000000000000000e+003) (20, 1.50000000000000000000e+003) (21, 2.03240337371826170000e+001) (22, 1.50000000000000000000e+003) (23, 1.50000000000000000000e+003) (24, 1.30239599609375000000e+003) (25, -1.49906396484375000000e+003) (26, 1.50000000000000000000e+003) (27, 3.21324038505554200000e+000) (28, -1.49999707031250000000e+003) (29, 1.50000000000000000000e+003) (30, -1.50000000000000000000e+003) (31, -1.50000000000000000000e+003) (32, 1.50000000000000000000e+003) (33, -1.50000000000000000000e+003) (34, -1.50000000000000000000e+003) (35, 1.50000000000000000000e+003) (36, -1.49993945312500000000e+003) (37, 1.50000000000000000000e+003) (38, 1.50000000000000000000e+003) (39, 5.63921089172363280000e+001) (40, 1.49999951171875000000e+003) (41, 1.50000000000000000000e+003) (42, 2.88553893566131590000e-001) (43, -1.49955004882812500000e+003) (44, -1.38257092285156250000e+003) (45, 5.93327270507812500000e+002) (46, 1.87729934692382810000e+002) (47, 1.50000000000000000000e+003) (48, 1.16613969802856450000e+001) (49, -1.50000000000000000000e+003) (50, 1.50000000000000000000e+003) (51, 1.53216918945312500000e+002) (52, 1.50000000000000000000e+003) (53, 1.50000000000000000000e+003) (54, 6.60556077957153320000e+000) (55, 1.49779296875000000000e+003) (56, 1.50000000000000000000e+003) (57, 3.22551002502441410000e+001) (58, 1.49995605468750000000e+003) (59, -1.50000000000000000000e+003) (60, -4.15156021118164060000e+001) (61, -1.49999731445312500000e+003) (62, 1.50000000000000000000e+003) (63, 1.03597283363342290000e+000) (64, -1.50000000000000000000e+003) (65, 1.50000000000000000000e+003) (66, 7.32623755931854250000e-001) (67, 1.50000000000000000000e+003) (68, 1.50000000000000000000e+003) (69, 8.89054477214813230000e-001) (70, 1.50000000000000000000e+003) (71, 1.49852038574218750000e+003) (72, -4.06246328353881840000e+000) (73, 1.11752416992187500000e+003) (74, 1.48366784667968750000e+003) (75, 1.49964074707031250000e+003) (0, -1.22417680919170380000e-001) (1, -6.86870813369750980000e-002) (2, 8.66799950599670410000e-002) (3, 2.86540478467941280000e-001) (4, -7.48243704438209530000e-002) (5, -7.34822750091552730000e-002) (6, 1.10122203826904300000e-001) (7, 1.37385994195938110000e-001) (8, 1.12770043313503270000e-001) (9, 3.00960168242454530000e-002) (10, 4.04594726860523220000e-002) (11, 1.05858050286769870000e-001) (12, 4.90962006151676180000e-002) (13, 2.38660778850317000000e-002) (14, -5.33594340085983280000e-002) (15, -2.87562876939773560000e-001) (16, -2.35282443463802340000e-003) (17, 1.38921290636062620000e-002) (18, 5.66890649497509000000e-003) (19, -3.61206419765949250000e-002) (20, 1.15576451644301410000e-002) (21, -6.34642392396926880000e-002) (22, 2.92894821614027020000e-002) (23, -2.96639025211334230000e-001) (24, -7.98150002956390380000e-001) (25, 1.11157841980457310000e-001) (26, 1.10918961465358730000e-001) (27, -1.79701387882232670000e-001) (28, -3.71658056974411010000e-002) (29, 1.02890424430370330000e-001) (30, 4.59951087832450870000e-002) (31, -5.97644671797752380000e-002) (32, 3.57464551925659180000e-002) (33, 4.50298011302948000000e-001) (34, -5.12104853987693790000e-002) (35, 1.53757989406585690000e-001) (36, 1.32980549335479740000e+000) (37, 9.81629550457000730000e-001) (38, -8.76609906554222110000e-002) (39, -1.61562490463256840000e+000) (40, 3.91074717044830320000e-001) (41, -2.68612354993820190000e-001) (42, 2.85948455333709720000e-001) (43, -5.39268180727958680000e-002) (44, 2.33365043997764590000e-001) (45, 7.83764794468879700000e-002) (46, -2.86043359665200110000e-004) (47, -1.40196099877357480000e-001) (48, 2.26582974195480350000e-001) (49, 2.05650091171264650000e-001) (50, 4.67232428491115570000e-003) (51, -7.29419151321053500000e-003) (52, 1.71781390905380250000e-001) (53, 1.54445171356201170000e-001) (54, 4.84044671058654790000e-001) (55, 5.98183758556842800000e-002) (56, -1.26391619443893430000e-001) (57, -1.82718366384506230000e-001) (58, 4.88789565861225130000e-002) (59, -5.07528223097324370000e-002) (60, -9.28005054593086240000e-002) (61, 6.68429732322692870000e-002) (62, 1.05070881545543670000e-002) (63, 6.53996020555496220000e-002) (64, 1.86798144131898880000e-002) (65, 8.46991781145334240000e-003) (66, -1.69496923685073850000e-001) (67, -7.96193443238735200000e-003) (68, 1.07975192368030550000e-002) (69, 1.83094546198844910000e-001) (70, 9.30250585079193120000e-002) (71, -2.57339735981076960000e-004) (72, -2.81463891267776490000e-001) (73, 1.73452213406562810000e-001) (74, -5.21411933004856110000e-002) (75, 2.36378431320190430000e+000) (0, 1.49975097656250000000e+003) (1, -1.50000000000000000000e+003) (2, -1.50000000000000000000e+003) (3, 1.49973498535156250000e+003) (4, -1.49986938476562500000e+003) (5, -1.50000000000000000000e+003) (6, 1.50000000000000000000e+003) (7, -1.49999877929687500000e+003) (8, 1.48556738281250000000e+003) (9, 1.49975097656250000000e+003) (10, 1.46994604492187500000e+003) (11, -1.49958007812500000000e+003) (12, 1.49975097656250000000e+003) (13, 1.20885437011718750000e+003) (14, -1.05684826660156250000e+003) (15, -1.09386376953125000000e+003) (16, 1.50000000000000000000e+003) (17, -4.83812774658203120000e+002) (18, -1.23114074707031250000e+003) (19, -1.50000000000000000000e+003) (20, -1.26604699707031250000e+003) (21, 1.50000000000000000000e+003) (22, 1.50000000000000000000e+003) (23, 1.32943090820312500000e+003) (24, 1.50000000000000000000e+003) (25, -1.50000000000000000000e+003) (26, -1.50000000000000000000e+003) (27, 1.50000000000000000000e+003) (28, -1.50000000000000000000e+003) (29, -4.85225860595703120000e+002) (30, 1.50000000000000000000e+003) (31, 1.50000000000000000000e+003) (32, 1.49998498535156250000e+003) (33, 1.50000000000000000000e+003) (34, -1.50000000000000000000e+003) (35, 1.49999597167968750000e+003) (36, 1.50000000000000000000e+003) (37, -1.49977673339843750000e+003) (38, 1.49999841308593750000e+003) (39, 1.50000000000000000000e+003) (40, 3.42059814453125000000e+002) (41, 7.93666259765625000000e+002) (42, 1.50000000000000000000e+003) (43, -1.50000000000000000000e+003) (44, -1.49930017089843750000e+003) (45, 1.50000000000000000000e+003) (46, 1.50000000000000000000e+003) (47, 1.50000000000000000000e+003) (48, 1.50000000000000000000e+003) (49, 1.50000000000000000000e+003) (50, -1.43782055664062500000e+003) (51, 1.50000000000000000000e+003) (52, -1.50000000000000000000e+003) (53, 2.08458892822265620000e+002) (54, 1.49975073242187500000e+003) (55, 1.50000000000000000000e+003) (56, -7.34771728515625000000e+002) (57, 1.49983459472656250000e+003) (58, -1.50000000000000000000e+003) (59, 8.82313903808593750000e+002) (60, 1.50000000000000000000e+003) (61, 1.50000000000000000000e+003) (62, -1.50000000000000000000e+003) (63, 1.50000000000000000000e+003) (64, 1.50000000000000000000e+003) (65, 5.80812255859375000000e+002) (66, 1.50000000000000000000e+003) (67, -1.50000000000000000000e+003) (68, -7.09648803710937500000e+002) (69, 1.49998474121093750000e+003) (70, -1.50000000000000000000e+003) (71, -1.28596817016601560000e+002) (72, 1.50000000000000000000e+003) (73, 1.50000000000000000000e+003) (74, 3.61564605712890620000e+002) (75, 1.50000000000000000000e+003) (0, -1.99348002672195430000e-001) (1, -1.25439763069152830000e-001) (2, 7.81677439808845520000e-002) (3, 1.12348245456814770000e-002) (4, -3.46759974956512450000e-001) (5, -1.13152943551540370000e-001) (6, -1.89386487007141110000e-001) (7, -6.31565868854522710000e-001) (8, -8.66844281554222110000e-002) (9, 7.63720989227294920000e-001) (10, -4.94984507560729980000e-001) (11, 1.88079863786697390000e-001) (12, 3.60249757766723630000e-001) (13, 2.00842678546905520000e-001) (14, -9.53816249966621400000e-002) (15, 3.38878691196441650000e-001) (16, 3.83543968200683590000e-002) (17, 1.90540581941604610000e-001) (18, -2.64885097742080690000e-001) (19, 1.31019979715347290000e-001) (20, -8.74175950884819030000e-002) (21, -3.09678584337234500000e-001) (22, -1.43486946821212770000e-001) (23, 5.01080811023712160000e-001) (24, -1.27622246742248540000e-001) (25, -1.00710570812225340000e-001) (26, -1.59589052200317380000e-001) (27, 2.37543582916259770000e-001) (28, -2.53019630908966060000e-001) (29, -5.53810834884643550000e-001) (30, 3.80639225244522090000e-001) (31, -2.55490243434906010000e-002) (32, -9.47279948741197590000e-003) (33, 5.80004036426544190000e-001) (34, 5.68892836570739750000e-001) (35, -1.16439163684844970000e-001) (36, -2.15405225753784180000e-001) (37, 1.37871754169464110000e+000) (38, 1.41878771781921390000e+000) (39, 2.16386246681213380000e+000) (40, -2.08399668335914610000e-001) (41, -7.48727142810821530000e-001) (42, -1.82019904255867000000e-001) (43, 1.43696650862693790000e-001) (44, -3.59784990549087520000e-001) (45, 7.15589895844459530000e-002) (46, 3.10900509357452390000e-001) (47, -4.65887263417243960000e-002) (48, -4.89555418491363530000e-001) (49, 3.39598178863525390000e-001) (50, -2.50677227973937990000e-001) (51, -1.51113539934158330000e-001) (52, 3.79714936017990110000e-001) (53, 6.86363875865936280000e-001) (54, -2.70377129316329960000e-001) (55, 7.32627511024475100000e-002) (56, -3.33779752254486080000e-001) (57, -2.82138943672180180000e-001) (58, -1.71281456947326660000e-001) (59, -2.76221156120300290000e-001) (60, -1.25474810600280760000e-001) (61, -1.88903272151947020000e-001) (62, 2.58030652999877930000e-001) (63, 2.05573424696922300000e-001) (64, -1.87888115644454960000e-001) (65, -1.22721083462238310000e-001) (66, -2.44781494140625000000e-001) (67, -2.71919727325439450000e-001) (68, 1.66041865944862370000e-001) (69, -2.89328455924987790000e-001) (70, -6.85443460941314700000e-001) (71, -5.79315982758998870000e-002) (72, 8.11000227928161620000e-001) (73, -3.04548770189285280000e-001) (74, -4.70123775303363800000e-002) (75, -7.94531297683715820000e+000) (0, -2.24364176392555240000e-001) (1, -1.40134543180465700000e-001) (2, 1.02167492732405660000e-002) (3, -2.20150977373123170000e-001) (4, -4.19150918722152710000e-001) (5, -6.58077672123909000000e-002) (6, 6.14680171012878420000e-001) (7, -2.46255248785018920000e-001) (8, 8.56205672025680540000e-002) (9, 2.53840535879135130000e-001) (10, 2.60636985301971440000e-001) (11, -1.67069151997566220000e-001) (12, -2.09438562393188480000e-001) (13, 1.31123423576354980000e-001) (14, 1.30313178524374960000e-002) (15, -2.28874459862709050000e-001) (16, 4.04554344713687900000e-002) (17, -1.68249681591987610000e-002) (18, -4.70759067684412000000e-003) (19, -1.02053627371788020000e-001) (20, -4.00572605431079860000e-002) (21, 3.85870561003685000000e-002) (22, 5.25967217981815340000e-002) (23, 4.14799340069293980000e-002) (24, -1.20599925518035890000e-001) (25, -1.35334655642509460000e-001) (26, 3.03377974778413770000e-002) (27, 1.51302188634872440000e-001) (28, -7.61689543724060060000e-002) (29, -1.54852978885173800000e-002) (30, -6.87431246042251590000e-002) (31, -8.33587124943733220000e-002) (32, 3.95956300199031830000e-002) (33, 1.35088825225830080000e+000) (34, 1.51029065251350400000e-001) (35, -1.19548834860324860000e-001) (36, -1.39843821525573730000e-001) (37, 4.27658408880233760000e-001) (38, 1.39089509844779970000e-001) (39, -3.55449467897415160000e-002) (40, -2.50904172658920290000e-001) (41, 6.14923909306526180000e-002) (42, 3.26943039894104000000e-001) (43, -1.06687970459461210000e-001) (44, -8.77807214856147770000e-002) (45, 1.50574907660484310000e-001) (46, -1.46492514759302140000e-002) (47, -3.78655046224594120000e-002) (48, -4.53671663999557500000e-002) (49, 4.91436496376991270000e-002) (50, -7.16699957847595210000e-002) (51, -1.29526719450950620000e-001) (52, -7.02135488390922550000e-002) (53, 2.13118508458137510000e-001) (54, 5.25820195674896240000e-001) (55, -3.19674946367740630000e-002) (56, -8.96639302372932430000e-002) (57, -8.23330655694007870000e-002) (58, 1.06649279594421390000e-001) (59, -4.77134063839912410000e-002) (60, 2.61940956115722660000e-001) (61, 2.00087860226631160000e-001) (62, 4.44266907870769500000e-002) (63, -2.21156090497970580000e-001) (64, 2.03095376491546630000e-001) (65, -2.70732324570417400000e-002) (66, -2.61244386434555050000e-001) (67, -1.36467039585113530000e-001) (68, 1.21792359277606010000e-002) (69, 4.04426187276840210000e-001) (70, 9.84438578598201270000e-004) (71, 1.42078086733818050000e-001) (72, -2.26058959960937500000e-001) (73, 1.49129062891006470000e-001) (74, -7.43679180741310120000e-002) (75, -3.64124298095703130000e+000) (0, 7.56562650203704830000e-002) (1, 2.43184417486190800000e-002) (2, -2.57601797580718990000e-001) (3, 5.80814301967620850000e-001) (4, 3.68258237838745120000e-001) (5, 2.09348469972610470000e-001) (6, -2.05966338515281680000e-001) (7, 5.31221091747283940000e-001) (8, -4.01213496923446660000e-001) (9, -4.58581238985061650000e-001) (10, 2.28798717260360720000e-001) (11, 2.82153636217117310000e-001) (12, -1.11273238435387610000e-002) (13, -5.97137473523616790000e-002) (14, 1.39387827366590500000e-002) (15, 8.80970433354377750000e-003) (16, -1.27376466989517210000e-001) (17, -1.22508801519870760000e-001) (18, 2.51735389232635500000e-001) (19, -1.02505132555961610000e-001) (20, 2.92402207851409910000e-001) (21, 2.82989293336868290000e-001) (22, 1.22564937919378280000e-002) (23, -1.47592827677726750000e-001) (24, -4.35400754213333130000e-002) (25, -9.68732833862304690000e-002) (26, 1.67711693793535230000e-002) (27, 3.42058449983596800000e-001) (28, 5.21753132343292240000e-002) (29, -2.36010327935218810000e-001) (30, 1.17366097867488860000e-001) (31, 8.65840986371040340000e-002) (32, 5.93011558055877690000e-001) (33, 6.14648878574371340000e-001) (34, 1.34154111146926880000e-001) (35, 6.90516769886016850000e-001) (36, -1.53689697384834290000e-001) (37, -2.66163659095764160000e+000) (38, -4.98961895704269410000e-001) (39, 6.58785521984100340000e-001) (40, -7.83247411251068120000e-001) (41, -5.65905213356018070000e-001) (42, 2.89771258831024170000e-001) (43, -8.39493721723556520000e-002) (44, 4.13665384054183960000e-001) (45, 1.08875758945941930000e-001) (46, 1.97827160358428960000e-001) (47, -5.25940060615539550000e-001) (48, 1.76156997680664060000e-001) (49, 3.22106897830963130000e-001) (50, 4.68954265117645260000e-001) (51, 1.31973102688789370000e-001) (52, 2.77146965265274050000e-001) (53, -6.18092954158782960000e-001) (54, -5.61056435108184810000e-001) (55, 1.92665860056877140000e-001) (56, 1.77890583872795100000e-001) (57, 2.25874874740839000000e-002) (58, -1.02323062717914580000e-001) (59, 3.04982066154479980000e-002) (60, -2.57196068763732910000e-001) (61, -1.69644534587860110000e-001) (62, 1.46296024322509770000e-001) (63, -3.20384427905082700000e-002) (64, -2.63100117444992070000e-001) (65, 6.39894828200340270000e-002) (66, 2.82144732773303990000e-003) (67, -1.44732400774955750000e-001) (68, -1.61508489400148390000e-002) (69, 6.53596874326467510000e-003) (70, -1.00551471114158630000e-001) (71, -3.79990279674530030000e-001) (72, 1.82649381458759310000e-002) (73, -1.36717539280653000000e-002) (74, 2.97698885202407840000e-001) (75, -1.47287340164184570000e+001) (0, 1.16869116210937500000e+003) (1, 1.01611517333984370000e+003) (2, 1.50000000000000000000e+003) (3, 1.40130737304687500000e+003) (4, 7.06677703857421870000e+001) (5, 1.50000000000000000000e+003) (6, 1.49206640625000000000e+003) (7, 1.50000000000000000000e+003) (8, 1.50000000000000000000e+003) (9, -1.17148913574218750000e+003) (10, -1.49999450683593750000e+003) (11, 1.50000000000000000000e+003) (12, -1.49952685546875000000e+003) (13, 1.50000000000000000000e+003) (14, 1.50000000000000000000e+003) (15, 1.50000000000000000000e+003) (16, -1.50000000000000000000e+003) (17, 1.50000000000000000000e+003) (18, -1.50000000000000000000e+003) (19, -1.50000000000000000000e+003) (20, 1.50000000000000000000e+003) (21, -1.50000000000000000000e+003) (22, 1.50000000000000000000e+003) (23, 1.50000000000000000000e+003) (24, -1.49950720214843750000e+003) (25, -1.50000000000000000000e+003) (26, 1.50000000000000000000e+003) (27, -1.49969860839843750000e+003) (28, -1.29039074707031250000e+003) (29, 1.50000000000000000000e+003) (30, 1.10010034179687500000e+003) (31, -1.49998925781250000000e+003) (32, 1.50000000000000000000e+003) (33, -1.50000000000000000000e+003) (34, -1.50000000000000000000e+003) (35, 1.50000000000000000000e+003) (36, -1.50000000000000000000e+003) (37, 1.50000000000000000000e+003) (38, 1.50000000000000000000e+003) (39, -1.49952746582031250000e+003) (40, -1.50000000000000000000e+003) (41, 1.50000000000000000000e+003) (42, -1.50000000000000000000e+003) (43, 1.50000000000000000000e+003) (44, 1.50000000000000000000e+003) (45, 6.18115539550781250000e+002) (46, -1.50000000000000000000e+003) (47, 1.50000000000000000000e+003) (48, -1.50000000000000000000e+003) (49, -1.50000000000000000000e+003) (50, 1.50000000000000000000e+003) (51, 1.49947558593750000000e+003) (52, 1.50000000000000000000e+003) (53, 1.50000000000000000000e+003) (54, 1.50000000000000000000e+003) (55, -1.50000000000000000000e+003) (56, 1.50000000000000000000e+003) (57, 2.29437362670898440000e+002) (58, -1.49995068359375000000e+003) (59, -1.50000000000000000000e+003) (60, 9.80077453613281250000e+002) (61, -1.50000000000000000000e+003) (62, 1.50000000000000000000e+003) (63, 1.49667309570312500000e+003) (64, -1.50000000000000000000e+003) (65, 1.50000000000000000000e+003) (66, 9.06040344238281250000e+002) (67, 1.50000000000000000000e+003) (68, 1.50000000000000000000e+003) (69, 1.35082489013671870000e+002) (70, -1.48072058105468750000e+003) (71, 8.47836669921875000000e+002) (72, -1.50000000000000000000e+003) (73, 1.50000000000000000000e+003) (74, -1.50000000000000000000e+003) (75, 1.50000000000000000000e+003) (0, 5.25485947728157040000e-002) (1, -1.73286318778991700000e-001) (2, -3.39395433664321900000e-001) (3, 3.77775728702545170000e-001) (4, 5.95501326024532320000e-002) (5, -3.00091594457626340000e-001) (6, 4.02475595474243160000e-002) (7, 4.04994845390319820000e-001) (8, 1.02957196533679960000e-001) (9, -1.57134667038917540000e-001) (10, 1.61004200577735900000e-001) (11, -7.82905817031860350000e-001) (12, 3.83345894515514370000e-002) (13, 9.70743149518966670000e-002) (14, 7.23221659660339360000e-001) (15, 5.38118034601211550000e-002) (16, 1.00875928997993470000e-001) (17, 4.27128642797470090000e-001) (18, 7.06857368350028990000e-002) (19, -2.88020689040422440000e-002) (20, -2.20828503370285030000e-001) (21, 5.27496993541717530000e-001) (22, -6.31011947989463810000e-002) (23, 1.82878047227859500000e-001) (24, -1.73192992806434630000e-001) (25, 2.12631568312644960000e-001) (26, -2.70152151584625240000e-001) (27, 7.11504295468330380000e-002) (28, 1.82959452271461490000e-001) (29, -4.59468632936477660000e-001) (30, 2.16123417019844060000e-001) (31, 9.60077270865440370000e-002) (32, -3.71890477836132050000e-002) (33, 4.78403121232986450000e-001) (34, 4.17970925569534300000e-001) (35, 1.41950458288192750000e-001) (36, 1.66874885559082030000e-001) (37, 1.03870642185211180000e+000) (38, 8.49575638771057130000e-001) (39, 1.50362953543663020000e-001) (40, -1.07681080698966980000e-001) (41, -6.94395899772644040000e-001) (42, 1.76024302840232850000e-001) (43, -1.47881790995597840000e-001) (44, 7.45360434055328370000e-001) (45, 7.71053805947303770000e-002) (46, -7.61769711971282960000e-002) (47, -2.99743682146072390000e-001) (48, 3.54441016912460330000e-001) (49, 4.17677938938140870000e-001) (50, -3.02140355110168460000e-001) (51, -1.91619291901588440000e-001) (52, 5.93643367290496830000e-001) (53, -2.14349821209907530000e-001) (54, 1.44187480211257930000e-001) (55, 1.94247335195541380000e-001) (56, -1.11520178616046910000e-001) (57, -2.03052788972854610000e-001) (58, 2.47542589902877810000e-001) (59, -1.96003884077072140000e-001) (60, 8.22627097368240360000e-002) (61, 1.19419515132904050000e-001) (62, 1.22098423540592190000e-001) (63, -9.57715325057506560000e-003) (64, 3.75886261463165280000e-002) (65, 1.07136227190494540000e-001) (66, -3.40452715754508970000e-002) (67, -8.01601186394691470000e-002) (68, 5.06663084030151370000e-001) (69, 1.76469814032316210000e-002) (70, 7.25459828972816470000e-002) (71, -4.14359003305435180000e-001) (72, -3.05854827165603640000e-001) (73, 1.96642633527517320000e-002) (74, 4.64312106370925900000e-001) (75, -1.10992364883422850000e+001) (0, 5.40517761230468750000e+002) (1, 8.28672485351562500000e+002) (2, -1.50000000000000000000e+003) (3, 4.61760711669921870000e+002) (4, -1.49999987792968750000e+003) (5, -1.50000000000000000000e+003) (6, -1.07075524902343750000e+003) (7, -1.50000000000000000000e+003) (8, -1.50000000000000000000e+003) (9, 1.90218639373779300000e+001) (10, 1.49678820800781250000e+003) (11, -1.50000000000000000000e+003) (12, -4.21881866455078130000e+001) (13, -1.49998706054687500000e+003) (14, -1.50000000000000000000e+003) (15, 5.24440002441406250000e+002) (16, 1.50000000000000000000e+003) (17, -1.50000000000000000000e+003) (18, 1.50000000000000000000e+003) (19, 1.50000000000000000000e+003) (20, -1.50000000000000000000e+003) (21, -1.49087341308593750000e+003) (22, -1.50000000000000000000e+003) (23, -1.50000000000000000000e+003) (24, -1.50000000000000000000e+003) (25, 1.50000000000000000000e+003) (26, -1.50000000000000000000e+003) (27, -1.48655603027343750000e+003) (28, 1.50000000000000000000e+003) (29, 7.86443481445312500000e+002) (30, 1.49750134277343750000e+003) (31, 1.50000000000000000000e+003) (32, -1.50000000000000000000e+003) (33, 1.47283935546875000000e+003) (34, 1.50000000000000000000e+003) (35, -1.50000000000000000000e+003) (36, -1.28449203491210940000e+002) (37, -1.50000000000000000000e+003) (38, -1.50000000000000000000e+003) (39, 1.13964103698730470000e+002) (40, -1.50000000000000000000e+003) (41, -1.50000000000000000000e+003) (42, -9.51356628417968750000e+002) (43, 1.48446630859375000000e+003) (44, 6.33673667907714840000e+001) (45, 1.49145178222656250000e+003) (46, 1.49996862792968750000e+003) (47, -1.50000000000000000000e+003) (48, -6.86682739257812500000e+002) (49, 1.50000000000000000000e+003) (50, -1.50000000000000000000e+003) (51, -1.49906738281250000000e+003) (52, -1.50000000000000000000e+003) (53, -1.50000000000000000000e+003) (54, -1.50000000000000000000e+003) (55, 1.50000000000000000000e+003) (56, -1.49844262695312500000e+003) (57, -1.03357324218750000000e+003) (58, 1.50000000000000000000e+003) (59, 1.49996215820312500000e+003) (60, 1.34111254882812500000e+003) (61, 1.50000000000000000000e+003) (62, -1.50000000000000000000e+003) (63, -2.99445770263671880000e+002) (64, 1.50000000000000000000e+003) (65, -1.50000000000000000000e+003) (66, -9.59596252441406250000e+001) (67, -1.50000000000000000000e+003) (68, -1.50000000000000000000e+003) (69, 4.65177307128906250000e+001) (70, 7.64229812622070310000e+001) (71, 1.49939929199218750000e+003) (72, -2.17479064941406250000e+002) (73, 1.49772839355468750000e+003) (74, -1.49898913574218750000e+003) (75, 1.49913415527343750000e+003) (0, -8.55145645141601560000e+001) (1, -1.50000000000000000000e+003) (2, 1.50000000000000000000e+003) (3, -1.07425200939178470000e+000) (4, 1.50000000000000000000e+003) (5, 1.50000000000000000000e+003) (6, 1.65108159184455870000e-001) (7, 1.50000000000000000000e+003) (8, 8.72470275878906250000e+002) (9, 4.25885581970214840000e+000) (10, 1.50000000000000000000e+003) (11, -1.49998889160156250000e+003) (12, 1.38786244392395020000e+000) (13, 1.49999230957031250000e+003) (14, -1.47293273925781250000e+003) (15, -2.48012313842773440000e+001) (16, -1.50000000000000000000e+003) (17, -1.48397424316406250000e+003) (18, -1.50000000000000000000e+003) (19, -1.50000000000000000000e+003) (20, 1.50000000000000000000e+003) (21, 1.51351317763328550000e-001) (22, 1.50000000000000000000e+003) (23, 1.50000000000000000000e+003) (24, 9.24108825683593750000e+002) (25, 1.50000000000000000000e+003) (26, -1.48947753906250000000e+003) (27, 1.73004646301269530000e+001) (28, -1.50000000000000000000e+003) (29, -1.49997412109375000000e+003) (30, -1.50000000000000000000e+003) (31, -1.50000000000000000000e+003) (32, 1.50000000000000000000e+003) (33, -1.46105139160156250000e+003) (34, -1.49967456054687500000e+003) (35, 1.50000000000000000000e+003) (36, 1.56589850783348080000e-001) (37, 1.50000000000000000000e+003) (38, 1.50000000000000000000e+003) (39, 1.50000000000000000000e+003) (40, -1.50000000000000000000e+003) (41, -1.49995214843750000000e+003) (42, 1.43555313110351560000e+002) (43, -1.49982385253906250000e+003) (44, -1.49976489257812500000e+003) (45, -4.87793445587158200000e+000) (46, -1.50000000000000000000e+003) (47, 1.50000000000000000000e+003) (48, -1.66780090332031250000e+001) (49, 1.42383880615234370000e+002) (50, 1.50000000000000000000e+003) (51, 9.70303192734718320000e-002) (52, 1.50000000000000000000e+003) (53, 1.50000000000000000000e+003) (54, 1.50000000000000000000e+003) (55, -1.50000000000000000000e+003) (56, 1.50000000000000000000e+003) (57, 1.50000000000000000000e+003) (58, -1.50000000000000000000e+003) (59, -1.09770861816406250000e+003) (60, -5.82835626602172850000e+000) (61, -1.50000000000000000000e+003) (62, 1.50000000000000000000e+003) (63, -2.21266317367553710000e+000) (64, 1.50000000000000000000e+003) (65, 1.50000000000000000000e+003) (66, 4.02983993291854860000e-001) (67, 1.50000000000000000000e+003) (68, 1.50000000000000000000e+003) (69, 9.73707389831542970000e+000) (70, -1.50000000000000000000e+003) (71, 1.50000000000000000000e+003) (72, 1.06733474731445310000e+001) (73, -1.49963842773437500000e+003) (74, 1.50000000000000000000e+003) (75, -3.88587474822998050000e+000) (0, -1.15607850253582000000e-001) (1, 3.06187998503446580000e-002) (2, -4.29022222757339480000e-001) (3, 1.77432060241699220000e-001) (4, -2.79181867837905880000e-001) (5, -2.06975483894348140000e+000) (6, 9.81226623058319090000e-001) (7, 3.33214342594146730000e-001) (8, 2.06809592247009280000e+000) (9, 3.70950728654861450000e-001) (10, 9.35019016265869140000e-001) (11, -6.05613112449646000000e-001) (12, -1.04325819015502930000e+000) (13, 2.57726192474365230000e-001) (14, 7.30476737022399900000e-001) (15, -6.02524340152740480000e-001) (16, -1.09879031777381900000e-001) (17, 1.16854679584503170000e+000) (18, 2.50647366046905520000e-001) (19, -4.68082636594772340000e-001) (20, 9.61447298526763920000e-001) (21, -2.94241636991500850000e-001) (22, -9.41513836383819580000e-001) (23, -7.80173182487487790000e-001) (24, 7.36586630344390870000e-001) (25, -3.37380021810531620000e-001) (26, -6.94185554981231690000e-001) (27, 4.37522232532501220000e-001) (28, 8.22823047637939450000e-002) (29, 3.92125248908996580000e-001) (30, -4.11689311265945430000e-001) (31, 1.43542528152465820000e-001) (32, 8.04761469364166260000e-001) (33, 3.22632730007171630000e-001) (34, -4.07878682017326350000e-002) (35, 6.42604529857635500000e-001) (36, -3.45730334520339970000e-001) (37, -2.85899698734283450000e-001) (38, -1.07357394695281980000e+000) (39, 5.20161724090576170000e+000) (40, 2.07656455039978030000e+000) (41, 1.91685295104980470000e+000) (42, -7.10235774517059330000e-001) (43, 2.67897516489028930000e-001) (44, -7.86584198474884030000e-001) (45, 7.19469487667083740000e-002) (46, 4.15314845740795140000e-002) (47, -7.83881127834320070000e-001) (48, 4.70202118158340450000e-001) (49, 3.21881592273712160000e-001) (50, 1.36672317981719970000e+000) (51, 4.59629237651824950000e-001) (52, 2.64988511800765990000e-001) (53, 3.41080307960510250000e-001) (54, 4.15185093879699710000e-001) (55, 1.42205500602722170000e+000) (56, 4.44540791213512420000e-002) (57, -8.04603576660156250000e-001) (58, 6.43545985221862790000e-001) (59, 4.04477477073669430000e-001) (60, -1.00172556936740880000e-001) (61, 1.95158436894416810000e-001) (62, 1.12862817943096160000e-001) (63, 9.91256237030029300000e-002) (64, 5.10542809963226320000e-001) (65, -1.42104160785675050000e+000) (66, -1.60796642303466800000e-001) (67, 2.01301828026771550000e-001) (68, 1.10409307479858400000e+000) (69, 2.85676449537277220000e-001) (70, 3.42720687389373780000e-001) (71, 2.29999855160713200000e-001) (72, -8.67196023464202880000e-001) (73, 4.56403881311416630000e-001) (74, -3.23372602462768550000e-001) (75, 1.95061409473419190000e+000) (0, -1.97634413838386540000e-001) (1, 1.50000000000000000000e+003) (2, 1.50000000000000000000e+003) (3, -1.25852668285369870000e+000) (4, -1.50000000000000000000e+003) (5, 1.50000000000000000000e+003) (6, 4.41495150327682500000e-001) (7, 1.50000000000000000000e+003) (8, 1.50000000000000000000e+003) (9, 8.84607255458831790000e-001) (10, -1.49919763183593750000e+003) (11, 1.50000000000000000000e+003) (12, 7.16560721397399900000e-001) (13, 1.50000000000000000000e+003) (14, -1.47682226562500000000e+003) (15, -1.57577741146087650000e+000) (16, -1.49999047851562500000e+003) (17, 1.50000000000000000000e+003) (18, -1.50000000000000000000e+003) (19, -1.50000000000000000000e+003) (20, 1.50000000000000000000e+003) (21, -8.51345136761665340000e-002) (22, 1.50000000000000000000e+003) (23, 1.50000000000000000000e+003) (24, 1.50000000000000000000e+003) (25, -1.50000000000000000000e+003) (26, 1.50000000000000000000e+003) (27, 1.30098861694335940000e+002) (28, -1.30724987792968750000e+003) (29, -1.49994506835937500000e+003) (30, -9.35856401920318600000e-002) (31, -1.50000000000000000000e+003) (32, 1.50000000000000000000e+003) (33, -1.50000000000000000000e+003) (34, -1.50000000000000000000e+003) (35, 1.50000000000000000000e+003) (36, -7.73880157470703120000e+001) (37, 1.50000000000000000000e+003) (38, 1.50000000000000000000e+003) (39, 1.50000000000000000000e+003) (40, -1.37976416015625000000e+003) (41, 1.50000000000000000000e+003) (42, 7.69964993000030520000e-001) (43, 3.01345123291015620000e+002) (44, -1.19684790039062500000e+003) (45, 2.15311553329229350000e-002) (46, -1.47958190917968750000e+003) (47, 1.50000000000000000000e+003) (48, -1.50000000000000000000e+003) (49, -1.50000000000000000000e+003) (50, 1.50000000000000000000e+003) (51, 8.16386640071868900000e-001) (52, 1.50000000000000000000e+003) (53, 1.50000000000000000000e+003) (54, 1.50000000000000000000e+003) (55, -1.49999975585937500000e+003) (56, 1.50000000000000000000e+003) (57, 7.16415786743164060000e+000) (58, -1.49994958496093750000e+003) (59, 5.57117640972137450000e-001) (60, 2.25878551602363590000e-001) (61, -1.50000000000000000000e+003) (62, 1.50000000000000000000e+003) (63, -5.66021194458007810000e+001) (64, -1.07823864746093750000e+003) (65, 1.50000000000000000000e+003) (66, 7.85938054323196410000e-002) (67, 1.50000000000000000000e+003) (68, 1.50000000000000000000e+003) (69, 2.49137759208679200000e+000) (70, 1.50000000000000000000e+003) (71, 1.39317810058593750000e+003) (72, 4.66439199447631840000e+000) (73, -1.49153295898437500000e+003) (74, 1.50000000000000000000e+003) (75, 1.50000000000000000000e+003) (0, -1.43311515450477600000e-001) (1, -2.42033019661903380000e-001) (2, -4.71013486385345460000e-002) (3, 1.65087692439556120000e-002) (4, -2.92249828577041630000e-001) (5, 1.86223998665809630000e-001) (6, 1.34432822465896610000e-001) (7, -1.77840739488601680000e-001) (8, -1.00447684526443480000e-001) (9, -3.30740183591842650000e-001) (10, 3.02694261074066160000e-001) (11, -1.53408885002136230000e-001) (12, -2.26474002003669740000e-001) (13, 6.15601018071174620000e-002) (14, 8.01938250660896300000e-002) (15, -2.03937456011772160000e-001) (16, 1.70797314494848250000e-002) (17, -3.54010686278343200000e-002) (18, 9.75987911224365230000e-001) (19, 2.50034451484680180000e-001) (20, 2.94923752546310420000e-001) (21, 1.03919997811317440000e-001) (22, 5.09233593940734860000e-001) (23, 4.16897892951965330000e-001) (24, 1.21712768077850340000e+000) (25, -2.89284378290176390000e-001) (26, -2.16165706515312190000e-001) (27, 3.27592939138412480000e-002) (28, -2.47210171073675160000e-002) (29, 2.14677706360816960000e-001) (30, 1.92536085844039920000e-001) (31, 8.24345275759696960000e-003) (32, 5.93075938522815700000e-002) (33, 5.86359202861785890000e-001) (34, 5.26018552482128140000e-002) (35, 1.74731507897377010000e-001) (36, 9.66207146644592290000e-001) (37, 1.38907623291015630000e+000) (38, -4.17949706315994260000e-001) (39, -1.37282335758209230000e+000) (40, -3.16592693328857420000e-001) (41, -3.73653650283813480000e-001) (42, 6.77552461624145510000e-001) (43, -2.27410763502120970000e-001) (44, -1.91720873117446900000e-001) (45, -1.43529653549194340000e-001) (46, -4.19709682464599610000e-002) (47, -1.97725772857666020000e-001) (48, -6.87202513217926030000e-002) (49, -1.35069593787193300000e-001) (50, -5.12339621782302860000e-002) (51, 3.30898821353912350000e-001) (52, -8.25356245040893550000e-002) (53, 1.02703496813774110000e-001) (54, -6.37417376041412350000e-001) (55, 2.64007598161697390000e-001) (56, -1.81105285882949830000e-001) (57, -2.05075055360794070000e-001) (58, 2.12757065892219540000e-002) (59, 4.33726578950881960000e-001) (60, -1.41520336270332340000e-001) (61, -2.11444906890392300000e-002) (62, 8.87940600514411930000e-002) (63, -4.96125780045986180000e-004) (64, -7.38625507801771160000e-003) (65, 7.86963403224945070000e-002) (66, -2.12292358279228210000e-001) (67, -1.86889439821243290000e-001) (68, -1.09029762446880340000e-001) (69, 5.35098552703857420000e-001) (70, -1.42798975110054020000e-001) (71, 1.52988508343696590000e-001) (72, -5.14371395111083980000e-002) (73, 8.68583098053932190000e-002) (74, -1.73061653971672060000e-001) (75, -2.13196411728858950000e-001) (0, 1.50000000000000000000e+003) (1, -1.50000000000000000000e+003) (2, -1.50000000000000000000e+003) (3, 1.50000000000000000000e+003) (4, 1.50000000000000000000e+003) (5, -1.50000000000000000000e+003) (6, 1.50000000000000000000e+003) (7, -1.50000000000000000000e+003) (8, -1.50000000000000000000e+003) (9, 1.50000000000000000000e+003) (10, -1.50000000000000000000e+003) (11, -5.65972778320312500000e+002) (12, -1.47337365722656250000e+003) (13, -1.50000000000000000000e+003) (14, 1.50000000000000000000e+003) (15, 1.50000000000000000000e+003) (16, 1.46411999511718750000e+003) (17, -1.27622766113281250000e+003) (18, 1.50000000000000000000e+003) (19, 1.50000000000000000000e+003) (20, -1.48880261230468750000e+003) (21, 1.50000000000000000000e+003) (22, -1.50000000000000000000e+003) (23, -1.49533435058593750000e+003) (24, 6.80455749511718750000e+002) (25, -1.50000000000000000000e+003) (26, -1.50000000000000000000e+003) (27, 1.49816027832031250000e+003) (28, 1.50000000000000000000e+003) (29, 1.50000000000000000000e+003) (30, 1.50000000000000000000e+003) (31, -1.50000000000000000000e+003) (32, 1.50000000000000000000e+003) (33, 1.50000000000000000000e+003) (34, 1.50000000000000000000e+003) (35, 1.49969238281250000000e+003) (36, 1.50000000000000000000e+003) (37, 1.50000000000000000000e+003) (38, 1.50000000000000000000e+003) (39, 1.50000000000000000000e+003) (40, -1.50000000000000000000e+003) (41, -1.50000000000000000000e+003) (42, 1.50000000000000000000e+003) (43, -1.50000000000000000000e+003) (44, 2.93322692871093750000e+002) (45, 1.50000000000000000000e+003) (46, -1.50000000000000000000e+003) (47, -1.50000000000000000000e+003) (48, 1.50000000000000000000e+003) (49, 1.50000000000000000000e+003) (50, 4.75423126220703120000e+002) (51, 1.50000000000000000000e+003) (52, 1.50000000000000000000e+003) (53, -5.29671508789062500000e+002) (54, 1.50000000000000000000e+003) (55, -1.50000000000000000000e+003) (56, -1.50000000000000000000e+003) (57, -1.49650097656250000000e+003) (58, -1.50000000000000000000e+003) (59, -1.50000000000000000000e+003) (60, 1.50000000000000000000e+003) (61, -1.50000000000000000000e+003) (62, -1.50000000000000000000e+003) (63, 1.50000000000000000000e+003) (64, 1.50000000000000000000e+003) (65, -1.45615295410156250000e+003) (66, 1.50000000000000000000e+003) (67, -1.50000000000000000000e+003) (68, -1.41506164550781250000e+003) (69, -9.05943298339843750000e+002) (70, -1.50000000000000000000e+003) (71, 1.50000000000000000000e+003) (72, 1.50000000000000000000e+003) (73, -1.50000000000000000000e+003) (74, -1.50000000000000000000e+003) (75, 1.50000000000000000000e+003) (0, 1.08060336112976070000e+000) (1, -1.07648742198944090000e+000) (2, -1.31232345104217530000e+000) (3, 1.26706910133361820000e+000) (4, -1.82591700553894040000e+000) (5, -4.93210673332214360000e-001) (6, 8.55381786823272710000e-001) (7, 7.64803029596805570000e-003) (8, 4.88419622182846070000e-001) (9, 9.85103368759155270000e-001) (10, 6.97458863258361820000e-001) (11, -1.22007417678833010000e+000) (12, -5.58493852615356450000e-001) (13, -1.22868463397026060000e-001) (14, 4.79691863059997560000e-001) (15, 1.22409272193908690000e+000) (16, 8.59110713005065920000e-001) (17, -1.32712244987487790000e+000) (18, 1.63163137435913090000e+000) (19, 8.30315291881561280000e-001) (20, -6.82043433189392090000e-001) (21, 1.41912341117858890000e+000) (22, -4.94171333312988280000e+000) (23, -6.69484496116638180000e-001) (24, 1.34967637062072750000e+000) (25, -1.30416977405548100000e+000) (26, 1.37130081653594970000e-001) (27, 8.70629131793975830000e-001) (28, -2.82571524381637570000e-001) (29, -4.41444426774978640000e-001) (30, -2.73638629913330080000e+000) (31, 3.51230680942535400000e-001) (32, -2.84920978546142580000e+000) (33, 1.81657540798187260000e+000) (34, -1.12606513500213620000e+000) (35, 9.22913491725921630000e-001) (36, 1.08326733112335210000e+000) (37, -6.36195778846740720000e-001) (38, 1.52630853652954100000e+000) (39, 8.04003894329071040000e-001) (40, -2.33548069000244140000e+000) (41, -1.86830675601959230000e+000) (42, 7.64550089836120610000e-001) (43, -1.00037956237792970000e+000) (44, 1.43190002441406250000e+000) (45, 5.34410551190376280000e-002) (46, -3.20552617311477660000e-001) (47, -1.22817707061767580000e+000) (48, 1.39268624782562260000e+000) (49, -2.46331644058227540000e+000) (50, -5.30833661556243900000e-001) (51, 9.05822992324829100000e-001) (52, 1.93881213665008540000e+000) (53, 7.57886409759521480000e-001) (54, -5.73196075856685640000e-002) (55, 8.33937406539916990000e-001) (56, -2.05041006207466130000e-001) (57, -3.64413410425186160000e-001) (58, 2.96031504869461060000e-001) (59, 5.69841146469116210000e-001) (60, -4.78351339697837830000e-002) (61, 4.47112768888473510000e-001) (62, 6.93563282489776610000e-001) (63, 3.58973294496536250000e-001) (64, 4.64573770761489870000e-001) (65, -1.28389966487884520000e+000) (66, 3.76921966671943660000e-002) (67, -7.93736398220062260000e-001) (68, -9.97433602809906010000e-001) (69, 7.31494307518005370000e-001) (70, 5.79083263874053960000e-001) (71, 5.45155465602874760000e-001) (72, 1.73699736595153810000e-001) (73, -3.30613195896148680000e-001) (74, 1.61851063370704650000e-001) (75, 5.16657495498657230000e+000) (0, 6.60177052021026610000e-001) (1, -2.55157089233398440000e+000) (2, 6.30569815635681150000e-001) (3, 3.41252952814102170000e-001) (4, 8.44980955123901370000e-001) (5, -2.40443557500839230000e-001) (6, 9.64978039264678960000e-001) (7, 2.63762146234512330000e-001) (8, -7.58384704589843750000e-001) (9, 3.22813868522644040000e-001) (10, -3.78143572807312010000e+000) (11, -3.72448563575744630000e+000) (12, -1.39747726917266850000e+000) (13, -5.34601402282714840000e+000) (14, -1.82906341552734370000e+000) (15, 1.00931692123413090000e+000) (16, -5.80425024032592770000e-001) (17, -3.23312115669250490000e+000) (18, 1.04660618305206300000e+000) (19, 6.79003238677978520000e-001) (20, -7.93022274971008300000e-001) (21, 9.42719101905822750000e-001) (22, -2.56574096679687500000e+001) (23, -1.86108338832855220000e+000) (24, 1.10744142532348630000e+000) (25, 3.43378853797912600000e+000) (26, -5.89129924774169920000e-001) (27, 7.62117087841033940000e-001) (28, 5.74406003952026370000e+000) (29, 2.70715618133544920000e+000) (30, 1.94067990779876710000e+000) (31, 4.86624431610107420000e+000) (32, -1.19301545619964600000e+000) (33, 2.64820432662963870000e+000) (34, 2.02603607177734370000e+001) (35, 1.25776970386505130000e+000) (36, 1.08489692211151120000e+000) (37, -1.17959051132202150000e+001) (38, 8.38825583457946780000e-001) (39, 1.25709486007690430000e+000) (40, 4.45609712600708010000e+000) (41, -5.09087085723876950000e+000) (42, 6.77541673183441160000e-001) (43, -1.06367993354797360000e+000) (44, 8.66982364654541020000e+000) (45, 7.06017792224884030000e-001) (46, -4.23679447174072270000e+000) (47, -1.53214812278747560000e+000) (48, 3.85181367397308350000e-001) (49, -6.04031562805175780000e+000) (50, 9.83016371726989750000e-001) (51, 1.20520544052124020000e+000) (52, -2.12412071228027340000e+000) (53, -2.49307847023010250000e+000) (54, -2.94183671474456790000e-001) (55, 3.46857857704162600000e+000) (56, -1.45661509037017820000e+000) (57, 2.03459441661834720000e-001) (58, 1.46551978588104250000e+000) (59, 3.45260858535766600000e+000) (60, 4.79563355445861820000e-001) (61, 3.36357021331787110000e+000) (62, -6.72668123245239260000e+000) (63, 3.60360503196716310000e-001) (64, 7.16819047927856450000e-001) (65, -1.16393052041530610000e-001) (66, 2.94685333967208860000e-001) (67, -1.87056466937065120000e-001) (68, 1.22731339931488040000e+000) (69, 7.86653399467468260000e-001) (70, -2.53227519989013670000e+000) (71, 1.87037003040313720000e+000) (72, 2.68494695425033570000e-001) (73, 1.47506856918334960000e+000) (74, -3.34631055593490600000e-001) (75, 7.27145233154296870000e+001) (0, 4.78864371776580810000e-001) (1, 2.86229014396667480000e-001) (2, 3.89567673206329350000e-001) (3, -2.39096686244010930000e-001) (4, 3.64732921123504640000e-001) (5, -5.93815624713897710000e-001) (6, -3.42350900173187260000e-001) (7, -2.00408846139907840000e-001) (8, 9.37864109873771670000e-002) (9, -2.50470072031021120000e-001) (10, 5.02385981380939480000e-002) (11, 6.96417152881622310000e-001) (12, 1.60802319645881650000e-001) (13, 1.68060794472694400000e-001) (14, -2.45688617229461670000e-001) (15, 1.68009325861930850000e-001) (16, 4.45569604635238650000e-002) (17, -4.31647561490535740000e-002) (18, 1.98088474571704860000e-002) (19, 2.60719776153564450000e-001) (20, -1.36106520891189580000e-001) (21, 4.28021103143692020000e-002) (22, 5.92221498489379880000e-001) (23, 5.33768475055694580000e-001) (24, 1.84330153465271000000e+000) (25, -6.21003508567810060000e-001) (26, -8.61079454421997070000e-001) (27, 9.73781291395425800000e-003) (28, -2.60155737400054930000e-001) (29, -5.81361413002014160000e-001) (30, -1.18812493979930880000e-001) (31, 3.14730703830718990000e-002) (32, 1.14777229726314540000e-001) (33, 5.32930195331573490000e-002) (34, -4.98199313879013060000e-002) (35, 4.37839746475219730000e-001) (36, 1.39553830027580260000e-001) (37, 6.06185317039489750000e-001) (38, 9.17101562023162840000e-001) (39, -6.59426569938659670000e-001) (40, -1.92488551139831540000e+000) (41, -1.30853903293609620000e+000) (42, 8.62516701221466060000e-001) (43, -6.58006891608238220000e-002) (44, 1.23734784126281740000e+000) (45, -1.95842742919921880000e-001) (46, -1.06595605611801150000e-001) (47, -1.26706704497337340000e-001) (48, -1.22112430632114410000e-001) (49, -3.23025621473789220000e-002) (50, 3.47249358892440800000e-002) (51, -4.07888442277908330000e-001) (52, -2.09291905164718630000e-001) (53, -6.86113655567169190000e-001) (54, -4.26683217287063600000e-001) (55, 8.27962577342987060000e-001) (56, 3.47317248582839970000e-001) (57, -5.90807557106018070000e-001) (58, 1.33531823754310610000e-001) (59, -1.65442947763949630000e-003) (60, 8.31353757530450820000e-003) (61, -8.92280861735343930000e-002) (62, -6.49290233850479130000e-002) (63, -1.22953571379184720000e-001) (64, -2.31343239545822140000e-001) (65, 8.18363390862941740000e-003) (66, 6.91328048706054690000e-001) (67, 2.08450943231582640000e-001) (68, 1.58411890268325810000e-001) (69, -6.54084324836730960000e-001) (70, -2.02049911022186280000e-002) (71, -2.24544510245323180000e-001) (72, 3.98041397333145140000e-001) (73, -3.67118805646896360000e-001) (74, 1.35004550218582150000e-001) (75, -8.89951610565185550000e+000) (0, 4.60215777158737180000e-001) (1, 2.11851626634597780000e-001) (2, 3.15199881792068480000e-001) (3, 4.23822969198226930000e-001) (4, 4.49355036020278930000e-001) (5, 3.70818674564361570000e-001) (6, -3.82169008255004880000e-001) (7, 4.91798818111419680000e-001) (8, -2.50109340995550160000e-002) (9, -1.99260398745536800000e-001) (10, -2.04554244875907900000e-001) (11, 1.15464158356189730000e-001) (12, 9.63798314332962040000e-002) (13, -6.20673820376396180000e-002) (14, 2.17119082808494570000e-001) (15, -2.82175600528717040000e-001) (16, 9.68559980392456050000e-002) (17, 1.05381321907043460000e+000) (18, -3.57011765241622920000e-001) (19, -2.78409272432327270000e-001) (20, -7.32068598270416260000e-001) (21, 5.04586175084114070000e-002) (22, -2.59438067674636840000e-001) (23, -1.44174158573150630000e-001) (24, 4.18932020664215090000e-001) (25, -6.25521242618560790000e-002) (26, 4.49509561061859130000e-001) (27, 1.17861151695251460000e-001) (28, -9.35020111501216890000e-003) (29, -6.81484937667846680000e-001) (30, 5.10734915733337400000e-001) (31, 1.92255154252052310000e-001) (32, -1.01601159572601320000e+000) (33, 8.26077938079833980000e-001) (34, 8.55693399906158450000e-001) (35, -2.15887520462274550000e-002) (36, -1.82045984268188480000e+000) (37, -4.65434342622756960000e-001) (38, -2.20013663172721860000e-001) (39, 2.92451024055480960000e+000) (40, -1.84884405136108400000e+000) (41, 6.55372202396392820000e-001) (42, 5.27717411518096920000e-001) (43, -4.45047050714492800000e-001) (44, 4.00511652231216430000e-001) (45, -3.06912392377853390000e-001) (46, -1.07243366539478300000e-001) (47, 4.37715232372283940000e-001) (48, -3.10118585824966430000e-001) (49, -2.80916631221771240000e-001) (50, -1.72485277056694030000e-001) (51, 3.24091494083404540000e-001) (52, -1.68922729790210720000e-002) (53, -1.68249551206827160000e-002) (54, 9.73205864429473880000e-002) (55, -1.04117520153522490000e-001) (56, -1.69429928064346310000e-001) (57, -5.44915795326232910000e-002) (58, 1.05685599148273470000e-001) (59, -1.04151153564453120000e+000) (60, -1.84299811720848080000e-001) (61, 1.40120640397071840000e-001) (62, -6.17290362715721130000e-002) (63, 1.84849798679351810000e-002) (64, -9.87405776977539060000e-002) (65, 4.74902279675006870000e-002) (66, -2.75826454162597660000e-001) (67, -2.43621155619621280000e-001) (68, 3.07358533143997190000e-001) (69, 2.80868172645568850000e-001) (70, -1.27994328737258910000e-001) (71, -5.28665363788604740000e-001) (72, 2.86644011735916140000e-001) (73, 1.78217694163322450000e-001) (74, 4.19639945030212400000e-001) (75, -1.09526653289794920000e+001) (76, 1.02507305145263670000e+000) (77, 8.01484704017639160000e-001) (78, -7.28672027587890630000e-001) (79, 8.54032695293426510000e-001) (80, -4.27847206592559810000e-001) (81, 5.54995357990264890000e-001) (82, 2.07249879837036130000e-001) (83, -6.05279028415679930000e-001) (84, -2.09921866655349730000e-001) (85, 6.25334262847900390000e-001) (86, -2.57150322198867800000e-001) (87, 5.86267746984958650000e-003) (88, -4.16321367025375370000e-001) (89, -2.78882920742034910000e-001) (90, 1.40696644783020020000e+000) (91, 4.12769889831542970000e+000) (92, 1.33792984485626220000e+000) (93, 1.03701171875000000000e+001) (94, 1.50681421160697940000e-001) (95, 3.34359645843505860000e-001) (96, 1.56069755554199220000e-001) (97, 4.16065067052841190000e-001) (98, 1.33565855026245120000e+000) (99, 3.00429731607437130000e-001) (100, 1.47627556324005130000e+000) (101, 9.23458814620971680000e-001) (102, 8.79233896732330320000e-001) (103, -3.57937872409820560000e-001) (104, 1.11916494369506840000e+000) (105, 1.72698605060577390000e+000) (106, -1.12068220973014830000e-001) (107, 7.61016607284545900000e-001) (108, -7.80216529965400700000e-002) (109, 1.10178422927856450000e+000) (110, 1.06392490863800050000e+000) (111, 7.16278282925486560000e-003) (112, 5.90897440910339360000e-001) (113, 1.35287892818450930000e+000) (114, 1.67244061827659610000e-001) (115, -4.69005882740020750000e-001) (116, 2.72981584072113040000e-001) (117, -1.26838058233261110000e-001) (118, 2.50846803188323970000e-001) (119, 6.07564812526106830000e-003) (120, 1.38725912570953370000e+000) (121, -2.75470048189163210000e-001) (122, 1.19046950340271000000e+000) (123, 1.00667166709899900000e+000) (124, 6.50663748383522030000e-002) (125, 6.24604105949401860000e-001) (126, 7.68748164176940920000e-001) (76, 3.42904776334762570000e-002) (77, -1.19312450289726260000e-001) (78, 1.54327481985092160000e-001) (79, -2.17636041343212130000e-002) (80, -7.63844093307852750000e-003) (81, 1.46498650312423710000e-001) (82, 2.35412269830703740000e-001) (83, -3.87238293886184690000e-001) (84, -3.65825891494750980000e-002) (85, 1.49351403117179870000e-001) (86, -4.89012375473976140000e-002) (87, -3.73928733170032500000e-002) (88, -6.44015371799468990000e-001) (89, -2.68531683832407000000e-003) (90, 8.28393816947937010000e-001) (91, 9.72426056861877440000e-001) (92, 8.06770503520965580000e-001) (93, 8.41208219528198240000e-001) (94, 1.59039929509162900000e-001) (95, 3.12006950378417970000e-001) (96, -1.71338918153196570000e-003) (97, 3.36463972926139830000e-002) (98, 1.30408797413110730000e-002) (99, 1.05459140613675120000e-002) (100, -2.99845989793539050000e-002) (101, -4.51390594244003300000e-002) (102, -3.76864075660705570000e-002) (103, 2.97346050501801070000e-005) (104, 6.30221143364906310000e-002) (105, 6.27256155014038090000e-001) (106, 1.28202840685844420000e-001) (107, -1.48695811629295350000e-001) (108, 4.23114076256752010000e-002) (109, 8.68024051189422610000e-001) (110, 5.61352610588073730000e-001) (111, -1.71714201569557190000e-001) (112, -3.60379666090011600000e-001) (113, 1.23839735984802250000e+000) (114, 4.55875843763351440000e-002) (115, -3.37222874164581300000e-001) (116, -2.55388952791690830000e-002) (117, 3.85038256645202640000e-002) (118, -3.72176617383956910000e-002) (119, 6.25280812382698060000e-002) (120, 1.61182850599288940000e-001) (121, 4.24947440624237060000e-002) (122, -1.56713649630546570000e-001) (123, -1.02881796658039090000e-001) (124, -4.87766623497009280000e-001) (125, -5.93997478485107420000e-001) (126, 3.71687233448028560000e-001) (76, -1.86446562409400940000e-001) (77, 4.70764607191085820000e-001) (78, 1.93793460726737980000e-001) (79, 9.10747587680816650000e-001) (80, 6.91702738404273990000e-002) (81, 8.93767058849334720000e-001) (82, 1.13686251640319820000e+000) (83, 9.68895316123962400000e-001) (84, 5.04698827862739560000e-002) (85, 1.88906776905059810000e+000) (86, 7.16413795948028560000e-001) (87, -1.80970236659049990000e-001) (88, 3.68517458438873290000e-001) (89, 4.65154498815536500000e-001) (90, 3.25546175241470340000e-001) (91, -1.00504326820373540000e+000) (92, -9.64123196899890900000e-003) (93, -1.78705084323883060000e+000) (94, 3.08899331092834470000e+000) (95, 3.01081418991088870000e-001) (96, 9.33798402547836300000e-002) (97, -1.05173170566558840000e-001) (98, 6.30975663661956790000e-002) (99, 5.95677271485328670000e-002) (100, -7.49324679374694820000e-001) (101, -9.14000049233436580000e-002) (102, 6.14085912704467770000e-001) (103, 5.07763803005218510000e-001) (104, 1.01613414287567140000e+000) (105, 1.15598428249359130000e+000) (106, 8.23885500431060790000e-001) (107, 1.08148612082004550000e-001) (108, 2.02764227986335750000e-001) (109, -1.68701684474945070000e+000) (110, 3.84872525930404660000e-001) (111, 1.56660842895507810000e+000) (112, 6.85995292663574220000e+000) (113, 1.50430262088775630000e-001) (114, 6.17444515228271480000e-001) (115, 1.83198153972625730000e+000) (116, 2.65917509794235230000e-001) (117, 1.26899316906929020000e-001) (118, 4.95661884546279910000e-001) (119, 4.20678481459617610000e-002) (120, -2.24056529998779300000e+000) (121, 5.89548945426940920000e-001) (122, 4.21155601739883420000e-001) (123, 1.50861954689025880000e+000) (124, 9.77827250957489010000e-001) (125, 6.70782566070556640000e-001) (126, 5.45511841773986820000e-001) (76, -2.19530150294303890000e-001) (77, -4.87551093101501460000e-001) (78, 1.38408768177032470000e+000) (79, -8.76394212245941160000e-002) (80, 6.20401084423065190000e-001) (81, -7.42559274658560750000e-003) (82, 5.65376244485378270000e-002) (83, 3.69111984968185420000e-001) (84, 5.70206701755523680000e-001) (85, 1.64960885047912600000e+000) (86, -1.25345379114151000000e-001) (87, -1.56034961342811580000e-001) (88, 1.02961242198944090000e+000) (89, 7.25163444876670840000e-002) (90, 8.49972248077392580000e-001) (91, 8.90217304229736330000e+000) (92, -3.93410325050354000000e-001) (93, 4.15669536590576170000e+000) (94, 9.47257041931152340000e-001) (95, -1.94939412176609040000e-002) (96, 4.18234877288341520000e-002) (97, -2.10285320878028870000e-001) (98, -3.11466604471206670000e-001) (99, -2.27301046252250670000e-001) (100, 9.89247322082519530000e-001) (101, 3.03074777126312260000e-001) (102, -2.69721359014511110000e-001) (103, 1.45650312304496770000e-001) (104, -3.33937525749206540000e-001) (105, -3.06798871606588360000e-002) (106, 1.38538042083382610000e-002) (107, -1.93779096007347110000e-001) (108, -3.87464612722396850000e-001) (109, -6.04257583618164060000e-001) (110, -3.64427179098129270000e-001) (111, -3.40312123298645020000e-001) (112, -1.07362814247608180000e-001) (113, 1.51734352111816410000e+000) (114, -8.68634879589080810000e-002) (115, 9.84020709991455080000e-001) (116, -1.49007022380828860000e-001) (117, -2.66828685998916630000e-002) (118, 5.17137050628662110000e-001) (119, 1.83442339301109310000e-001) (120, 1.41460731625556950000e-001) (121, -2.37910047173500060000e-001) (122, -3.88735771179199220000e-001) (123, -4.32601422071456910000e-001) (124, 6.01254642009735110000e-001) (125, 8.94064754247665410000e-002) (126, 3.45960617065429690000e-001) (76, 1.29673898220062260000e+000) (77, 2.09597754478454590000e+000) (78, 9.54520511627197270000e+000) (79, 4.10349696874618530000e-001) (80, -1.70342400670051570000e-002) (81, -9.03966367244720460000e-001) (82, 6.68335378170013430000e-001) (83, 1.23119974136352540000e+000) (84, -3.47279131412506100000e-001) (85, 2.11151647567749020000e+000) (86, -3.47173213958740230000e-001) (87, 2.89919450879096980000e-002) (88, -1.40041780471801760000e+000) (89, 1.59920696169137950000e-002) (90, 2.26522731781005860000e+000) (91, 6.90392613410949710000e-001) (92, 1.95942258834838870000e+000) (93, 1.30702805519104000000e+000) (94, -6.86298012733459470000e-002) (95, 1.60364580154418950000e+000) (96, 5.74207305908203130000e-001) (97, 8.14692601561546330000e-002) (98, 1.20277357101440430000e+000) (99, -5.52702486515045170000e-001) (100, 3.10643110424280170000e-002) (101, 1.72881096601486210000e-001) (102, -4.02536660432815550000e-001) (103, 1.30649641156196590000e-001) (104, -1.31330430507659910000e+000) (105, 4.42167907953262330000e-001) (106, -4.40139979124069210000e-001) (107, -5.17068445682525630000e-001) (108, -1.27603173255920410000e-001) (109, 2.98235106468200680000e+000) (110, 1.08024430274963380000e+000) (111, -2.42115354537963870000e+000) (112, 5.48922792077064510000e-002) (113, 5.28810501098632810000e-001) (114, 6.53349936008453370000e-001) (115, -4.45586824417114260000e+000) (116, -3.01271677017211910000e-001) (117, 4.26581650972366330000e-001) (118, 1.56167590618133540000e+000) (119, -6.02265119552612300000e-001) (120, 2.26554799079895020000e+000) (121, 4.95281904935836790000e-001) (122, 1.99082982540130620000e+000) (123, 1.54837858676910400000e+000) (124, -3.54250580072402950000e-001) (125, -5.90813696384429930000e-001) (126, 9.09334599971771240000e-001) (76, -3.48261415958404540000e-001) (77, 6.76263153553009030000e-001) (78, 1.60541266202926640000e-001) (79, 6.47440552711486820000e-001) (80, 1.05768036842346190000e+000) (81, 4.57267314195632930000e-001) (82, 1.20608039200305940000e-001) (83, -7.26931929588317870000e-001) (84, 6.17796480655670170000e-001) (85, 2.48374104499816890000e+000) (86, 5.09035289287567140000e-001) (87, -7.83280014991760250000e-001) (88, 4.30420070886611940000e-001) (89, 6.18707418441772460000e-001) (90, 9.43675160408020020000e-001) (91, 3.95734643936157230000e+000) (92, 1.09803164005279540000e+000) (93, 7.06132221221923830000e+000) (94, -5.27935428544878960000e-003) (95, 8.02788913249969480000e-001) (96, 1.45527243614196780000e-001) (97, 5.42227588593959810000e-002) (98, -8.54845270514488220000e-002) (99, 9.24802199006080630000e-002) (100, 1.96274960041046140000e+000) (101, -2.28522166609764100000e-001) (102, 1.69359922409057620000e-001) (103, 8.68212938308715820000e-001) (104, -4.03383344411849980000e-001) (105, 1.95482444763183590000e+000) (106, 7.02545702457427980000e-001) (107, 3.35661172866821290000e-001) (108, 4.36908543109893800000e-001) (109, 1.88763403892517090000e+000) (110, -4.03563201427459720000e-001) (111, -1.02135889232158660000e-001) (112, 1.76840329170227050000e+000) (113, 1.59779345989227290000e+000) (114, 3.71774643659591670000e-001) (115, 1.73377215862274170000e+000) (116, -9.32547867298126220000e-001) (117, 4.68319095671176910000e-002) (118, -2.71447122097015380000e-001) (119, -2.44210147857666020000e+000) (120, 4.86791431903839110000e-001) (121, -5.10488688945770260000e-001) (122, 6.74711585044860840000e-001) (123, 6.33182883262634280000e-001) (124, -1.29654347896575930000e+000) (125, 1.71467041969299320000e+000) (126, 1.38264238834381100000e+000) (76, -2.90176689624786380000e-001) (77, -3.22149336338043210000e-001) (78, 1.88597053289413450000e-001) (79, -7.08336904644966130000e-002) (80, 4.59388375282287600000e-001) (81, 2.38245144486427310000e-001) (82, 1.71441107988357540000e-001) (83, -9.26626265048980710000e-001) (84, -3.61922048032283780000e-002) (85, 8.16971957683563230000e-001) (86, 1.92767262458801270000e-001) (87, 3.74468453228473660000e-002) (88, 1.77857607603073120000e-001) (89, 9.03495922684669490000e-002) (90, 8.94342422485351560000e-001) (91, 2.30959010124206540000e+000) (92, 8.37182283401489260000e-001) (93, 1.02158033847808840000e+000) (94, 5.14149904251098630000e-001) (95, 1.10745370388031010000e+000) (96, -5.90411722660064700000e-002) (97, -5.52668049931526180000e-002) (98, -1.41870170831680300000e-001) (99, 3.23464497923851010000e-002) (100, 9.32368636131286620000e-001) (101, -2.16593563556671140000e-001) (102, -3.01742628216743470000e-002) (103, 5.31461052596569060000e-002) (104, 8.01840662956237790000e-001) (105, 6.49044096469879150000e-001) (106, 1.74048505723476410000e-002) (107, -4.25734184682369230000e-002) (108, 7.57634937763214110000e-002) (109, 6.69995620846748350000e-002) (110, -2.18048244714736940000e-001) (111, 5.05614042282104490000e-001) (112, 2.35962939262390140000e+000) (113, 1.20883262157440190000e+000) (114, 1.06743745505809780000e-001) (115, -1.72003656625747680000e-001) (116, 3.23725976049900050000e-002) (117, -4.24789488315582280000e-002) (118, -2.79481709003448490000e-001) (119, -4.53131571412086490000e-002) (120, 5.83118855953216550000e-001) (121, 1.92223504185676570000e-001) (122, 7.05449998378753660000e-001) (123, 7.81341969966888430000e-001) (124, -4.20260317623615260000e-002) (125, -4.02339138090610500000e-002) (126, 1.37314152717590330000e+000) (76, 7.03264176845550540000e-001) (77, -8.07970941066741940000e-001) (78, 4.20577645301818850000e-001) (79, -8.45402106642723080000e-002) (80, 7.42008209228515630000e-001) (81, 3.04479628801345830000e-001) (82, 2.81869679689407350000e-001) (83, 3.75354975461959840000e-001) (84, 1.00616717338562010000e+000) (85, -1.49197053909301760000e+000) (86, 5.36384820938110350000e-001) (87, -8.21592882275581360000e-002) (88, -7.06276595592498780000e-001) (89, 1.47470012307167050000e-001) (90, 1.02494943141937260000e+000) (91, -3.15297722816467290000e+000) (92, -3.97979450225830080000e+000) (93, -4.29064798355102540000e+000) (94, 1.59581273794174190000e-001) (95, 7.63884663581848140000e-001) (96, 1.80468812584877010000e-001) (97, 2.12312042713165280000e-001) (98, 7.74126574397087100000e-002) (99, 4.18791621923446660000e-002) (100, -1.25911879539489750000e+000) (101, 2.96132862567901610000e-001) (102, -2.28834554553031920000e-001) (103, 3.79491709172725680000e-002) (104, -2.39959120750427250000e-001) (105, -1.33926582336425780000e+000) (106, 1.18104922771453860000e+000) (107, -1.63867056369781490000e-001) (108, 1.88053935766220090000e-001) (109, 6.42223238945007320000e-001) (110, 3.47889930009841920000e-001) (111, 1.77622318267822270000e-001) (112, -4.23083692789077760000e-001) (113, 2.92644321918487550000e-001) (114, 1.35764017701148990000e-001) (115, 4.30540204048156740000e-001) (116, -6.37966915965080260000e-002) (117, 6.44592419266700740000e-002) (118, -5.98397314548492430000e-001) (119, 1.86000555753707890000e-001) (120, 1.08590257167816160000e+000) (121, -5.82705065608024600000e-002) (122, 9.44141894578933720000e-002) (123, 9.83496904373168950000e-001) (124, -9.04481559991836550000e-002) (125, 6.95088505744934080000e-001) (126, 1.34936833381652830000e+000) (76, 1.75101935863494870000e-001) (77, 1.35680365562438960000e+000) (78, 6.84081763029098510000e-002) (79, -2.00396642088890080000e-001) (80, 1.23655609786510470000e-001) (81, 6.52155578136444090000e-002) (82, -1.05827018618583680000e-001) (83, -4.12538379430770870000e-001) (84, 5.96241056919097900000e-001) (85, 1.13957457244396210000e-001) (86, 7.83757716417312620000e-002) (87, 9.39518027007579800000e-003) (88, 8.91646921634674070000e-001) (89, -3.58702726662158970000e-002) (90, 1.80986821651458740000e-001) (91, 2.88753271102905270000e-001) (92, 1.43636286258697510000e+000) (93, 4.01348972320556640000e+000) (94, 2.67953649163246150000e-002) (95, 3.25411707162857060000e-001) (96, 5.99056705832481380000e-002) (97, 3.57524603605270390000e-002) (98, 4.81088995933532710000e-001) (99, -7.19603523612022400000e-002) (100, 4.51919108629226680000e-001) (101, 3.32921594381332400000e-002) (102, -1.05456985533237460000e-001) (103, -7.14760273694992070000e-002) (104, 4.34026084840297700000e-002) (105, 5.45857489109039310000e-001) (106, -5.01097068190574650000e-002) (107, 1.54966488480567930000e-001) (108, -7.30938091874122620000e-002) (109, 6.19979083538055420000e-001) (110, -5.80087266862392430000e-002) (111, -4.81887578964233400000e-001) (112, -1.23721480369567870000e+000) (113, 7.47311055660247800000e-001) (114, 4.79315817356109620000e-002) (115, 1.82395175099372860000e-001) (116, -4.88756503909826280000e-003) (117, -4.82331477105617520000e-002) (118, 2.71089673042297360000e-001) (119, 6.11472725868225100000e-002) (120, 4.81571197509765630000e-001) (121, -9.81431361287832260000e-003) (122, 8.01472842693328860000e-001) (123, 1.97012305259704590000e-001) (124, -8.16431120038032530000e-002) (125, 6.40464127063751220000e-001) (126, -5.81211864948272710000e-001) (76, 1.34820020198822020000e+000) (77, 2.25122237205505370000e+000) (78, -1.41906723380088810000e-001) (79, -4.04697775840759280000e-001) (80, 7.48430311679840090000e-001) (81, 4.94209468364715580000e-001) (82, -6.16325318813323970000e-001) (83, 1.10138738155364990000e+000) (84, -5.90984225273132320000e-001) (85, -1.83579337596893310000e+000) (86, -1.52043700218200680000e-001) (87, 6.40348255634307860000e-001) (88, -1.69662475585937500000e-001) (89, -9.95621442794799800000e-001) (90, 1.10458993911743160000e+000) (91, -3.01646050065755840000e-002) (92, 2.13318896293640140000e+000) (93, 3.30733442306518550000e+000) (94, -3.52242827415466310000e-001) (95, 4.81219887733459470000e-001) (96, 1.37800052762031560000e-001) (97, -8.37729454040527340000e-001) (98, 1.01434874534606930000e+000) (99, 2.13984698057174680000e-001) (100, 1.23151504993438720000e+000) (101, 2.83325582742691040000e-001) (102, -3.81410419940948490000e-002) (103, 1.56019598245620730000e-001) (104, -1.11378729343414310000e-001) (105, -2.43272230029106140000e-001) (106, 1.95035710930824280000e-001) (107, 1.04707860946655270000e+000) (108, -5.24192869663238530000e-001) (109, 1.53124010562896730000e+000) (110, 4.59158182144165040000e-001) (111, -9.29409563541412350000e-001) (112, -3.91165375709533690000e+000) (113, 1.22164797782897950000e+000) (114, -3.78459304571151730000e-001) (115, -2.33719539642333980000e+000) (116, 4.40207421779632570000e-001) (117, -1.14402860403060910000e-001) (118, 4.75783288478851320000e-001) (119, 2.24818676710128780000e-001) (120, 2.31999564170837400000e+000) (121, 1.22459538280963900000e-001) (122, 1.37675237655639650000e+000) (123, 1.62919139862060550000e+000) (124, 1.73976659774780270000e-001) (125, -3.80563807487487790000e+000) (126, -4.08229291439056400000e-001) (76, -8.07838439941406250000e-002) (77, 9.50670480728149410000e-001) (78, 3.33816223144531250000e+001) (79, 7.91388332843780520000e-001) (80, 8.33106935024261470000e-002) (81, 6.37248158454895020000e-001) (82, 5.12409090995788570000e-001) (83, -5.48967778682708740000e-001) (84, 1.05784308910369870000e+000) (85, 1.65533828735351560000e+000) (86, 9.24271762371063230000e-001) (87, 1.13777053356170650000e+000) (88, 9.40677464008331300000e-001) (89, -4.55970525741577150000e-001) (90, 9.35134768486022950000e-001) (91, 7.96111583709716800000e+000) (92, 1.03370070457458500000e+000) (93, 2.54024993896484370000e+002) (94, 7.87180125713348390000e-001) (95, 1.61724030971527100000e+000) (96, 6.88213407993316650000e-001) (97, 9.63492810726165770000e-001) (98, -4.71272706985473630000e-001) (99, -9.31291580200195310000e-002) (100, 7.37706899642944340000e-001) (101, 8.66700649261474610000e-001) (102, 1.24214356765151020000e-002) (103, -4.10876423120498660000e-002) (104, -2.40075021982192990000e-001) (105, 1.11507940292358400000e+000) (106, 1.01631736755371090000e+000) (107, 9.81768131256103520000e-001) (108, 1.76434725522995000000e-001) (109, -5.49548417329788210000e-002) (110, -4.06951725482940670000e-001) (111, -1.74639831542968750000e+002) (112, -8.76562297344207760000e-001) (113, 1.27471089363098140000e+000) (114, 4.37188088893890380000e-001) (115, -1.55733317136764530000e-001) (116, 4.77582156658172610000e-001) (117, -1.40089178085327150000e+001) (118, -4.27472829818725590000e-001) (119, 1.89690381288528440000e-001) (120, 2.01914519071578980000e-001) (121, -3.21002960205078130000e-001) (122, -3.37325811386108400000e-001) (123, 8.68495881557464600000e-001) (124, -2.22792682647705080000e+001) (125, 1.63466620445251460000e+000) (126, 3.84460747241973880000e-001) (76, 5.96709311008453370000e-001) (77, 1.00382292270660400000e+000) (78, 2.59641146659851070000e+000) (79, -3.35777342319488530000e-001) (80, 1.23602592945098880000e+000) (81, -1.31212651729583740000e+000) (82, -1.20367720723152160000e-001) (83, 3.24346733093261720000e+000) (84, 1.88744425773620610000e-001) (85, -4.81687307357788090000e-001) (86, -2.89918631315231320000e-002) (87, 3.11084330081939700000e-001) (88, -6.72309458255767820000e-001) (89, -9.63445365428924560000e-001) (90, 2.18330979347229000000e+000) (91, -3.49807858467102050000e+000) (92, 1.41912245750427250000e+000) (93, 3.83836507797241210000e+000) (94, -1.25421059131622310000e+000) (95, -2.33379617333412170000e-001) (96, 1.32020205259323120000e-001) (97, 2.89067196846008300000e+000) (98, 1.78851437568664550000e+000) (99, -1.48810923099517820000e+000) (100, 7.23915278911590580000e-001) (101, 6.25076770782470700000e-001) (102, 4.96115162968635560000e-002) (103, 8.39220821857452390000e-001) (104, 5.41678249835968020000e-001) (105, 2.77066320180892940000e-001) (106, 6.42975568771362300000e-001) (107, -6.46647930145263670000e-001) (108, 2.13539981842041020000e+000) (109, 2.37663078308105470000e+000) (110, 9.26236450672149660000e-001) (111, -5.22546350955963130000e-001) (112, -6.35809659957885740000e+000) (113, -1.28151953220367430000e+000) (114, -2.03805589675903320000e+000) (115, -5.75165390968322750000e-001) (116, 6.04999423027038570000e-001) (117, 1.95422613620758060000e+000) (118, 6.07636034488677980000e-001) (119, 2.22215080261230470000e+000) (120, -4.88536581397056580000e-002) (121, 1.81949898600578310000e-001) (122, 2.79551267623901370000e+000) (123, 1.65156257152557370000e+000) (124, -6.67293965816497800000e-001) (125, 5.57481609284877780000e-002) (126, 1.10237240791320800000e+000) (76, 5.16796529293060300000e-001) (77, -4.47776913642883300000e-001) (78, 2.37422615289688110000e-001) (79, -1.43157973885536190000e-001) (80, 9.97811257839202880000e-001) (81, 2.00182780623435970000e-001) (82, 8.07304531335830690000e-002) (83, -1.31157711148262020000e-001) (84, 5.59874951839447020000e-001) (85, 1.01964879035949710000e+000) (86, 4.11021143198013310000e-001) (87, 5.61573952436447140000e-002) (88, 6.03057205677032470000e-001) (89, -4.10101264715194700000e-002) (90, -1.03922188282012940000e-001) (91, 2.15779948234558110000e+000) (92, -3.85658740997314450000e+000) (93, -1.00058448314666750000e+000) (94, 5.86405336856842040000e-001) (95, 7.10067391395568850000e-001) (96, 1.39148429036140440000e-001) (97, 1.48532882332801820000e-001) (98, 7.02676594257354740000e-001) (99, -2.23123654723167420000e-001) (100, 2.08447262644767760000e-001) (101, -2.09873601794242860000e-001) (102, 2.57164835929870610000e-001) (103, -1.37087732553482060000e-001) (104, 1.08831274509429930000e+000) (105, 9.49884176254272460000e-001) (106, -4.54295938834548000000e-003) (107, 8.99973809719085690000e-002) (108, -2.19351530075073240000e-001) (109, 7.97190129756927490000e-001) (110, 9.66520141810178760000e-003) (111, 5.50909340381622310000e-001) (112, 1.21819651126861570000e+000) (113, -2.17640087008476260000e-001) (114, -1.15883484482765200000e-001) (115, 9.34843659400939940000e-001) (116, 5.63367903232574460000e-002) (117, -1.73899799585342410000e-001) (118, -6.66849389672279360000e-002) (119, -9.65806767344474790000e-002) (120, 5.55380344390869140000e-001) (121, 2.15276982635259630000e-002) (122, -3.30687940120697020000e-001) (123, 6.16043686866760250000e-001) (124, 5.79700529575347900000e-001) (125, -5.30223399400711060000e-002) (126, 2.62456059455871580000e+000) (76, 5.98146067932248120000e-003) (77, -6.40800222754478450000e-002) (78, 6.29473567008972170000e-001) (79, 1.61785915493965150000e-001) (80, 4.33772593736648560000e-001) (81, 9.02588844299316410000e-001) (82, 1.59710183739662170000e-001) (83, -8.38368117809295650000e-001) (84, 9.18473601341247560000e-001) (85, 1.45919799804687500000e+000) (86, -1.34741783142089840000e-001) (87, 1.32798776030540470000e-001) (88, -3.53751741349697110000e-002) (89, -1.21950142085552220000e-001) (90, 6.96630254387855530000e-002) (91, 1.34623920917510990000e+000) (92, 7.84039914608001710000e-001) (93, -1.64700317382812500000e+000) (94, 3.49720478057861330000e-001) (95, 1.20534099638462070000e-001) (96, 2.11099818348884580000e-001) (97, 5.11234700679779050000e-001) (98, 1.35065758228302000000e+000) (99, -1.91649749875068660000e-001) (100, -2.43253493309021000000e+000) (101, 8.10622647404670720000e-002) (102, -2.66729146242141720000e-001) (103, -3.13566118478775020000e-001) (104, 7.68074870109558110000e-001) (105, 7.42214083671569820000e-001) (106, 2.61301189661026000000e-001) (107, 5.88536739349365230000e-001) (108, -2.93164756149053570000e-002) (109, -7.04883575439453130000e-001) (110, 9.67670440673828130000e-001) (111, 1.11544263362884520000e+000) (112, 4.06540775299072270000e+000) (113, -4.36297431588172910000e-002) (114, 4.56452280282974240000e-001) (115, 1.22813306748867030000e-001) (116, -1.41447097063064580000e-001) (117, -7.44025334715843200000e-002) (118, 2.83820688724517820000e-001) (119, 3.55071723461151120000e-001) (120, -3.85014891624450680000e-001) (121, 5.71784496307373050000e-001) (122, 1.12757158279418950000e+000) (123, 1.45908105373382570000e+000) (124, 1.42964735627174380000e-001) (125, 1.00510895252227780000e+000) (126, 1.76615083217620850000e+000) (76, 7.55450308322906490000e-001) (77, 5.35221040248870850000e-001) (78, -5.58807775378227230000e-002) (79, 5.65731167793273930000e-001) (80, -5.26296555995941160000e-001) (81, 2.34160721302032470000e-001) (82, 1.54317581653594970000e+000) (83, 7.70178914070129390000e-001) (84, -7.00019970536231990000e-002) (85, 2.41020274162292480000e+000) (86, 8.10473859310150150000e-001) (87, 1.47046044468879700000e-001) (88, 1.39646577835083010000e+000) (89, 1.97271823883056640000e-001) (90, -3.20681072771549220000e-002) (91, -3.12169969081878660000e-001) (92, 2.44634345173835750000e-001) (93, -1.23750376701354980000e+000) (94, 5.05698859691619870000e-001) (95, 8.66566956043243410000e-001) (96, 1.62695169448852540000e-001) (97, 3.60054135322570800000e-001) (98, 1.21170222759246830000e+000) (99, 8.95134434103965760000e-002) (100, -3.98269444704055790000e-001) (101, -6.13193452358245850000e-001) (102, 5.39184987545013430000e-001) (103, 1.82590454816818240000e-001) (104, 7.04838633537292480000e-001) (105, 1.59804534912109370000e+000) (106, 1.08541101217269900000e-001) (107, 7.79359459877014160000e-001) (108, 4.21086788177490230000e-001) (109, -3.27817648649215700000e-001) (110, 1.23182570934295650000e+000) (111, 3.59056758880615230000e+000) (112, 1.87498879432678220000e+000) (113, 5.99453628063201900000e-001) (114, 3.43068778514862060000e-001) (115, 1.33740901947021480000e+000) (116, -6.35784149169921880000e-001) (117, -2.33364403247833250000e-002) (118, 1.52237057685852050000e+000) (119, 4.45496290922164920000e-001) (120, 7.65553861856460570000e-002) (121, 5.71836292743682860000e-001) (122, -2.13726148009300230000e-001) (123, 3.56925815343856810000e-001) (124, 9.20286595821380620000e-001) (125, 3.80296182632446290000e+000) (126, 8.39732944965362550000e-001) (76, 1.54745292663574220000e+000) (77, 3.05213165283203120000e+000) (78, 5.62033510208129880000e+000) (79, 1.02210402488708500000e+000) (80, -1.70215904712677000000e-001) (81, -1.40528237819671630000e+000) (82, 9.53950643539428710000e-001) (83, 3.46569955348968510000e-001) (84, -4.95512127876281740000e-001) (85, 4.09443044662475590000e+000) (86, -2.93504893779754640000e-001) (87, -3.02547383308410640000e+000) (88, -2.68637448549270630000e-001) (89, -5.29732406139373780000e-001) (90, 1.62569999694824220000e+000) (91, 1.51370212435722350000e-001) (92, 3.00770549774169920000e+001) (93, 1.33378801345825200000e+001) (94, -3.37539196014404300000e-001) (95, 2.49617910385131840000e+000) (96, 1.27274727821350100000e+000) (97, 1.25644731521606450000e+000) (98, 1.51268196105957030000e+000) (99, 8.20198774337768550000e-001) (100, 1.02491867542266850000e+000) (101, 3.90095800161361690000e-001) (102, -2.49146208167076110000e-001) (103, 1.74747630953788760000e-001) (104, 8.24374377727508540000e-001) (105, 6.32476031780242920000e-001) (106, -1.71078100800514220000e-001) (107, -3.60378563404083250000e-001) (108, -3.63652527332305910000e-001) (109, 4.33186721801757810000e+000) (110, 7.46186077594757080000e-001) (111, -2.78683490753173830000e+001) (112, -5.71902084350585940000e+000) (113, 8.40122044086456300000e-001) (114, -1.77160501480102540000e+000) (115, -5.90370798110961910000e+000) (116, 4.94158454239368440000e-003) (117, 8.07760059833526610000e-001) (118, 1.34058487415313720000e+000) (119, -1.13218319416046140000e+000) (120, 6.52592611312866210000e+000) (121, 1.51873260736465450000e-001) (122, 2.68614292144775390000e+000) (123, 1.05191206932067870000e+000) (124, -7.53946602344512940000e-001) (125, -1.12313616275787350000e+000) (126, 1.62222957611083980000e+000) (76, -5.08318841457366940000e-001) (77, 4.51032310724258420000e-001) (78, -8.28027784824371340000e-001) (79, 8.46990942955017090000e-001) (80, 1.10892820358276370000e+000) (81, 2.08110213279724120000e-001) (82, 1.05914509296417240000e+000) (83, 9.59649503231048580000e-001) (84, 1.12856924533843990000e+000) (85, -8.74480664730072020000e-001) (86, 3.97118180990219120000e-002) (87, -2.65832257270812990000e+000) (88, 3.11350011825561520000e+000) (89, -7.70321413874626160000e-002) (90, -9.70696508884429930000e-001) (91, -3.87017518281936650000e-001) (92, -5.19924163818359380000e+000) (93, 3.43253076076507570000e-001) (94, -7.34665989875793460000e-001) (95, -1.77348113059997560000e+000) (96, 1.55264270305633540000e+000) (97, -3.57365179061889650000e+000) (98, 8.89792740345001220000e-001) (99, 1.91173648834228520000e+000) (100, 1.85539126396179200000e-001) (101, -5.97062885761260990000e-001) (102, 6.14470183849334720000e-001) (103, -1.01172995567321780000e+000) (104, 1.88605546951293950000e+000) (105, 1.02112317085266110000e+000) (106, 1.90752494335174560000e+000) (107, -1.16356059908866880000e-001) (108, 6.04709684848785400000e-001) (109, -1.76153028011322020000e+000) (110, -4.44961115717887880000e-002) (111, 2.95563292503356930000e+000) (112, 9.90063571929931640000e+000) (113, -1.55860418453812600000e-002) (114, 8.89812186360359190000e-002) (115, 9.33154201507568360000e+000) (116, 1.81955075263977050000e+000) (117, -1.36460080742836000000e-001) (118, -9.92680132389068600000e-001) (119, -1.51373946666717530000e+000) (120, -1.23885822296142580000e+000) (121, 1.02236747741699220000e-001) (122, 2.57074832916259770000e-001) (123, -1.43438547849655150000e-001) (124, 1.61211204528808590000e+000) (125, -2.45396947860717770000e+000) (126, 1.79452562332153320000e+000) (76, 1.99432623386383060000e+000) (77, 1.98589456081390380000e+000) (78, 1.50000000000000000000e+003) (79, 1.47229754924774170000e+000) (80, -2.24007177352905270000e+000) (81, 1.49994519042968750000e+003) (82, -1.49999914550781250000e+003) (83, 1.25073999166488650000e-001) (84, 2.66797572374343870000e-001) (85, 1.50000000000000000000e+003) (86, -1.90755993127822880000e-001) (87, 1.50000000000000000000e+003) (88, -7.40843505859375000000e+002) (89, 1.50000000000000000000e+003) (90, 1.47711646556854250000e+000) (91, 1.36724972724914550000e+000) (92, 1.50000000000000000000e+003) (93, 1.75210177898406980000e+000) (94, 5.08310794830322270000e+000) (95, 6.89643716812133790000e+000) (96, 1.50000000000000000000e+003) (97, 1.50000000000000000000e+003) (98, 1.87125587463378910000e+000) (99, 1.50000000000000000000e+003) (100, -5.34240067005157470000e-001) (101, 1.42510867118835450000e+000) (102, 7.67818808555603030000e-001) (103, 1.50000000000000000000e+003) (104, 8.24836671352386470000e-001) (105, 5.90064048767089840000e-001) (106, -1.50000000000000000000e+003) (107, 1.13093435764312740000e+000) (108, -1.50000000000000000000e+003) (109, 4.75617980957031250000e+001) (110, 1.66186618804931640000e+000) (111, -1.50000000000000000000e+003) (112, -1.65899002552032470000e+000) (113, 9.71924722194671630000e-001) (114, -1.50000000000000000000e+003) (115, -1.02561438083648680000e+000) (116, 1.50000000000000000000e+003) (117, -1.48880261230468750000e+003) (118, 1.52630269527435300000e+000) (119, -1.49994567871093750000e+003) (120, 1.09643359375000000000e+003) (121, 7.95523941516876220000e-001) (122, 1.68034923076629640000e+000) (123, 1.71228942871093750000e+001) (124, -1.50000000000000000000e+003) (125, -6.71791791915893550000e-001) (126, 1.22911548614501950000e+000) (76, 2.15765312314033510000e-001) (77, -1.26202499866485600000e+000) (78, 9.41491782665252690000e-001) (79, -1.35535478591918950000e-001) (80, 3.32791209220886230000e-001) (81, 5.46626210212707520000e-001) (82, 7.22786903381347660000e-001) (83, 7.83999323844909670000e-001) (84, 1.05159796774387360000e-001) (85, 5.91631650924682620000e-001) (86, -1.09720341861248020000e-001) (87, -3.68315726518630980000e-002) (88, -6.99779391288757320000e-001) (89, -7.46044591069221500000e-002) (90, 4.45464998483657840000e-001) (91, 5.87848603725433350000e-001) (92, 9.88182902336120610000e-001) (93, -1.21654140949249270000e+000) (94, 4.38881427049636840000e-001) (95, 5.32330930233001710000e-001) (96, 7.58333876729011540000e-002) (97, 1.69371023774147030000e-001) (98, 4.20313715934753420000e-001) (99, -1.24908775091171260000e-001) (100, -8.02507579326629640000e-001) (101, 5.11555485427379610000e-002) (102, -4.71345901489257810000e-001) (103, -1.27299427986145020000e-001) (104, 1.11799314618110660000e-001) (105, 1.17873623967170720000e-001) (106, 2.66929984092712400000e-001) (107, -9.93888825178146360000e-002) (108, 3.18343341350555420000e-002) (109, 1.02882571518421170000e-001) (110, 1.58188295364379880000e+000) (111, -8.47691595554351810000e-001) (112, 3.88159441947937010000e+000) (113, -1.10622271895408630000e-001) (114, 1.44089847803115840000e-001) (115, 5.60470879077911380000e-001) (116, -1.02558128535747530000e-001) (117, 2.24220994859933850000e-002) (118, -2.02422291040420530000e-001) (119, 2.62419372797012330000e-001) (120, -4.58180814981460570000e-001) (121, 1.61785319447517400000e-001) (122, -4.83160734176635740000e-001) (123, -3.94611150026321410000e-001) (124, -4.57525968551635740000e-001) (125, 1.62602245807647710000e-001) (126, 6.58533036708831790000e-001) (76, 2.89040267467498780000e-001) (77, 1.40644824504852290000e+000) (78, -3.69196891784667970000e-001) (79, -1.74200817942619320000e-001) (80, -1.57586529850959780000e-001) (81, -3.77160131931304930000e-001) (82, -4.09340739250183110000e-001) (83, 1.49690401554107670000e+000) (84, 4.97244566679000850000e-001) (85, -3.74417752027511600000e-002) (86, 2.26418986916542050000e-001) (87, -5.92944733798503880000e-002) (88, -9.72624048590660100000e-002) (89, -1.41115337610244750000e-001) (90, 1.45430254936218260000e+000) (91, -1.22193610668182370000e+000) (92, 1.14297664165496830000e+000) (93, 5.33106565475463870000e+000) (94, -5.01056790351867680000e-001) (95, -8.05673182010650630000e-001) (96, 1.46613478660583500000e-001) (97, 1.79186224937438960000e-001) (98, 5.25524556636810300000e-001) (99, 1.25429313629865650000e-002) (100, 7.89608240127563480000e-001) (101, 1.63586497306823730000e-001) (102, -8.08116048574447630000e-002) (103, 6.42197802662849430000e-002) (104, 1.48243913426995280000e-002) (105, 8.76092612743377690000e-001) (106, 6.92141354084014890000e-001) (107, -2.74158269166946410000e-001) (108, -1.08047062531113620000e-002) (109, 5.35916686058044430000e-001) (110, 6.18745610117912290000e-002) (111, -5.78049778938293460000e-001) (112, -4.71149635314941410000e+000) (113, -3.97617697715759280000e-001) (114, 7.13223293423652650000e-002) (115, -4.59748566150665280000e-001) (116, -1.61609888076782230000e-001) (117, 2.38709636032581330000e-002) (118, 4.39273655414581300000e-001) (119, 1.93794816732406620000e-001) (120, -1.99620917439460750000e-001) (121, -7.84458965063095090000e-002) (122, 8.05626034736633300000e-001) (123, 5.80208659172058110000e-001) (124, 1.34351834654808040000e-001) (125, 1.67538428306579590000e+000) (126, 1.09794068336486820000e+000) (76, 1.05200834572315220000e-001) (77, 5.95490336418151860000e-001) (78, 2.98627167940139770000e-001) (79, -2.64458894729614260000e-001) (80, -3.03291250020265580000e-003) (81, 1.65808852761983870000e-002) (82, 3.46158981323242190000e-001) (83, 2.76238179206848140000e+000) (84, 4.40331459045410160000e-001) (85, 2.95344829559326170000e-001) (86, -1.40600025653839110000e-001) (87, -8.41744467616081240000e-002) (88, 5.71226954460144040000e-001) (89, -3.55984009802341460000e-002) (90, 4.86911088228225710000e-001) (91, 2.92605495452880860000e+000) (92, 1.06686568260192870000e+000) (93, -1.18303930759429930000e+000) (94, 3.32479417324066160000e-001) (95, 8.93373906612396240000e-001) (96, 4.55745160579681400000e-002) (97, 8.68167579174041750000e-002) (98, -3.29504340887069700000e-001) (99, -1.19292400777339940000e-002) (100, 9.62759375572204590000e-001) (101, -2.32492834329605100000e-002) (102, -4.50801521539688110000e-001) (103, -2.33201328665018080000e-002) (104, 1.33654057979583740000e-001) (105, 1.34065389633178710000e+000) (106, 1.20804667472839360000e-001) (107, -5.70625543594360350000e-001) (108, 4.41850582137703900000e-003) (109, 2.50475525856018070000e+000) (110, 9.01147544384002690000e-001) (111, 2.21292901039123540000e+000) (112, 4.32862377166748050000e+000) (113, 1.54596656560897830000e-001) (114, 3.67394611239433290000e-002) (115, -2.14504599571228030000e-001) (116, 2.25713965483009820000e-003) (117, 9.18997451663017270000e-003) (118, 3.50373476743698120000e-001) (119, -2.19211429357528690000e-002) (120, 9.79710221290588380000e-001) (121, -2.77582406997680660000e-002) (122, -2.34064176678657530000e-001) (123, 8.42980295419692990000e-002) (124, -1.14975607395172120000e+000) (125, -2.14204527437686920000e-002) (126, 8.71484220027923580000e-001) (76, -9.69350039958953860000e-002) (77, 5.32875955104827880000e-001) (78, 4.78868931531906130000e-001) (79, 8.44585955142974850000e-001) (80, 7.38662123680114750000e-001) (81, 1.13409990444779400000e-002) (82, 1.59077733755111690000e-001) (83, -4.01191413402557370000e-001) (84, 8.90151262283325200000e-001) (85, 8.81083965301513670000e-001) (86, 4.69901561737060550000e-001) (87, -5.95216788351535800000e-002) (88, -2.61871278285980220000e-001) (89, 5.64556360244750980000e-001) (90, 9.73414778709411620000e-001) (91, 2.15261077880859370000e+000) (92, 8.01127374172210690000e-001) (93, 4.79920148849487300000e+000) (94, 9.71066057682037350000e-001) (95, 1.16840660572052000000e-001) (96, -1.87033470720052720000e-002) (97, 4.68315258622169490000e-002) (98, 9.20376628637313840000e-002) (99, -2.51090168952941890000e-001) (100, 1.32286345958709720000e+000) (101, -4.00637209415435790000e-001) (102, 2.81369477510452270000e-001) (103, -1.18301145732402800000e-001) (104, -3.85610431432724000000e-001) (105, 1.19337987899780270000e+000) (106, 2.18610376119613650000e-001) (107, 6.37191832065582280000e-001) (108, 2.55722075700759890000e-001) (109, 1.96655452251434330000e-001) (110, -3.11416208744049070000e-001) (111, 3.00363004207611080000e-002) (112, 1.93507194519042970000e+000) (113, 1.93750512599945070000e+000) (114, 1.91834613680839540000e-001) (115, 2.43517205119133000000e-001) (116, -7.08872750401496890000e-002) (117, 2.56412595510482790000e-001) (118, -3.31224977970123290000e-001) (119, 6.37998342514038090000e-001) (120, 1.41942054033279420000e-002) (121, -9.99382231384515760000e-003) (122, 7.96388387680053710000e-001) (123, 8.54420542716979980000e-001) (124, -6.15858733654022220000e-001) (125, 1.08055639266967770000e+000) (126, 1.28286314010620120000e+000) (76, -5.12208491563797000000e-002) (77, -1.88870161771774290000e-001) (78, -3.42975370585918430000e-002) (79, 2.63745747506618500000e-002) (80, -1.47363701835274700000e-002) (81, 1.04075305163860320000e-001) (82, 3.47904115915298460000e-001) (83, 8.07682335376739500000e-001) (84, -8.63598212599754330000e-002) (85, 1.74839690327644350000e-001) (86, -3.11422534286975860000e-003) (87, -6.25831112265586850000e-002) (88, 6.00171804428100590000e-001) (89, 1.61377321928739550000e-002) (90, -2.62914877384901050000e-002) (91, -1.29944697022438050000e-001) (92, 1.02669291198253630000e-001) (93, -1.04300367832183840000e+000) (94, 3.48516434431076050000e-001) (95, 3.37668687105178830000e-001) (96, 1.48371467366814610000e-002) (97, -2.96935196965932850000e-002) (98, 3.94950389862060550000e-001) (99, 6.26701712608337400000e-002) (100, -2.16084867715835570000e-001) (101, -2.30684742331504820000e-001) (102, 6.61107182502746580000e-001) (103, 6.55387863516807560000e-002) (104, 1.70658584684133530000e-002) (105, 5.83345830440521240000e-001) (106, 1.88916087150573730000e-001) (107, -1.61185026168823240000e-001) (108, 4.42637950181961060000e-002) (109, -2.69614338874816890000e-001) (110, 6.55508041381835940000e-001) (111, 8.79651129245758060000e-001) (112, -6.93670749664306640000e-001) (113, -1.96445181965827940000e-001) (114, 1.39142945408821110000e-001) (115, 1.54234558343887330000e-001) (116, -2.59810872375965120000e-002) (117, 4.85286153852939610000e-002) (118, -5.28238475322723390000e-001) (119, 1.73754453659057620000e-001) (120, -2.72866964340209960000e-001) (121, 7.77040943503379820000e-002) (122, 1.24470882117748260000e-001) (123, 1.87405601143836980000e-001) (124, 2.33579054474830630000e-003) (125, -2.59203493595123290000e-001) (126, 2.16269803047180180000e+000) (76, 1.13319337368011470000e+000) (77, -6.66064500808715820000e-001) (78, -2.75485157966613770000e-001) (79, -3.47877025604248050000e-001) (80, 5.07184788584709170000e-002) (81, 2.53546480089426040000e-002) (82, 7.16550529003143310000e-001) (83, 5.39892315864562990000e-001) (84, 3.59202355146408080000e-001) (85, 3.81121277809143070000e+000) (86, 7.44132220745086670000e-001) (87, -4.94776628911495210000e-002) (88, 2.51262021064758300000e+000) (89, -9.33094769716262820000e-002) (90, 3.13821107149124150000e-001) (91, 1.13283300399780270000e+000) (92, 7.22935274243354800000e-002) (93, -3.69878023862838750000e-001) (94, 1.48700559139251710000e+000) (95, 2.81180441379547120000e-001) (96, -2.20117177814245220000e-002) (97, 3.72923791408538820000e-001) (98, 1.05765712261199950000e+000) (99, 8.48474204540252690000e-002) (100, 1.00540995597839360000e-001) (101, -4.40756231546401980000e-001) (102, -5.44426560401916500000e-001) (103, -1.84852883219718930000e-001) (104, 2.28759527206420900000e+000) (105, 1.33561301231384280000e+000) (106, -5.10604605078697200000e-002) (107, -2.90177494287490840000e-001) (108, 3.09472620487213130000e-001) (109, 3.21627408266067500000e-001) (110, 5.44414281845092770000e-001) (111, 2.06894397735595700000e+000) (112, 2.54403114318847660000e+000) (113, -2.15157434344291690000e-001) (114, 1.35546490550041200000e-001) (115, 1.77477204799652100000e+000) (116, -4.02022540569305420000e-001) (117, -1.48018315434455870000e-001) (118, -2.15894746780395510000e+000) (119, 2.32183635234832760000e-001) (120, 1.42968797683715820000e+000) (121, 1.92547991871833800000e-001) (122, 4.91568297147750850000e-001) (123, 3.14741343259811400000e-001) (124, 1.15181159973144530000e+000) (125, 7.86761522293090820000e-001) (126, -3.50856512784957890000e-001) (76, 6.66753590106964110000e-001) (77, 7.63090491294860840000e-001) (78, 1.03419160842895510000e+000) (79, 5.84615111351013180000e-001) (80, -1.76823407411575320000e-001) (81, 4.85614389181137080000e-002) (82, 7.28243052959442140000e-001) (83, 5.55781412124633790000e+000) (84, 4.97295528650283810000e-001) (85, -4.35810714960098270000e-001) (86, -2.16592475771903990000e-001) (87, 1.84715285897254940000e-001) (88, -6.81120991706848140000e-001) (89, -5.47039985656738280000e-001) (90, 1.77859771251678470000e+000) (91, -1.78730398416519170000e-001) (92, 1.85443377494812010000e+000) (93, 5.44192218780517580000e+000) (94, -7.46439099311828610000e-001) (95, 2.94074296951293950000e-001) (96, 3.72461855411529540000e-001) (97, 1.94344907999038700000e-001) (98, 1.47248223423957820000e-001) (99, 2.04359203577041630000e-001) (100, 1.83881306648254390000e+000) (101, 3.03774833679199220000e-001) (102, 1.61508655548095700000e+000) (103, -2.09255948662757870000e-001) (104, -1.67558908462524410000e-001) (105, 5.29081046581268310000e-001) (106, 7.71568119525909420000e-001) (107, 6.64238810539245610000e-001) (108, -8.15239399671554570000e-002) (109, 7.68783986568450930000e-001) (110, 1.28910988569259640000e-001) (111, -8.90812218189239500000e-001) (112, -3.44789892435073850000e-001) (113, -3.68054479360580440000e-001) (114, -1.55014500021934510000e-001) (115, -7.19386935234069820000e-001) (116, -2.66264170408248900000e-001) (117, 2.77908414602279660000e-001) (118, 4.23084586858749390000e-001) (119, 3.90927374362945560000e-001) (120, 1.06981360912323000000e+000) (121, -2.71900415420532230000e-001) (122, 8.61161231994628910000e-001) (123, 1.54889631271362300000e+000) (124, -9.69400163739919660000e-003) (125, 5.24396479129791260000e-001) (126, 8.90073060989379880000e-001) (127, 1.89365303516387940000e+000) (128, 3.55670046806335450000e+000) (129, -3.95568102598190310000e-001) (130, 1.61513459682464600000e+000) (131, 7.28478527069091800000e+000) (132, 1.67130649089813230000e+000) (133, 1.79798579216003420000e+000) (134, -9.74726915359497070000e-001) (135, 1.65207481384277340000e+000) (136, 1.51747095584869380000e+000) (137, 2.95085930824279790000e+000) (138, 1.14545106887817380000e+000) (139, -8.38202357292175290000e-001) (140, -1.46236211061477660000e-001) (141, -1.58738180994987490000e-001) (142, 1.75699722766876220000e+000) (143, -1.22091317176818850000e+000) (144, 2.09903661161661150000e-002) (145, -4.52967077493667600000e-001) (146, 5.88221073150634770000e-001) (147, -4.36244636774063110000e-001) (148, 5.58971118927001950000e+000) (149, -1.93443596363067630000e+000) (150, -3.15651625394821170000e-001) (151, 1.13939976692199710000e+000) (152, 1.10196506977081300000e+000) 
